<unk>	0
<s>	0
</s>	0
｟up｠	0
｟aup｠	0
｟n0｠	0
｟n1｠	0
｟n2｠	0
｟n3｠	0
｟n4｠	0
｟n5｠	0
｟n6｠	0
｟n7｠	0
｟n8｠	0
｟n9｠	0
▁t	-0
up	-1
▁⦅	-2
@@	-3
▁a	-4
▁th	-5
▁@@	-6
in	-7
on	-8
▁the	-9
re	-10
ti	-11
▁o	-12
en	-13
er	-14
▁c	-15
▁s	-16
▁p	-17
▁of	-18
▁in	-19
tion	-20
▁@@,	-21
or	-22
es	-23
nd	-24
ed	-25
al	-26
it	-27
is	-28
▁w	-29
▁f	-30
at	-31
▁and	-32
an	-33
▁to	-34
▁b	-35
▁@@.	-36
▁re	-37
ing	-38
ro	-39
▁m	-40
ar	-41
ation	-42
▁d	-43
ent	-44
ic	-45
ec	-46
▁co	-47
le	-48
▁h	-49
▁n	-50
▁e	-51
ment	-52
as	-53
ve	-54
un	-55
▁pro	-56
il	-57
▁for	-58
▁con	-59
ul	-60
ur	-61
ce	-62
▁g	-63
▁be	-64
si	-65
▁on	-66
ra	-67
st	-68
ri	-69
▁com	-70
th	-71
▁l	-72
aup	-73
▁st	-74
ol	-75
▁that	-76
▁as	-77
ly	-78
▁i	-79
▁de	-80
▁@@-	-81
▁2	-82
ts	-83
▁@@-@@	-84
us	-85
▁is	-86
ith	-87
▁1	-88
ter	-89
▁it	-90
lo	-91
▁with	-92
ate	-93
vi	-94
om	-95
▁wh	-96
▁ac	-97
ver	-98
em	-99
ity	-100
por	-101
▁comm	-102
▁or	-103
uc	-104
▁by	-105
gh	-106
▁al	-107
ac	-108
res	-109
ations	-110
tic	-111
ut	-112
ab	-113
▁ex	-114
▁an	-115
▁no	-116
ad	-117
▁un	-118
ere	-119
ir	-120
▁par	-121
et	-122
el	-123
port	-124
qu	-125
ers	-126
sion	-127
▁20	-128
um	-129
ion	-130
▁en	-131
▁res	-132
▁sh	-133
mp	-134
os	-135
und	-136
▁ad	-137
ain	-138
ff	-139
ess	-140
ial	-141
oc	-142
ge	-143
ted	-144
▁are	-145
te	-146
▁ch	-147
▁at	-148
tive	-149
ational	-150
ub	-151
ud	-152
id	-153
ties	-154
▁coun	-155
▁reg	-156
op	-157
uld	-158
▁@@/	-159
▁@@/@@	-160
end	-161
im	-162
ist	-163
ure	-164
▁le	-165
pp	-166
▁sec	-167
ther	-168
ay	-169
ance	-170
ber	-171
▁me	-172
ary	-173
▁inter	-174
pec	-175
ak	-176
▁this	-177
ould	-178
od	-179
▁inc	-180
▁ne	-181
▁ag	-182
rom	-183
▁cont	-184
▁ha	-185
▁its	-186
li	-187
ich	-188
▁j	-189
ated	-190
fic	-191
est	-192
▁200	-193
▁app	-194
ill	-195
all	-196
▁was	-197
▁which	-198
▁not	-199
▁wor	-200
▁@@;	-201
▁imp	-202
▁from	-203
ore	-204
iz	-205
▁v	-206
ments	-207
for	-208
and	-209
tions	-210
gra	-211
lop	-212
velop	-213
▁develop	-214
▁ar	-215
ard	-216
▁comp	-217
me	-218
ission	-219
▁@@.@@	-220
▁pre	-221
lic	-222
ates	-223
▁ass	-224
▁acc	-225
ust	-226
▁go	-227
ren	-228
ven	-229
our	-230
ies	-231
ran	-232
▁ri	-233
ip	-234
form	-235
▁@@'	-236
▁dis	-237
ow	-238
ited	-239
able	-240
▁und	-241
▁righ	-242
▁have	-243
vid	-244
▁dec	-245
se	-246
▁per	-247
di	-248
▁intern	-249
▁r	-250
▁rec	-251
ant	-252
▁commit	-253
ch	-254
▁count	-255
ire	-256
▁has	-257
▁y	-258
sid	-259
ish	-260
▁int	-261
▁their	-262
rop	-263
duc	-264
▁work	-265
▁sub	-266
▁@@:	-267
▁eu	-268
ision	-269
▁under	-270
▁@@'@@	-271
min	-272
eral	-273
▁pol	-274
▁3	-275
gn	-276
▁gen	-277
▁rep	-278
▁we	-279
▁se	-280
ous	-281
per	-282
▁19	-283
▁united	-284
▁international	-285
ord	-286
▁sup	-287
ution	-288
▁commission	-289
▁k	-290
▁pl	-291
lud	-292
▁all	-293
▁po	-294
▁mem	-295
ces	-296
▁been	-297
▁he	-298
so	-299
vern	-300
tee	-301
▁states	-302
ap	-303
▁us	-304
age	-305
ild	-306
ence	-307
▁also	-308
ect	-309
▁rights	-310
▁will	-311
lement	-312
ities	-313
▁should	-314
▁govern	-315
▁provid	-316
▁am	-317
▁eff	-318
▁report	-319
erv	-320
▁other	-321
▁tra	-322
tit	-323
uman	-324
am	-325
▁development	-326
▁requ	-327
ry	-328
▁committee	-329
▁had	-330
▁inform	-331
▁gro	-332
▁human	-333
▁conc	-334
ia	-335
ress	-336
▁ec	-337
low	-338
▁nations	-339
igh	-340
▁general	-341
iv	-342
▁ab	-343
▁spec	-344
ue	-345
▁includ	-346
▁cons	-347
▁fin	-348
gan	-349
uth	-350
gram	-351
▁state	-352
▁partic	-353
▁sa	-354
▁man	-355
▁pe	-356
▁suc	-357
ear	-358
ult	-359
▁la	-360
▁proc	-361
▁program	-362
▁were	-363
ree	-364
▁vi	-365
▁there	-366
ries	-367
▁organ	-368
ew	-369
ric	-370
▁national	-371
▁201	-372
▁europ	-373
ace	-374
ures	-375
▁europe	-376
▁part	-377
cil	-378
▁artic	-379
resent	-380
▁implement	-381
"@@	-382
ari	-383
ublic	-384
ms	-385
▁shall	-386
ble	-387
▁council	-388
eren	-389
ugh	-390
▁tran	-391
▁5	-392
ves	-393
▁countries	-394
ose	-395
▁tak	-396
▁would	-397
▁ob	-398
▁child	-399
▁out	-400
ign	-401
red	-402
▁4	-403
▁sy	-404
▁199	-405
anc	-406
ase	-407
de	-408
▁conf	-409
▁exp	-410
▁such	-411
▁im	-412
ical	-413
ech	-414
ome	-415
▁ra	-416
▁ref	-417
ual	-418
▁soc	-419
oun	-420
▁regul	-421
▁support	-422
eration	-423
ach	-424
ating	-425
▁commun	-426
▁qu	-427
▁information	-428
ag	-429
▁polic	-430
▁bas	-431
▁pers	-432
abl	-433
ative	-434
▁min	-435
▁article	-436
▁so	-437
▁trans	-438
ting	-439
ern	-440
▁government	-441
▁organiz	-442
▁prot	-443
onom	-444
▁mar	-445
▁ter	-446
▁rel	-447
stem	-448
ility	-449
▁member	-450
00	-451
▁serv	-452
tor	-453
ph	-454
▁european	-455
ons	-456
▁li	-457
▁up	-458
ten	-459
ong	-460
▁.	-461
▁leg	-462
▁ins	-463
▁auth	-464
▁law	-465
ret	-466
▁offic	-467
rib	-468
▁cent	-469
▁group	-470
▁system	-471
▁author	-472
▁mo	-473
▁econom	-474
reat	-475
▁,	-476
ast	-477
▁6	-478
omen	-479
iti	-480
▁meas	-481
▁year	-482
▁bet	-483
enc	-484
▁meet	-485
▁may	-486
▁est	-487
▁af	-488
▁servic	-489
▁consid	-490
▁more	-491
rac	-492
vention	-493
ell	-494
▁iss	-495
▁new	-496
▁women	-497
og	-498
▁secur	-499
pos	-500
▁concern	-501
▁region	-502
▁fac	-503
▁resol	-504
▁-	-505
▁need	-506
▁"@@	-507
vel	-508
▁inv	-509
▁produc	-510
tical	-511
ific	-512
ati	-513
ablish	-514
ection	-515
▁establish	-516
ession	-517
ail	-518
ade	-519
we	-520
▁security	-521
▁str	-522
▁bo	-523
ular	-524
▁ro	-525
▁secret	-526
ine	-527
out	-528
graph	-529
mo	-530
ory	-531
▁disc	-532
▁fol	-533
▁pri	-534
▁op	-535
▁can	-536
▁follow	-537
▁any	-538
▁including	-539
pon	-540
▁fi	-541
▁acti	-542
tain	-543
▁mon	-544
▁they	-545
▁sp	-546
les	-547
▁these	-548
rough	-549
▁regard	-550
▁accord	-551
▁meeting	-552
▁programme	-553
▁prov	-554
▁into	-555
▁di	-556
▁dire	-557
ron	-558
ween	-559
▁between	-560
▁direc	-561
uring	-562
▁level	-563
▁one	-564
▁decision	-565
ll	-566
ft	-567
▁those	-568
par	-569
▁particular	-570
der	-571
▁ind	-572
▁financ	-573
▁fund	-574
▁economic	-575
▁oper	-576
enti	-577
▁ens	-578
mit	-579
▁tim	-580
▁social	-581
▁measures	-582
▁made	-583
▁require	-584
▁children	-585
▁do	-586
erence	-587
▁public	-588
▁over	-589
▁contin	-590
▁special	-591
echn	-592
▁el	-593
▁cl	-594
▁implementation	-595
▁adop	-596
▁where	-597
▁dra	-598
▁plan	-599
are	-600
▁gu	-601
▁represent	-602
▁techn	-603
▁respon	-604
ru	-605
▁ann	-606
▁7	-607
ament	-608
ues	-609
agraph	-610
▁again	-611
▁through	-612
▁import	-613
omm	-614
▁coop	-615
ks	-616
▁@@,@@	-617
dition	-618
ke	-619
▁high	-620
ural	-621
▁who	-622
eld	-623
fore	-624
▁cri	-625
▁provision	-626
vities	-627
utions	-628
▁activities	-629
jec	-630
▁process	-631
▁convention	-632
▁resolution	-633
▁peop	-634
▁incre	-635
ered	-636
▁9	-637
▁use	-638
▁if	-639
▁num	-640
▁propos	-641
ty	-642
ors	-643
▁pr	-644
▁than	-645
ied	-646
▁how	-647
▁cap	-648
▁country	-649
▁ed	-650
ving	-651
▁appro	-652
ved	-653
▁paragraph	-654
ian	-655
▁equ	-656
iod	-657
▁agree	-658
ges	-659
▁des	-660
▁but	-661
▁add	-662
▁regulation	-663
air	-664
▁session	-665
▁cour	-666
ject	-667
als	-668
alth	-669
ens	-670
int	-671
very	-672
▁8	-673
▁community	-674
▁must	-675
▁set	-676
▁against	-677
▁assist	-678
ount	-679
go	-680
sible	-681
▁pur	-682
ateg	-683
ally	-684
▁union	-685
rit	-686
▁tw	-687
pt	-688
▁instit	-689
▁recomm	-690
▁effec	-691
▁recommend	-692
▁fur	-693
▁fir	-694
ex	-695
mes	-696
▁period	-697
ld	-698
emb	-699
▁educ	-700
▁order	-701
leg	-702
▁emp	-703
▁non	-704
hi	-705
ef	-706
bers	-707
▁well	-708
▁time	-709
▁health	-710
▁mak	-711
▁cooperation	-712
▁further	-713
▁mat	-714
▁sit	-715
▁services	-716
▁financial	-717
ration	-718
ources	-719
▁some	-720
▁indi	-721
▁number	-722
▁ensure	-723
uation	-724
wor	-725
ep	-726
ency	-727
▁peace	-728
get	-729
▁assemb	-730
▁within	-731
view	-732
ise	-733
lear	-734
ffic	-735
▁form	-736
▁only	-737
▁parties	-738
ruc	-739
▁fo	-740
▁particip	-741
ards	-742
▁assembly	-743
▁envi	-744
▁provided	-745
▁environ	-746
ality	-747
olog	-748
▁his	-749
ort	-750
▁viol	-751
▁adv	-752
▁action	-753
▁promo	-754
inc	-755
▁environment	-756
▁people	-757
▁main	-758
ug	-759
▁aff	-760
▁members	-761
▁presid	-762
▁during	-763
▁respec	-764
▁working	-765
▁sc	-766
▁following	-767
loy	-768
▁policy	-769
hip	-770
agement	-771
ember	-772
▁ful	-773
▁pos	-774
▁first	-775
lig	-776
▁applic	-777
ilit	-778
▁@@"	-779
▁exper	-780
▁rele	-781
▁provide	-782
▁protection	-783
rent	-784
▁car	-785
▁dem	-786
▁ma	-787
ack	-788
▁10	-789
ters	-790
▁world	-791
▁proced	-792
fied	-793
▁def	-794
▁review	-795
ile	-796
ond	-797
▁doc	-798
▁addition	-799
ot	-800
▁regional	-801
▁oc	-802
▁two	-803
▁inst	-804
▁secretary	-805
▁dat	-806
▁present	-807
ety	-808
▁sch	-809
ports	-810
▁draft	-811
▁contrib	-812
▁@@’	-813
sts	-814
erg	-815
▁could	-816
vent	-817
man	-818
▁cur	-819
▁education	-820
▁resources	-821
▁management	-822
ized	-823
▁treat	-824
ability	-825
act	-826
▁poli	-827
ings	-828
ases	-829
▁impro	-830
sive	-831
ight	-832
▁conference	-833
▁ques	-834
▁person	-835
ining	-836
aus	-837
▁legal	-838
ever	-839
med	-840
▁mark	-841
orts	-842
▁docu	-843
▁gi	-844
▁strateg	-845
▁accordance	-846
work	-847
▁republic	-848
▁take	-849
▁stand	-850
▁them	-851
ism	-852
▁initi	-853
▁persons	-854
▁0	-855
ute	-856
▁view	-857
▁right	-858
▁av	-859
▁when	-860
tice	-861
▁es	-862
▁chan	-863
aff	-864
▁our	-865
▁assistance	-866
▁years	-867
▁afric	-868
▁efforts	-869
ecess	-870
▁party	-871
▁ext	-872
arm	-873
▁being	-874
▁political	-875
ful	-876
val	-877
▁president	-878
▁fra	-879
▁issues	-880
▁mr	-881
▁sign	-882
▁based	-883
ass	-884
▁ent	-885
▁jo	-886
led	-887
▁address	-888
▁bec	-889
ans	-890
▁specific	-891
▁end	-892
▁organizations	-893
vant	-894
▁office	-895
▁data	-896
▁however	-897
▁sector	-898
▁prac	-899
▁bud	-900
▁areas	-901
▁civ	-902
ince	-903
▁necess	-904
▁em	-905
▁parli	-906
▁taken	-907
▁admin	-908
bility	-909
gth	-910
lu	-911
▁act	-912
▁princ	-913
▁cer	-914
▁princip	-915
ide	-916
old	-917
ig	-918
mination	-919
▁loc	-920
reed	-921
▁programmes	-922
ordin	-923
▁amend	-924
bal	-925
ected	-926
▁civil	-927
atives	-928
▁reco	-929
ised	-930
sition	-931
▁agreement	-932
its	-933
ropri	-934
▁annex	-935
▁off	-936
▁parliament	-937
wn	-938
vers	-939
▁administ	-940
▁id	-941
teg	-942
▁assess	-943
▁about	-944
▁relevant	-945
▁med	-946
▁effective	-947
▁glo	-948
▁training	-949
hie	-950
▁adopted	-951
land	-952
▁indic	-953
▁capac	-954
▁achie	-955
isl	-956
fy	-957
▁market	-958
▁rem	-959
▁authorities	-960
▁appropri	-961
stan	-962
own	-963
▁fore	-964
ral	-965
▁legisl	-966
▁since	-967
▁coordin	-968
ys	-969
▁case	-970
ines	-971
▁budget	-972
▁current	-973
one	-974
▁att	-975
▁bu	-976
▁stren	-977
▁nor	-978
▁account	-979
▁strength	-980
▁access	-981
▁important	-982
▁12	-983
▁rece	-984
king	-985
▁related	-986
▁necessary	-987
pend	-988
▁frame	-989
▁15	-990
▁deleg	-991
amp	-992
pr	-993
▁ser	-994
▁situation	-995
▁val	-996
▁bod	-997
▁most	-998
▁si	-999
▁global	-1000
ang	-1001
ents	-1002
▁organization	-1003
ning	-1004
▁trade	-1005
▁respect	-1006
▁staff	-1007
ily	-1008
ilities	-1009
▁basis	-1010
fe	-1011
tern	-1012
▁technical	-1013
▁call	-1014
▁cor	-1015
▁increas	-1016
▁contro	-1017
ulation	-1018
▁submit	-1019
▁provisions	-1020
▁ben	-1021
▁developing	-1022
ium	-1023
ustain	-1024
ued	-1025
▁contain	-1026
▁both	-1027
xt	-1028
ization	-1029
▁mill	-1030
▁employ	-1031
▁constit	-1032
▁court	-1033
▁sustain	-1034
▁cre	-1035
pa	-1036
gin	-1037
▁second	-1038
▁question	-1039
▁held	-1040
▁mod	-1041
ditions	-1042
▁therefore	-1043
▁integ	-1044
to	-1045
▁fe	-1046
▁ph	-1047
▁inf	-1048
▁discus	-1049
▁avail	-1050
▁strengthen	-1051
▁refer	-1052
▁mission	-1053
ays	-1054
▁appropriate	-1055
omes	-1056
▁prior	-1057
▁fam	-1058
▁established	-1059
▁many	-1060
▁same	-1061
▁rul	-1062
▁diff	-1063
▁used	-1064
gress	-1065
▁thir	-1066
ite	-1067
▁invol	-1068
ath	-1069
▁char	-1070
▁possible	-1071
tim	-1072
▁while	-1073
▁aid	-1074
▁11	-1075
▁soci	-1076
▁decl	-1077
▁ur	-1078
▁pa	-1079
itor	-1080
▁after	-1081
▁pop	-1082
▁intere	-1083
▁capacity	-1084
fication	-1085
▁each	-1086
▁jus	-1087
▁conditions	-1088
ariat	-1089
▁make	-1090
▁framework	-1091
▁secretariat	-1092
▁consider	-1093
▁vari	-1094
▁coll	-1095
▁proble	-1096
▁dist	-1097
▁without	-1098
▁ris	-1099
▁cases	-1100
ages	-1101
▁reques	-1102
▁concerned	-1103
▁@@"@@	-1104
ined	-1105
elf	-1106
▁requirements	-1107
▁jud	-1108
▁00	-1109
ious	-1110
▁before	-1111
▁area	-1112
▁rap	-1113
▁inde	-1114
tention	-1115
ater	-1116
▁partn	-1117
▁among	-1118
▁objec	-1119
▁document	-1120
▁december	-1121
ause	-1122
▁what	-1123
ender	-1124
▁subject	-1125
▁sol	-1126
▁institutions	-1127
ultural	-1128
▁service	-1129
▁lim	-1130
▁rules	-1131
erc	-1132
▁control	-1133
▁good	-1134
▁recogn	-1135
▁ke	-1136
▁remain	-1137
▁build	-1138
▁discri	-1139
▁identi	-1140
▁progress	-1141
▁reduc	-1142
▁stud	-1143
▁great	-1144
▁crimin	-1145
▁monitor	-1146
▁yo	-1147
▁force	-1148
▁given	-1149
▁enc	-1150
▁technolog	-1151
▁comple	-1152
▁consult	-1153
▁rest	-1154
▁13	-1155
▁available	-1156
▁continue	-1157
▁aw	-1158
▁whe	-1159
▁role	-1160
▁like	-1161
▁deter	-1162
▁@@’@@	-1163
▁place	-1164
▁directive	-1165
▁said	-1166
▁three	-1167
▁exist	-1168
$@@	-1169
ition	-1170
▁third	-1171
▁uni	-1172
▁lead	-1173
▁kn	-1174
▁item	-1175
▁maj	-1176
▁supp	-1177
▁representative	-1178
▁nat	-1179
▁@@?	-1180
▁according	-1181
▁criminal	-1182
ok	-1183
▁30	-1184
▁$@@	-1185
▁guid	-1186
▁local	-1187
▁express	-1188
echan	-1189
▁allow	-1190
tig	-1191
▁reports	-1192
▁mechan	-1193
ently	-1194
▁her	-1195
▁means	-1196
▁differen	-1197
▁communic	-1198
▁14	-1199
▁improve	-1200
unc	-1201
▁partners	-1202
▁violence	-1203
▁occ	-1204
▁major	-1205
ris	-1206
▁te	-1207
▁field	-1208
▁stat	-1209
til	-1210
ants	-1211
arge	-1212
▁long	-1213
▁groups	-1214
sibility	-1215
▁result	-1216
tal	-1217
atory	-1218
▁own	-1219
▁oblig	-1220
une	-1221
▁ban	-1222
▁vic	-1223
ool	-1224
▁considered	-1225
▁recommendations	-1226
▁whether	-1227
▁agend	-1228
▁2006	-1229
▁18	-1230
ption	-1231
ower	-1232
▁clear	-1233
▁approach	-1234
▁su	-1235
▁men	-1236
▁2008	-1237
uclear	-1238
ceed	-1239
▁referred	-1240
part	-1241
roduc	-1242
▁issue	-1243
▁transport	-1244
▁invest	-1245
▁authority	-1246
▁lab	-1247
▁obs	-1248
▁gender	-1249
▁nuclear	-1250
▁clo	-1251
ital	-1252
▁agenda	-1253
▁official	-1254
▁certain	-1255
▁2009	-1256
tak	-1257
▁conflic	-1258
▁conduc	-1259
▁individ	-1260
▁individual	-1261
▁concerning	-1262
▁2005	-1263
▁policies	-1264
▁school	-1265
▁see	-1266
▁sur	-1267
▁2010	-1268
yp	-1269
ough	-1270
▁million	-1271
▁sustainable	-1272
▁inves	-1273
▁treaty	-1274
▁chair	-1275
ding	-1276
▁june	-1277
▁pay	-1278
enn	-1279
▁products	-1280
▁aim	-1281
▁project	-1282
▁air	-1283
▁undertak	-1284
▁comb	-1285
ergy	-1286
▁increase	-1287
uly	-1288
▁my	-1289
▁ve	-1290
▁common	-1291
▁does	-1292
▁required	-1293
▁proposed	-1294
▁2007	-1295
▁very	-1296
sions	-1297
▁mand	-1298
▁hel	-1299
ss	-1300
▁contrac	-1301
▁territ	-1302
▁foc	-1303
▁projec	-1304
▁legislation	-1305
▁procedure	-1306
▁care	-1307
read	-1308
▁16	-1309
▁discrimination	-1310
▁investig	-1311
▁justice	-1312
▁indust	-1313
▁include	-1314
eur	-1315
▁needs	-1316
ences	-1317
▁purs	-1318
▁population	-1319
▁2004	-1320
▁democ	-1321
▁z	-1322
range	-1323
▁dep	-1324
av	-1325
▁resul	-1326
▁energy	-1327
ina	-1328
▁board	-1329
▁fut	-1330
▁;	-1331
rec	-1332
▁pros	-1333
ture	-1334
▁society	-1335
▁police	-1336
▁particularly	-1337
▁future	-1338
ators	-1339
▁joint	-1340
oci	-1341
▁head	-1342
cept	-1343
▁four	-1344
▁receiv	-1345
▁priv	-1346
▁additional	-1347
ister	-1348
arian	-1349
▁application	-1350
▁full	-1351
▁exec	-1352
ror	-1353
▁sti	-1354
encies	-1355
▁ori	-1356
▁lo	-1357
▁benef	-1358
ked	-1359
▁meth	-1360
▁environmental	-1361
ize	-1362
▁depart	-1363
ocol	-1364
▁design	-1365
▁mul	-1366
▁encour	-1367
▁2011	-1368
▁anal	-1369
▁protocol	-1370
ended	-1371
▁way	-1372
▁prof	-1373
▁sum	-1374
▁substan	-1375
▁request	-1376
▁various	-1377
▁opport	-1378
▁17	-1379
▁total	-1380
▁because	-1381
▁opportun	-1382
▁net	-1383
▁associ	-1384
ner	-1385
▁prepar	-1386
▁func	-1387
▁det	-1388
▁point	-1389
▁bi	-1390
▁monitoring	-1391
▁land	-1392
ov	-1393
itiz	-1394
▁signific	-1395
▁eng	-1396
▁submitted	-1397
ove	-1398
atis	-1399
▁now	-1400
gen	-1401
tial	-1402
▁deb	-1403
sequ	-1404
▁rev	-1405
▁food	-1406
▁wel	-1407
▁participation	-1408
▁africa	-1409
day	-1410
▁term	-1411
ient	-1412
▁instru	-1413
▁sm	-1414
▁consideration	-1415
erial	-1416
▁welc	-1417
▁grow	-1418
▁weap	-1419
▁six	-1420
ately	-1421
ale	-1422
▁2003	-1423
▁noted	-1424
▁terror	-1425
ring	-1426
▁focus	-1427
tics	-1428
▁minist	-1429
allen	-1430
▁operations	-1431
▁developed	-1432
▁help	-1433
▁entit	-1434
▁declar	-1435
▁reas	-1436
aced	-1437
▁projects	-1438
porteur	-1439
▁above	-1440
▁disp	-1441
▁rapporteur	-1442
▁risk	-1443
▁hous	-1444
▁perform	-1445
ice	-1446
▁reform	-1447
▁standards	-1448
▁ear	-1449
▁method	-1450
▁bodies	-1451
▁vis	-1452
rative	-1453
▁month	-1454
▁interest	-1455
▁july	-1456
▁free	-1457
▁promote	-1458
▁change	-1459
aged	-1460
▁elect	-1461
ried	-1462
▁production	-1463
tives	-1464
ban	-1465
▁milit	-1466
▁delegation	-1467
▁000	-1468
ame	-1469
ensive	-1470
▁down	-1471
▁fact	-1472
airs	-1473
▁family	-1474
▁compet	-1475
▁foreign	-1476
▁typ	-1477
▁impact	-1478
wards	-1479
▁procedures	-1480
▁ii	-1481
▁having	-1482
aim	-1483
▁enh	-1484
▁challen	-1485
▁different	-1486
▁21	-1487
loc	-1488
▁facilit	-1489
▁gran	-1490
ator	-1491
▁significant	-1492
▁systems	-1493
▁proposal	-1494
▁know	-1495
▁assessment	-1496
▁citiz	-1497
▁prevent	-1498
earch	-1499
▁administrative	-1500
▁research	-1501
▁south	-1502
▁apply	-1503
▁independ	-1504
▁traffic	-1505
stand	-1506
▁eval	-1507
▁importance	-1508
▁levels	-1509
▁material	-1510
▁building	-1511
▁open	-1512
▁jan	-1513
▁strategy	-1514
▁costs	-1515
du	-1516
▁water	-1517
▁military	-1518
uge	-1519
▁representatives	-1520
▁governments	-1521
▁statis	-1522
aran	-1523
iness	-1524
▁section	-1525
▁conte	-1526
▁constitution	-1527
▁affairs	-1528
▁const	-1529
▁25	-1530
▁2002	-1531
▁meetings	-1532
goti	-1533
▁tre	-1534
verty	-1535
▁status	-1536
itarian	-1537
▁beh	-1538
urn	-1539
▁poverty	-1540
ged	-1541
▁african	-1542
▁achieve	-1543
▁private	-1544
▁integr	-1545
▁examp	-1546
▁vo	-1547
▁negoti	-1548
ering	-1549
‘@@	-1550
▁proper	-1551
▁saf	-1552
▁pen	-1553
▁pal	-1554
▁principles	-1555
▁central	-1556
▁fed	-1557
▁cost	-1558
ateral	-1559
▁note	-1560
▁establishment	-1561
▁‘@@	-1562
▁results	-1563
ential	-1564
▁beli	-1565
▁relating	-1566
▁vol	-1567
▁u	-1568
ared	-1569
▁context	-1570
▁humanitarian	-1571
▁sex	-1572
▁direct	-1573
▁introduc	-1574
▁claim	-1575
▁upon	-1576
▁sever	-1577
▁terms	-1578
▁coordination	-1579
▁conflict	-1580
▁towards	-1581
hic	-1582
eric	-1583
▁regarding	-1584
▁least	-1585
▁struc	-1586
▁she	-1587
▁2000	-1588
uary	-1589
alf	-1590
▁bus	-1591
▁march	-1592
imum	-1593
▁taking	-1594
▁31	-1595
▁deli	-1596
tors	-1597
▁employment	-1598
▁agreed	-1599
▁existing	-1600
lain	-1601
tober	-1602
▁october	-1603
▁advis	-1604
▁increased	-1605
▁january	-1606
equ	-1607
vem	-1608
▁small	-1609
nel	-1610
▁you	-1611
rael	-1612
▁israel	-1613
▁even	-1614
ination	-1615
▁2012	-1616
▁pursu	-1617
▁ver	-1618
▁experi	-1619
▁vehic	-1620
▁declaration	-1621
▁novem	-1622
▁sept	-1623
▁november	-1624
vious	-1625
ness	-1626
▁freed	-1627
▁several	-1628
▁september	-1629
▁step	-1630
▁guaran	-1631
▁ret	-1632
▁safety	-1633
▁bro	-1634
▁origin	-1635
▁ta	-1636
▁freedom	-1637
▁ministry	-1638
▁every	-1639
reh	-1640
▁requested	-1641
▁pric	-1642
▁treatment	-1643
fer	-1644
irc	-1645
▁refuge	-1646
▁found	-1647
▁last	-1648
▁amount	-1649
duce	-1650
▁spe	-1651
ially	-1652
▁implementing	-1653
▁circ	-1654
ruction	-1655
isation	-1656
▁code	-1657
▁citizens	-1658
▁cust	-1659
▁agencies	-1660
▁post	-1661
▁institution	-1662
▁2013	-1663
▁sen	-1664
pose	-1665
▁let	-1666
▁making	-1667
ced	-1668
▁pres	-1669
hold	-1670
▁annual	-1671
▁war	-1672
▁received	-1673
▁22	-1674
▁eth	-1675
▁2001	-1676
▁still	-1677
▁date	-1678
▁less	-1679
▁compreh	-1680
▁liv	-1681
ope	-1682
▁labour	-1683
▁compan	-1684
ule	-1685
▁attention	-1686
ready	-1687
▁cro	-1688
▁already	-1689
ists	-1690
▁quality	-1691
▁decid	-1692
▁did	-1693
▁due	-1694
▁determin	-1695
▁24	-1696
▁analys	-1697
▁agric	-1698
ison	-1699
▁domes	-1700
▁real	-1701
▁agency	-1702
sh	-1703
eria	-1704
▁tas	-1705
▁department	-1706
▁relations	-1707
▁posi	-1708
▁cultural	-1709
▁included	-1710
cess	-1711
mar	-1712
▁wish	-1713
▁problems	-1714
lied	-1715
▁sci	-1716
▁palest	-1717
ising	-1718
▁comprehensive	-1719
▁centre	-1720
▁weapons	-1721
▁event	-1722
atic	-1723
▁position	-1724
▁domestic	-1725
▁business	-1726
ind	-1727
▁reporting	-1728
▁adoption	-1729
▁serious	-1730
▁consum	-1731
▁23	-1732
▁technology	-1733
▁expec	-1734
▁apr	-1735
▁life	-1736
▁tr	-1737
▁bal	-1738
utive	-1739
▁list	-1740
▁carried	-1741
▁effic	-1742
▁espec	-1743
▁sw	-1744
▁april	-1745
▁especially	-1746
▁refl	-1747
▁americ	-1748
▁hand	-1749
▁mig	-1750
other	-1751
▁age	-1752
▁fish	-1753
rial	-1754
▁provides	-1755
▁decisions	-1756
ennium	-1757
liance	-1758
▁prevention	-1759
vity	-1760
▁expressed	-1761
▁responsibility	-1762
▁reported	-1763
▁minister	-1764
▁funds	-1765
▁diffic	-1766
tices	-1767
la	-1768
▁detail	-1769
▁continued	-1770
▁another	-1771
▁conclud	-1772
▁responsible	-1773
co	-1774
▁investment	-1775
genous	-1776
▁example	-1777
▁indigenous	-1778
itation	-1779
▁emerg	-1780
ource	-1781
▁lat	-1782
eping	-1783
▁internal	-1784
▁previous	-1785
ulture	-1786
▁statement	-1787
▁basic	-1788
reg	-1789
▁large	-1790
▁lin	-1791
▁providing	-1792
▁final	-1793
els	-1794
▁contained	-1795
▁gra	-1796
▁executive	-1797
▁writ	-1798
▁democra	-1799
▁reach	-1800
mary	-1801
ward	-1802
istan	-1803
▁poin	-1804
▁regist	-1805
▁fully	-1806
▁observ	-1807
eti	-1808
▁maintain	-1809
▁univers	-1810
▁estim	-1811
▁increasing	-1812
▁exa	-1813
▁deal	-1814
tification	-1815
isms	-1816
▁bel	-1817
lusion	-1818
▁crime	-1819
▁proceed	-1820
▁test	-1821
uted	-1822
▁key	-1823
▁move	-1824
▁er	-1825
▁ge	-1826
▁pursuant	-1827
▁victi	-1828
standing	-1829
▁desc	-1830
▁victims	-1831
▁guidel	-1832
▁recent	-1833
▁belie	-1834
rab	-1835
▁partnership	-1836
▁ess	-1837
▁regular	-1838
▁rate	-1839
▁aud	-1840
▁enti	-1841
▁reference	-1842
▁cover	-1843
sia	-1844
▁1999	-1845
▁lack	-1846
▁obligations	-1847
▁tex	-1848
▁active	-1849
▁thus	-1850
▁practices	-1851
▁agreements	-1852
▁resid	-1853
▁sug	-1854
▁arrange	-1855
▁mandate	-1856
ified	-1857
▁whereas	-1858
▁success	-1859
▁personnel	-1860
▁value	-1861
▁measure	-1862
▁unc	-1863
▁response	-1864
lish	-1865
force	-1866
▁experts	-1867
inian	-1868
has	-1869
sed	-1870
ogue	-1871
mission	-1872
▁transfer	-1873
sian	-1874
▁dial	-1875
▁purpose	-1876
▁exch	-1877
▁competi	-1878
▁explo	-1879
▁pan	-1880
▁sim	-1881
▁objectives	-1882
▁articles	-1883
▁met	-1884
eal	-1885
▁judic	-1886
▁governmental	-1887
▁sent	-1888
▁growth	-1889
▁regulations	-1890
angu	-1891
abor	-1892
▁principle	-1893
▁mal	-1894
lements	-1895
ipment	-1896
▁emphas	-1897
▁actions	-1898
▁hold	-1899
▁cris	-1900
rug	-1901
▁perman	-1902
▁harm	-1903
ories	-1904
ances	-1905
▁minor	-1906
▁enter	-1907
▁drug	-1908
▁protect	-1909
▁conn	-1910
▁democratic	-1911
▁prosec	-1912
▁rus	-1913
▁practice	-1914
▁guidelines	-1915
▁29	-1916
▁competent	-1917
▁%	-1918
▁mechanisms	-1919
gether	-1920
▁bank	-1921
▁documents	-1922
▁langu	-1923
▁forces	-1924
▁equality	-1925
▁funding	-1926
▁26	-1927
▁armed	-1928
▁power	-1929
▁entitled	-1930
ises	-1931
▁planning	-1932
▁advisory	-1933
▁bord	-1934
▁approved	-1935
▁involved	-1936
▁record	-1937
ive	-1938
▁territory	-1939
pects	-1940
▁27	-1941
▁reduction	-1942
ligh	-1943
▁five	-1944
tis	-1945
▁cann	-1946
▁broad	-1947
▁proposals	-1948
▁threat	-1949
▁tur	-1950
▁clim	-1951
▁disarm	-1952
iter	-1953
▁trafficking	-1954
▁day	-1955
▁put	-1956
vered	-1957
▁strengthening	-1958
▁close	-1959
emp	-1960
iation	-1961
▁palestinian	-1962
▁poten	-1963
▁dialogue	-1964
▁unit	-1965
▁sexual	-1966
▁together	-1967
onst	-1968
▁workers	-1969
▁relig	-1970
▁equipment	-1971
▁able	-1972
▁occup	-1973
▁adequ	-1974
abilities	-1975
▁read	-1976
hib	-1977
▁rule	-1978
▁disarmament	-1979
▁natural	-1980
uch	-1981
▁feb	-1982
▁body	-1983
utes	-1984
▁28	-1985
ruary	-1986
▁february	-1987
▁better	-1988
▁goals	-1989
▁arab	-1990
▁custom	-1991
▁mention	-1992
au	-1993
▁sal	-1994
▁permanent	-1995
▁financing	-1996
▁promotion	-1997
▁exc	-1998
▁exchan	-1999
▁alth	-2000
▁far	-2001
▁star	-2002
▁problem	-2003
▁priority	-2004
▁categ	-2005
▁instruments	-2006
▁evid	-2007
▁1998	-2008
▁although	-2009
▁ill	-2010
▁commissioner	-2011
▁compliance	-2012
▁terrorism	-2013
▁exerc	-2014
▁forum	-2015
▁elim	-2016
▁export	-2017
▁function	-2018
▁challenges	-2019
▁ren	-2020
▁analysis	-2021
▁opin	-2022
▁acts	-2023
▁currently	-2024
▁commitment	-2025
▁tax	-2026
▁climate	-2027
▁goods	-2028
▁opinion	-2029
▁needed	-2030
▁198	-2031
▁sett	-2032
▁line	-2033
▁equal	-2034
▁addressed	-2035
▁cannot	-2036
rast	-2037
▁cal	-2038
▁div	-2039
▁communities	-2040
▁standard	-2041
▁matter	-2042
▁-@@	-2043
▁director	-2044
▁strong	-2045
omp	-2046
round	-2047
▁operation	-2048
▁forms	-2049
▁tar	-2050
less	-2051
by	-2052
▁evaluation	-2053
▁initiatives	-2054
▁consequ	-2055
▁prepa	-2056
▁operational	-2057
▁awa	-2058
▁trib	-2059
▁might	-2060
▁consist	-2061
ledge	-2062
▁laws	-2063
▁greater	-2064
▁independent	-2065
▁essential	-2066
▁decided	-2067
▁give	-2068
▁return	-2069
aring	-2070
▁ground	-2071
▁fundament	-2072
isted	-2073
ling	-2074
▁communication	-2075
▁behalf	-2076
▁crit	-2077
▁industry	-2078
▁resolutions	-2079
▁performance	-2080
lies	-2081
▁rac	-2082
▁restric	-2083
▁administration	-2084
acy	-2085
▁study	-2086
▁effect	-2087
▁liber	-2088
▁prepared	-2089
▁accoun	-2090
▁informed	-2091
az	-2092
ake	-2093
cy	-2094
▁back	-2095
ological	-2096
ither	-2097
▁implemented	-2098
▁find	-2099
▁youn	-2100
ned	-2101
▁months	-2102
▁dest	-2103
▁play	-2104
▁1997	-2105
▁show	-2106
▁ic	-2107
▁income	-2108
▁1995	-2109
▁carry	-2110
▁young	-2111
▁product	-2112
tified	-2113
dic	-2114
cep	-2115
▁cy	-2116
▁ira	-2117
▁best	-2118
ible	-2119
▁2014	-2120
ood	-2121
▁forward	-2122
use	-2123
side	-2124
▁committed	-2125
▁camp	-2126
▁iraq	-2127
▁contributions	-2128
men	-2129
▁“	-2130
▁initiative	-2131
▁peoples	-2132
medi	-2133
avour	-2134
▁tort	-2135
▁called	-2136
▁applicable	-2137
▁strategic	-2138
▁repl	-2139
thers	-2140
▁fundamental	-2141
▁safe	-2142
▁type	-2143
▁profession	-2144
▁target	-2145
▁press	-2146
ior	-2147
veness	-2148
▁bri	-2149
uty	-2150
▁requests	-2151
izing	-2152
▁transition	-2153
▁light	-2154
▁fail	-2155
▁limited	-2156
▁torture	-2157
▁aug	-2158
▁stress	-2159
▁outc	-2160
poses	-2161
▁prison	-2162
▁issued	-2163
bia	-2164
▁potential	-2165
▁1996	-2166
▁crisis	-2167
ather	-2168
▁changes	-2169
▁distrib	-2170
▁complain	-2171
▁caus	-2172
▁arrangements	-2173
▁plans	-2174
▁reason	-2175
ilar	-2176
▁conven	-2177
▁infrast	-2178
▁written	-2179
▁infrastruc	-2180
▁“@@	-2181
▁refugees	-2182
▁short	-2183
▁continu	-2184
▁surve	-2185
▁50	-2186
ending	-2187
ev	-2188
▁purposes	-2189
▁–	-2190
▁matters	-2191
▁alloc	-2192
ually	-2193
▁become	-2194
▁supported	-2195
▁prohib	-2196
▁space	-2197
bs	-2198
▁1994	-2199
▁ensuring	-2200
ets	-2201
▁until	-2202
▁then	-2203
▁objective	-2204
▁next	-2205
▁promoting	-2206
▁nature	-2207
▁similar	-2208
ulated	-2209
▁regions	-2210
▁dev	-2211
▁abs	-2212
▁obtain	-2213
▁undp	-2214
ai	-2215
▁rom	-2216
▁exchange	-2217
dom	-2218
▁defin	-2219
fficient	-2220
▁appo	-2221
▁mechanism	-2222
▁emission	-2223
▁text	-2224
▁august	-2225
▁bur	-2226
▁network	-2227
reness	-2228
▁gre	-2229
▁il	-2230
▁awareness	-2231
▁@@”	-2232
▁enforce	-2233
▁peaceke	-2234
▁organized	-2235
gu	-2236
▁east	-2237
▁name	-2238
▁integrated	-2239
▁negotiations	-2240
▁rural	-2241
▁pass	-2242
▁demand	-2243
▁applied	-2244
▁opportunities	-2245
▁separ	-2246
▁bring	-2247
▁contribution	-2248
▁violations	-2249
▁sing	-2250
▁discussion	-2251
▁statements	-2252
▁tem	-2253
▁expend	-2254
▁knowledge	-2255
▁division	-2256
▁ple	-2257
▁expected	-2258
▁aimed	-2259
osed	-2260
▁steps	-2261
▁criteria	-2262
▁famil	-2263
▁using	-2264
▁notes	-2265
▁calls	-2266
ls	-2267
▁statistics	-2268
▁ger	-2269
uf	-2270
▁affected	-2271
sib	-2272
ased	-2273
mental	-2274
▁wide	-2275
▁inspec	-2276
▁low	-2277
▁overall	-2278
▁investigation	-2279
▁consultations	-2280
▁stated	-2281
▁house	-2282
tiveness	-2283
▁multi	-2284
ably	-2285
▁port	-2286
▁:	-2287
▁evidence	-2288
▁penal	-2289
▁transpa	-2290
▁yet	-2291
▁del	-2292
▁mean	-2293
▁capital	-2294
▁circum	-2295
▁took	-2296
▁much	-2297
▁facilitate	-2298
▁course	-2299
▁aust	-2300
▁anti	-2301
▁effects	-2302
▁civilian	-2303
▁scienti	-2304
▁recall	-2305
▁pun	-2306
▁aspects	-2307
aging	-2308
▁chairman	-2309
▁positive	-2310
▁benefit	-2311
▁detention	-2312
▁volun	-2313
▁past	-2314
▁alleg	-2315
▁integration	-2316
▁living	-2317
▁table	-2318
▁speak	-2319
▁peacekeeping	-2320
▁cred	-2321
▁here	-2322
▁bar	-2323
▁recommended	-2324
▁approval	-2325
▁anim	-2326
▁points	-2327
▁expendit	-2328
▁adj	-2329
▁facilities	-2330
▁mor	-2331
of	-2332
▁questions	-2333
▁concerns	-2334
▁presented	-2335
▁self	-2336
▁letter	-2337
▁strategies	-2338
▁identify	-2339
▁mentioned	-2340
▁fif	-2341
▁economy	-2342
ging	-2343
▁@@%	-2344
▁opportunity	-2345
ections	-2346
▁road	-2347
▁exce	-2348
lands	-2349
▁china	-2350
be	-2351
ograph	-2352
oss	-2353
▁infrastructure	-2354
▁worksh	-2355
▁workshop	-2356
▁judicial	-2357
▁adequate	-2358
▁property	-2359
▁tribun	-2360
▁team	-2361
ds	-2362
▁sus	-2363
▁rein	-2364
inary	-2365
▁sel	-2366
anced	-2367
▁medical	-2368
▁sugges	-2369
▁higher	-2370
▁cross	-2371
▁conduct	-2372
tees	-2373
▁expert	-2374
nic	-2375
▁early	-2376
▁examin	-2377
▁imm	-2378
▁leaders	-2379
▁enhance	-2380
▁den	-2381
▁task	-2382
▁today	-2383
ost	-2384
▁king	-2385
▁eas	-2386
uations	-2387
▁german	-2388
▁combat	-2389
▁minimum	-2390
▁benefits	-2391
▁often	-2392
▁legislative	-2393
▁amendments	-2394
▁interests	-2395
▁don	-2396
▁cop	-2397
▁chap	-2398
▁schools	-2399
▁institutional	-2400
▁border	-2401
▁contribute	-2402
▁remo	-2403
▁centres	-2404
▁respective	-2405
▁done	-2406
▁establishing	-2407
▁demonst	-2408
▁experience	-2409
▁depend	-2410
▁agricultural	-2411
▁gir	-2412
▁cooper	-2413
sign	-2414
▁col	-2415
▁hiv	-2416
▁families	-2417
▁share	-2418
▁whole	-2419
▁compens	-2420
▁immedi	-2421
over	-2422
▁counter	-2423
▁just	-2424
▁audit	-2425
▁russian	-2426
▁punish	-2427
▁amended	-2428
▁compon	-2429
line	-2430
ribed	-2431
▁reduce	-2432
▁max	-2433
▁former	-2434
reme	-2435
▁scientific	-2436
▁recommendation	-2437
▁vul	-2438
▁accept	-2439
▁undertaken	-2440
▁difficult	-2441
ufact	-2442
ees	-2443
▁fulf	-2444
ression	-2445
emin	-2446
▁contract	-2447
▁activity	-2448
▁manufact	-2449
▁identified	-2450
iency	-2451
▁ethnic	-2452
▁vulner	-2453
▁primary	-2454
▁connection	-2455
▁inn	-2456
▁bill	-2457
▁others	-2458
▁mis	-2459
▁schem	-2460
▁collabor	-2461
ensus	-2462
▁summit	-2463
▁preparation	-2464
▁proceedings	-2465
▁conducted	-2466
▁informal	-2467
▁defined	-2468
lom	-2469
▁supply	-2470
tional	-2471
▁mid	-2472
▁panel	-2473
▁altern	-2474
▁kingdom	-2475
gent	-2476
▁death	-2477
▁circumstan	-2478
aries	-2479
▁paragraphs	-2480
▁extern	-2481
▁displ	-2482
yl	-2483
▁media	-2484
more	-2485
▁circumstances	-2486
ours	-2487
rency	-2488
▁1993	-2489
▁covered	-2490
▁intended	-2491
vere	-2492
▁below	-2493
▁guarantee	-2494
▁delegations	-2495
▁jur	-2496
▁pub	-2497
▁days	-2498
rup	-2499
thern	-2500
▁entry	-2501
ania	-2502
▁limit	-2503
▁harmon	-2504
▁companies	-2505
▁understanding	-2506
▁sk	-2507
▁arms	-2508
unch	-2509
▁america	-2510
loyment	-2511
▁exercise	-2512
▁indicated	-2513
▁achieved	-2514
▁vote	-2515
▁furthermore	-2516
▁struct	-2517
▁scope	-2518
▁enforcement	-2519
▁officials	-2520
▁welcom	-2521
oid	-2522
▁vehicle	-2523
▁methods	-2524
▁upd	-2525
▁publish	-2526
tific	-2527
▁laid	-2528
▁external	-2529
▁euro	-2530
▁aids	-2531
▁loss	-2532
▁incor	-2533
▁diss	-2534
▁manner	-2535
▁x	-2536
ars	-2537
▁sectors	-2538
▁relation	-2539
ured	-2540
ah	-2541
▁multil	-2542
▁offices	-2543
▁whose	-2544
▁bra	-2545
acter	-2546
▁youth	-2547
kets	-2548
▁obser	-2549
▁either	-2550
▁100	-2551
▁processes	-2552
▁adopt	-2553
way	-2554
sibilities	-2555
ash	-2556
▁tool	-2557
oy	-2558
▁individuals	-2559
▁complete	-2560
assi	-2561
urance	-2562
▁phys	-2563
▁enterpr	-2564
▁believe	-2565
going	-2566
▁enable	-2567
▁single	-2568
▁commitments	-2569
ave	-2570
▁debate	-2571
▁throughout	-2572
▁federal	-2573
▁fourth	-2574
▁missions	-2575
▁communications	-2576
ilateral	-2577
wing	-2578
▁permit	-2579
elves	-2580
ones	-2581
▁federation	-2582
▁improving	-2583
▁fr	-2584
▁itself	-2585
ger	-2586
▁—	-2587
▁desp	-2588
▁stoc	-2589
ective	-2590
▁granted	-2591
▁reli	-2592
ification	-2593
osition	-2594
uel	-2595
▁materials	-2596
▁der	-2597
▁crimes	-2598
▁launch	-2599
▁aver	-2600
▁lear	-2601
▁disas	-2602
▁introduced	-2603
▁amendment	-2604
▁unf	-2605
▁adjust	-2606
▁stake	-2607
erous	-2608
▁acqu	-2609
▁girls	-2610
▁sources	-2611
▁chapter	-2612
▁bre	-2613
▁chem	-2614
▁few	-2615
ze	-2616
▁confid	-2617
▁begin	-2618
▁elements	-2619
▁tribunal	-2620
tify	-2621
▁price	-2622
▁neg	-2623
▁incorpor	-2624
▁multilateral	-2625
▁eur	-2626
▁reasons	-2627
uts	-2628
▁involve	-2629
pic	-2630
▁detailed	-2631
▁coven	-2632
▁dam	-2633
▁character	-2634
▁universal	-2635
▁favour	-2636
▁demonstr	-2637
▁him	-2638
▁ce	-2639
zer	-2640
▁association	-2641
▁functions	-2642
▁avoid	-2643
▁revised	-2644
▁vehicles	-2645
bil	-2646
▁educational	-2647
ece	-2648
▁model	-2649
ead	-2650
mal	-2651
action	-2652
▁2015	-2653
▁satis	-2654
▁structure	-2655
▁ir	-2656
▁subsequ	-2657
bo	-2658
▁despite	-2659
▁40	-2660
▁participants	-2661
▁once	-2662
▁movement	-2663
hab	-2664
▁recognized	-2665
wa	-2666
▁extent	-2667
▁provisional	-2668
arters	-2669
▁comments	-2670
▁sud	-2671
unic	-2672
▁superv	-2673
▁dated	-2674
▁directly	-2675
▁asked	-2676
▁chemical	-2677
▁courts	-2678
rought	-2679
▁range	-2680
racy	-2681
▁officers	-2682
▁emergency	-2683
cent	-2684
▁wee	-2685
▁entities	-2686
▁quan	-2687
▁asia	-2688
▁prec	-2689
▁arre	-2690
▁physical	-2691
▁confir	-2692
▁language	-2693
▁dise	-2694
ired	-2695
▁pack	-2696
▁regards	-2697
▁governance	-2698
ler	-2699
ury	-2700
▁juris	-2701
▁customs	-2702
works	-2703
▁views	-2704
▁industrial	-2705
▁outcome	-2706
▁resource	-2707
com	-2708
▁clearly	-2709
▁inten	-2710
▁disabilities	-2711
via	-2712
▁simp	-2713
▁charter	-2714
▁reserv	-2715
▁commerc	-2716
▁indicators	-2717
▁covenant	-2718
▁travel	-2719
▁calc	-2720
ronic	-2721
ey	-2722
▁conv	-2723
▁participate	-2724
▁aut	-2725
▁efficiency	-2726
▁exten	-2727
▁interp	-2728
▁rates	-2729
▁abuse	-2730
▁innov	-2731
vernmental	-2732
▁say	-2733
▁60	-2734
20	-2735
▁adap	-2736
▁maximum	-2737
▁assets	-2738
▁follows	-2739
▁biennium	-2740
xic	-2741
▁paid	-2742
▁affect	-2743
▁professional	-2744
▁priorities	-2745
▁occur	-2746
lan	-2747
▁qual	-2748
▁successful	-2749
▁remains	-2750
olid	-2751
uting	-2752
▁apprec	-2753
▁never	-2754
▁discussions	-2755
▁regim	-2756
▁exceed	-2757
thing	-2758
ires	-2759
▁developments	-2760
▁statistical	-2761
▁illeg	-2762
▁housing	-2763
▁rather	-2764
▁posts	-2765
ature	-2766
▁pat	-2767
lam	-2768
▁elections	-2769
▁headqu	-2770
▁payment	-2771
▁amoun	-2772
orn	-2773
ways	-2774
▁competition	-2775
▁volunt	-2776
▁sea	-2777
▁prices	-2778
▁initial	-2779
▁average	-2780
▁ord	-2781
▁religious	-2782
▁critical	-2783
eva	-2784
▁effectively	-2785
▁items	-2786
▁ital	-2787
▁commercial	-2788
erences	-2789
ides	-2790
▁tradition	-2791
▁uk	-2792
ream	-2793
▁teach	-2794
▁headquarters	-2795
▁outside	-2796
▁host	-2797
▁mut	-2798
▁seek	-2799
app	-2800
▁suff	-2801
▁duty	-2802
▁personal	-2803
ruit	-2804
holders	-2805
▁credit	-2806
▁parts	-2807
tenance	-2808
▁gener	-2809
▁concluded	-2810
▁canad	-2811
▁sudan	-2812
▁maintenance	-2813
▁includes	-2814
▁correc	-2815
▁migran	-2816
▁tempor	-2817
elling	-2818
▁iv	-2819
▁fifth	-2820
▁studies	-2821
▁'	-2822
▁moreover	-2823
▁urban	-2824
▁renew	-2825
▁sufficient	-2826
▁millennium	-2827
▁trust	-2828
▁compensation	-2829
▁designed	-2830
▁eec	-2831
▁create	-2832
▁improved	-2833
ored	-2834
▁balance	-2835
▁dri	-2836
▁guidance	-2837
▁poor	-2838
ify	-2839
▁effort	-2840
▁appeal	-2841
itable	-2842
anda	-2843
▁fa	-2844
▁culture	-2845
▁led	-2846
ps	-2847
▁geneva	-2848
▁effectiveness	-2849
▁majority	-2850
portion	-2851
▁creation	-2852
▁stability	-2853
▁defence	-2854
▁encourage	-2855
▁compar	-2856
▁hist	-2857
▁obligation	-2858
▁inj	-2859
▁respond	-2860
▁coh	-2861
▁@@:@@	-2862
▁forest	-2863
▁expenditure	-2864
rict	-2865
▁situations	-2866
▁markets	-2867
▁ongoing	-2868
▁estimated	-2869
▁highligh	-2870
▁consultation	-2871
▁welcomed	-2872
▁afgh	-2873
▁emissions	-2874
▁specified	-2875
▁bure	-2876
▁transmit	-2877
▁'@@	-2878
▁instrument	-2879
▁comply	-2880
▁practical	-2881
▁enj	-2882
bit	-2883
▁receive	-2884
▁governing	-2885
▁supporting	-2886
▁ide	-2887
▁thems	-2888
▁israeli	-2889
▁themselves	-2890
▁advance	-2891
cr	-2892
▁submission	-2893
▁fle	-2894
▁substances	-2895
ador	-2896
▁campa	-2897
▁company	-2898
▁campaign	-2899
▁intergo	-2900
▁your	-2901
▁france	-2902
▁dang	-2903
▁tes	-2904
▁distribution	-2905
▁live	-2906
▁jurisdic	-2907
apan	-2908
▁mass	-2909
▁afghan	-2910
▁solution	-2911
▁germany	-2912
▁hope	-2913
▁197	-2914
arity	-2915
▁paren	-2916
▁japan	-2917
▁classi	-2918
▁institute	-2919
▁fair	-2920
▁extra	-2921
▁claims	-2922
▁too	-2923
▁associated	-2924
▁paper	-2925
▁consolid	-2926
ink	-2927
▁fre	-2928
rary	-2929
▁events	-2930
▁alia	-2931
▁hours	-2932
▁gas	-2933
ipp	-2934
▁source	-2935
▁chec	-2936
▁voluntary	-2937
▁technologies	-2938
▁reflect	-2939
▁units	-2940
enth	-2941
▁electronic	-2942
▁accomp	-2943
▁hon	-2944
▁waste	-2945
respon	-2946
tity	-2947
▁ng	-2948
▁scale	-2949
if	-2950
▁debt	-2951
▁iii	-2952
▁relationship	-2953
▁certific	-2954
▁radi	-2955
▁values	-2956
mis	-2957
avi	-2958
▁fl	-2959
eless	-2960
ese	-2961
ume	-2962
▁flow	-2963
ology	-2964
▁added	-2965
lusive	-2966
isters	-2967
▁du	-2968
versity	-2969
▁finance	-2970
ught	-2971
most	-2972
▁unh	-2973
▁operating	-2974
dra	-2975
▁trend	-2976
▁periodic	-2977
used	-2978
eth	-2979
kn	-2980
▁listed	-2981
▁conclusion	-2982
lif	-2983
▁lic	-2984
sy	-2985
▁vulnerable	-2986
▁construction	-2987
▁detain	-2988
▁north	-2989
▁elimination	-2990
▁cub	-2991
ulate	-2992
▁stakeholders	-2993
▁transparency	-2994
▁enjoy	-2995
▁unic	-2996
▁recon	-2997
▁emb	-2998
▁come	-2999
▁opp	-3000
▁definition	-3001
▁kore	-3002
▁please	-3003
▁described	-3004
▁substantive	-3005
▁consensus	-3006
▁brought	-3007
▁sanc	-3008
▁factors	-3009
▁br	-3010
illed	-3011
ik	-3012
▁procure	-3013
▁reiter	-3014
▁democracy	-3015
▁determined	-3016
region	-3017
ically	-3018
▁parents	-3019
▁fig	-3020
▁sessions	-3021
▁around	-3022
omin	-3023
isc	-3024
lusions	-3025
▁applications	-3026
▁agriculture	-3027
▁)	-3028
▁arrest	-3029
▁vess	-3030
▁35	-3031
▁correspon	-3032
▁expand	-3033
▁achieving	-3034
▁migration	-3035
liferation	-3036
▁why	-3037
▁ev	-3038
▁bul	-3039
▁invited	-3040
▁formal	-3041
aps	-3042
ming	-3043
▁appear	-3044
▁reached	-3045
▁racial	-3046
▁conform	-3047
▁ways	-3048
▁lower	-3049
▁insurance	-3050
▁possibility	-3051
▁nam	-3052
▁unicef	-3053
▁setting	-3054
istic	-3055
▁consumption	-3056
▁imports	-3057
▁content	-3058
▁completed	-3059
▁collaboration	-3060
▁peaceful	-3061
▁clari	-3062
▁illegal	-3063
iting	-3064
que	-3065
▁longer	-3066
▁recommends	-3067
▁safegu	-3068
▁amb	-3069
lim	-3070
▁conclusions	-3071
▁category	-3072
▁published	-3073
▁fisher	-3074
▁oil	-3075
▁signed	-3076
amb	-3077
▁alternative	-3078
▁stage	-3079
▁budgetary	-3080
▁farm	-3081
ends	-3082
▁recovery	-3083
▁bureau	-3084
▁fall	-3085
▁samp	-3086
rain	-3087
▁slo	-3088
▁requires	-3089
▁resulting	-3090
▁incid	-3091
tili	-3092
▁poll	-3093
verse	-3094
▁som	-3095
▁recently	-3096
▁procurement	-3097
▁kind	-3098
▁home	-3099
mb	-3100
▁cho	-3101
▁solid	-3102
ump	-3103
▁reaff	-3104
▁accep	-3105
▁giv	-3106
ick	-3107
▁reaffir	-3108
▁hos	-3109
▁arbit	-3110
▁types	-3111
▁tri	-3112
▁placed	-3113
▁discussed	-3114
uter	-3115
▁recognition	-3116
▁regime	-3117
▁continuing	-3118
▁temporary	-3119
▁room	-3120
▁fil	-3121
ancing	-3122
▁manufacture	-3123
▁raised	-3124
▁percent	-3125
ibility	-3126
▁canada	-3127
▁ten	-3128
▁ngos	-3129
▁class	-3130
▁bir	-3131
▁risks	-3132
▁decre	-3133
sw	-3134
▁addressing	-3135
▁produced	-3136
▁1990	-3137
▁constitutional	-3138
ross	-3139
pective	-3140
▁proliferation	-3141
▁reduced	-3142
▁determination	-3143
▁concept	-3144
▁registration	-3145
▁red	-3146
ourn	-3147
▁takes	-3148
▁involving	-3149
▁eg	-3150
▁finally	-3151
▁withdra	-3152
aties	-3153
▁across	-3154
▁treaties	-3155
▁explain	-3156
▁fulfil	-3157
▁delivery	-3158
ana	-3159
▁bilateral	-3160
▁iran	-3161
▁supplement	-3162
▁considers	-3163
▁prosecut	-3164
▁brief	-3165
key	-3166
▁bey	-3167
xim	-3168
▁trial	-3169
▁discuss	-3170
▁log	-3171
▁unhcr	-3172
ruption	-3173
sp	-3174
▁45	-3175
▁geograph	-3176
▁beyond	-3177
enced	-3178
▁@@—	-3179
▁accounts	-3180
ha	-3181
▁fri	-3182
ea	-3183
▁judge	-3184
▁enabl	-3185
▁improvement	-3186
▁continues	-3187
▁cand	-3188
▁exploitation	-3189
▁hun	-3190
▁consequences	-3191
▁minorities	-3192
▁immig	-3193
▁regulatory	-3194
▁settlement	-3195
▁negative	-3196
fty	-3197
▁pow	-3198
▁later	-3199
▁turkey	-3200
▁useful	-3201
▁@@—@@	-3202
▁goal	-3203
▁traditional	-3204
▁though	-3205
▁fishing	-3206
ix	-3207
▁efficient	-3208
▁hy	-3209
▁har	-3210
▁territories	-3211
▁plac	-3212
isations	-3213
ulties	-3214
▁ste	-3215
▁tal	-3216
▁fem	-3217
▁jurisdiction	-3218
▁core	-3219
▁1992	-3220
▁sched	-3221
▁offences	-3222
alities	-3223
▁clos	-3224
▁welcomes	-3225
▁corpor	-3226
▁doub	-3227
▁containing	-3228
▁complex	-3229
▁rehab	-3230
▁candid	-3231
enary	-3232
▁dim	-3233
▁phase	-3234
▁rehabilit	-3235
▁encouraged	-3236
▁consistent	-3237
af	-3238
▁islam	-3239
▁processing	-3240
▁scheme	-3241
▁soon	-3242
▁fifty	-3243
▁india	-3244
▁along	-3245
dle	-3246
istics	-3247
tically	-3248
▁west	-3249
adic	-3250
▁leban	-3251
▁extreme	-3252
▁alleged	-3253
ght	-3254
▁elimin	-3255
▁independence	-3256
▁conventions	-3257
▁32	-3258
▁33	-3259
▁stri	-3260
asion	-3261
▁appoint	-3262
▁difficulties	-3263
▁implic	-3264
▁valid	-3265
▁electric	-3266
▁presence	-3267
▁grounds	-3268
▁survey	-3269
▁entire	-3270
▁positions	-3271
▁contracts	-3272
ills	-3273
▁assign	-3274
▁draf	-3275
rian	-3276
▁answ	-3277
▁gain	-3278
▁economies	-3279
▁bl	-3280
▁ukra	-3281
know	-3282
▁accordingly	-3283
▁mobil	-3284
▁pac	-3285
▁optional	-3286
inted	-3287
▁judges	-3288
▁dur	-3289
▁36	-3290
▁unct	-3291
▁concent	-3292
ins	-3293
▁identification	-3294
▁acknow	-3295
▁producers	-3296
bon	-3297
▁created	-3298
▁always	-3299
jected	-3300
▁cat	-3301
▁lay	-3302
iary	-3303
▁aware	-3304
▁displaced	-3305
▁subregion	-3306
▁ms	-3307
▁shown	-3308
▁draw	-3309
▁semin	-3310
▁imposed	-3311
▁48	-3312
ta	-3313
▁start	-3314
▁spons	-3315
▁exception	-3316
▁sanctions	-3317
▁san	-3318
▁stock	-3319
▁replaced	-3320
ulations	-3321
▁absence	-3322
raft	-3323
▁ire	-3324
▁specifically	-3325
▁middle	-3326
▁ireland	-3327
▁extended	-3328
▁duties	-3329
▁american	-3330
▁introduction	-3331
▁collection	-3332
▁determine	-3333
▁billion	-3334
▁times	-3335
▁obst	-3336
▁ministers	-3337
▁env	-3338
ene	-3339
▁approxim	-3340
ylum	-3341
▁violation	-3342
▁remed	-3343
▁honour	-3344
▁asylum	-3345
▁suggested	-3346
▁link	-3347
▁officer	-3348
▁34	-3349
▁prep	-3350
ugos	-3351
bur	-3352
▁plenary	-3353
efic	-3354
▁yugos	-3355
▁run	-3356
jud	-3357
▁adapt	-3358
▁delay	-3359
▁austral	-3360
▁journ	-3361
gation	-3362
▁@@)	-3363
enty	-3364
▁green	-3365
▁reproduc	-3366
unicip	-3367
▁remained	-3368
▁generally	-3369
▁fight	-3370
▁near	-3371
ices	-3372
▁municip	-3373
▁specialized	-3374
ya	-3375
▁vac	-3376
▁medium	-3377
▁eradic	-3378
▁influ	-3379
▁contact	-3380
ats	-3381
▁bos	-3382
▁unctad	-3383
lier	-3384
▁allowed	-3385
▁terrorist	-3386
oral	-3387
▁topic	-3388
▁students	-3389
▁korea	-3390
▁words	-3391
pers	-3392
▁deep	-3393
▁round	-3394
▁welf	-3395
riage	-3396
▁welfare	-3397
▁planned	-3398
acks	-3399
▁series	-3400
▁gr	-3401
▁twenty	-3402
▁categories	-3403
▁welcome	-3404
▁observations	-3405
▁disaster	-3406
▁known	-3407
▁mil	-3408
▁advice	-3409
▁summary	-3410
▁advoc	-3411
▁conflicts	-3412
▁drugs	-3413
▁swed	-3414
▁fix	-3415
▁likely	-3416
▁growing	-3417
izes	-3418
▁condition	-3419
▁cle	-3420
▁requirement	-3421
▁inh	-3422
ka	-3423
▁separate	-3424
▁hop	-3425
▁tro	-3426
▁serve	-3427
▁indeed	-3428
▁cyc	-3429
▁visit	-3430
▁flo	-3431
▁pressure	-3432
hood	-3433
▁enterprises	-3434
▁reducing	-3435
▁compared	-3436
▁tasks	-3437
▁indicate	-3438
▁money	-3439
ria	-3440
▁inclusion	-3441
▁mexic	-3442
▁chi	-3443
▁37	-3444
stance	-3445
▁pacific	-3446
▁benefic	-3447
▁prepare	-3448
time	-3449
▁involvement	-3450
▁closely	-3451
▁ju	-3452
▁refugee	-3453
▁challenge	-3454
▁caused	-3455
▁attach	-3456
▁afghanistan	-3457
▁sixth	-3458
▁proportion	-3459
▁meaning	-3460
ama	-3461
ously	-3462
▁undertaking	-3463
▁65	-3464
gest	-3465
▁bosn	-3466
▁hoc	-3467
▁registered	-3468
pet	-3469
▁collective	-3470
▁half	-3471
▁punishment	-3472
▁seem	-3473
▁religion	-3474
ening	-3475
▁corruption	-3476
▁rapid	-3477
aria	-3478
▁actual	-3479
▁fuel	-3480
put	-3481
▁functioning	-3482
▁sharing	-3483
▁49	-3484
▁iden	-3485
▁unless	-3486
▁italy	-3487
▁reflected	-3488
▁rehabilitation	-3489
rench	-3490
oph	-3491
▁skills	-3492
▁languages	-3493
▁recruit	-3494
acts	-3495
▁eastern	-3496
▁solutions	-3497
▁leave	-3498
▁turn	-3499
▁sevent	-3500
▁documentation	-3501
cs	-3502
▁stressed	-3503
▁face	-3504
ects	-3505
▁week	-3506
tise	-3507
▁think	-3508
▁inspection	-3509
▁birth	-3510
▁accepted	-3511
▁namely	-3512
▁beginning	-3513
▁dip	-3514
▁somal	-3515
▁braz	-3516
▁want	-3517
nes	-3518
▁nether	-3519
itions	-3520
▁freedoms	-3521
itness	-3522
▁complaints	-3523
▁tan	-3524
na	-3525
▁netherlands	-3526
▁51	-3527
▁base	-3528
▁lit	-3529
▁perpet	-3530
▁39	-3531
▁offence	-3532
▁sensi	-3533
▁partnerships	-3534
▁combating	-3535
▁focused	-3536
▁unemp	-3537
▁destruction	-3538
itim	-3539
▁followed	-3540
▁cause	-3541
ighb	-3542
oles	-3543
▁northern	-3544
onia	-3545
ental	-3546
▁advant	-3547
▁neighb	-3548
io	-3549
▁internet	-3550
▁satisf	-3551
▁payments	-3552
▁frequ	-3553
ension	-3554
▁senior	-3555
▁animal	-3556
▁swit	-3557
▁subs	-3558
▁animals	-3559
▁tour	-3560
ork	-3561
den	-3562
▁contracting	-3563
▁island	-3564
▁organisations	-3565
sych	-3566
▁trac	-3567
ib	-3568
ians	-3569
ound	-3570
ude	-3571
▁flex	-3572
ying	-3573
▁preparatory	-3574
▁damage	-3575
iss	-3576
▁57	-3577
▁90	-3578
▁psych	-3579
ma	-3580
ics	-3581
▁41	-3582
▁rail	-3583
▁networks	-3584
▁organisation	-3585
▁cuba	-3586
tly	-3587
▁secondary	-3588
▁entity	-3589
▁prem	-3590
▁raising	-3591
stream	-3592
▁election	-3593
▁capacities	-3594
▁amending	-3595
▁install	-3596
▁holding	-3597
ruct	-3598
▁female	-3599
▁brazil	-3600
▁chairpers	-3601
▁launched	-3602
▁powers	-3603
▁conferences	-3604
▁esc	-3605
▁couns	-3606
▁mutual	-3607
vereign	-3608
▁sovereign	-3609
▁constitute	-3610
titution	-3611
▁tools	-3612
▁feed	-3613
ancy	-3614
▁membership	-3615
▁mind	-3616
▁actors	-3617
ades	-3618
▁datab	-3619
▁tele	-3620
▁complement	-3621
▁38	-3622
▁substance	-3623
▁exclud	-3624
▁implications	-3625
▁evalu	-3626
ier	-3627
▁users	-3628
▁mainly	-3629
▁urgent	-3630
▁margin	-3631
sidi	-3632
▁diplom	-3633
▁occupied	-3634
▁pak	-3635
bbe	-3636
▁committees	-3637
▁croati	-3638
icit	-3639
▁household	-3640
ables	-3641
ean	-3642
▁component	-3643
▁university	-3644
hol	-3645
ival	-3646
▁approaches	-3647
lined	-3648
rete	-3649
▁science	-3650
▁offer	-3651
tle	-3652
▁conformity	-3653
▁ship	-3654
▁ukraine	-3655
▁chief	-3656
▁thereof	-3657
▁accountability	-3658
▁witness	-3659
▁rw	-3660
▁amounts	-3661
▁side	-3662
▁obtained	-3663
lor	-3664
enders	-3665
craft	-3666
▁restrictions	-3667
actions	-3668
▁legitim	-3669
▁immediate	-3670
▁immediately	-3671
▁196	-3672
▁accession	-3673
ica	-3674
▁61	-3675
ee	-3676
▁spain	-3677
▁investigations	-3678
▁reforms	-3679
▁cruc	-3680
▁cari	-3681
eg	-3682
▁wid	-3683
▁plat	-3684
▁lar	-3685
argets	-3686
▁targets	-3687
▁subsidi	-3688
▁52	-3689
▁entered	-3690
▁interpret	-3691
▁pakistan	-3692
ops	-3693
▁radio	-3694
▁look	-3695
▁46	-3696
▁subpar	-3697
▁french	-3698
▁haz	-3699
▁york	-3700
▁leadership	-3701
ster	-3702
▁structural	-3703
orial	-3704
▁purch	-3705
▁subparagraph	-3706
arch	-3707
▁islamic	-3708
sight	-3709
▁55	-3710
▁percentage	-3711
▁announ	-3712
▁dealing	-3713
▁subsid	-3714
erve	-3715
▁aircraft	-3716
▁relative	-3717
▁fire	-3718
▁approximately	-3719
▁examination	-3720
▁70	-3721
▁fisheries	-3722
gment	-3723
▁degra	-3724
▁mad	-3725
▁mic	-3726
▁concrete	-3727
▁nin	-3728
▁wes	-3729
▁eigh	-3730
▁tun	-3731
▁congo	-3732
▁enhanced	-3733
pro	-3734
▁participating	-3735
▁caribbe	-3736
▁caribbean	-3737
▁plant	-3738
▁appe	-3739
▁leading	-3740
ane	-3741
▁elig	-3742
▁ability	-3743
▁journal	-3744
▁components	-3745
▁42	-3746
▁cham	-3747
rs	-3748
▁confidence	-3749
ses	-3750
▁latin	-3751
▁appreciation	-3752
▁illicit	-3753
▁limits	-3754
▁relief	-3755
▁owing	-3756
▁guarantees	-3757
tially	-3758
▁replace	-3759
▁consumer	-3760
▁western	-3761
▁minority	-3762
▁accounting	-3763
lying	-3764
▁mexico	-3765
mark	-3766
▁findings	-3767
▁failure	-3768
▁kos	-3769
▁53	-3770
▁seen	-3771
▁crucial	-3772
bu	-3773
▁platform	-3774
▁decide	-3775
ervation	-3776
▁contains	-3777
▁strengthened	-3778
▁47	-3779
▁protected	-3780
▁zone	-3781
▁reviewed	-3782
▁verification	-3783
▁presidency	-3784
▁64	-3785
▁80	-3786
▁achievement	-3787
▁elected	-3788
▁prejud	-3789
▁substantial	-3790
▁linked	-3791
▁disapp	-3792
ites	-3793
▁discrimin	-3794
▁mort	-3795
▁01	-3796
▁equival	-3797
▁500	-3798
▁coordinated	-3799
▁speed	-3800
▁forced	-3801
▁sound	-3802
▁workshops	-3803
▁convic	-3804
▁modern	-3805
▁undertake	-3806
▁54	-3807
▁bosnia	-3808
abled	-3809
▁portug	-3810
▁acting	-3811
▁manag	-3812
tivity	-3813
▁represented	-3814
▁59	-3815
▁decade	-3816
▁kosov	-3817
▁juven	-3818
active	-3819
▁shared	-3820
▁deg	-3821
▁engine	-3822
▁ministerial	-3823
▁considering	-3824
▁construc	-3825
ody	-3826
▁43	-3827
▁enhancing	-3828
▁thank	-3829
▁drawn	-3830
▁excell	-3831
▁conver	-3832
org	-3833
jan	-3834
cc	-3835
▁assessments	-3836
▁turk	-3837
▁bin	-3838
▁58	-3839
▁subsequent	-3840
▁creating	-3841
▁interested	-3842
▁ku	-3843
▁timely	-3844
▁forth	-3845
tory	-3846
▁cond	-3847
▁appointed	-3848
ened	-3849
▁electoral	-3850
utri	-3851
▁gross	-3852
▁increasingly	-3853
▁consent	-3854
▁opening	-3855
▁transl	-3856
▁unep	-3857
▁withdraw	-3858
lled	-3859
▁pension	-3860
▁certificate	-3861
theless	-3862
▁nevertheless	-3863
▁stip	-3864
▁transitional	-3865
▁options	-3866
▁actively	-3867
▁old	-3868
▁donors	-3869
▁expertise	-3870
▁grant	-3871
▁indones	-3872
zation	-3873
▁ran	-3874
▁perpetr	-3875
ton	-3876
▁except	-3877
▁weapon	-3878
greg	-3879
▁belg	-3880
▁owners	-3881
▁considerable	-3882
▁endors	-3883
▁keep	-3884
▁utili	-3885
▁ece	-3886
▁existence	-3887
aw	-3888
▁mas	-3889
ery	-3890
▁sentence	-3891
▁remaining	-3892
▁nig	-3893
▁cooperate	-3894
▁kosovo	-3895
wise	-3896
▁emphasis	-3897
▁answer	-3898
▁australia	-3899
▁interim	-3900
▁investments	-3901
▁carrying	-3902
▁diversity	-3903
▁raise	-3904
▁comment	-3905
▁oversight	-3906
gov	-3907
▁keeping	-3908
▁contributing	-3909
▁estimates	-3910
▁register	-3911
▁firm	-3912
▁belong	-3913
▁44	-3914
▁almost	-3915
▁islands	-3916
▁obstac	-3917
▁medic	-3918
▁seven	-3919
▁noting	-3920
▁details	-3921
▁cr	-3922
rison	-3923
▁charge	-3924
▁prosecutor	-3925
▁75	-3926
▁1991	-3927
▁fel	-3928
▁significantly	-3929
▁makes	-3930
▁extend	-3931
▁stor	-3932
▁normal	-3933
▁dead	-3934
umed	-3935
▁depri	-3936
ished	-3937
▁unfpa	-3938
▁job	-3939
▁occasion	-3940
▁resulted	-3941
▁vir	-3942
▁solidarity	-3943
▁@@”@@	-3944
▁prisoners	-3945
▁participated	-3946
versi	-3947
▁norway	-3948
▁reconcil	-3949
▁otherwise	-3950
▁release	-3951
▁allocated	-3952
▁expect	-3953
▁herze	-3954
▁victim	-3955
govina	-3956
▁elabor	-3957
▁orient	-3958
asting	-3959
▁structures	-3960
▁site	-3961
▁herzegovina	-3962
▁accompan	-3963
▁standing	-3964
▁imprison	-3965
▁expression	-3966
▁diseases	-3967
▁lu	-3968
▁hear	-3969
▁causes	-3970
▁dr	-3971
ground	-3972
▁quot	-3973
▁presentation	-3974
arily	-3975
▁pil	-3976
▁heads	-3977
▁repe	-3978
▁associations	-3979
▁analy	-3980
▁mainstream	-3981
▁syrian	-3982
▁recruitment	-3983
▁mari	-3984
▁geographical	-3985
▁sou	-3986
▁63	-3987
▁element	-3988
▁spir	-3989
▁acknowled	-3990
▁reven	-3991
▁attacks	-3992
▁sale	-3993
▁deployment	-3994
▁webs	-3995
▁62	-3996
▁extension	-3997
▁sixty	-3998
▁unece	-3999
▁publication	-4000
build	-4001
▁chairperson	-4002
bi	-4003
▁vice	-4004
▁dump	-4005
▁confirmed	-4006
des	-4007
▁representation	-4008
▁allocation	-4009
▁revision	-4010
▁hosp	-4011
▁cypr	-4012
illing	-4013
▁kuwa	-4014
▁cyprus	-4015
rep	-4016
▁miti	-4017
▁instruc	-4018
▁issu	-4019
▁urges	-4020
▁offered	-4021
▁facility	-4022
▁ali	-4023
▁switzer	-4024
▁secure	-4025
▁switzerland	-4026
▁cong	-4027
▁rise	-4028
▁ded	-4029
▁aims	-4030
▁engaged	-4031
▁southern	-4032
iry	-4033
▁subregional	-4034
▁understand	-4035
▁cash	-4036
▁georg	-4037
▁nationality	-4038
▁size	-4039
▁respectively	-4040
▁guine	-4041
▁lives	-4042
▁colom	-4043
▁employees	-4044
▁acces	-4045
emic	-4046
enna	-4047
anish	-4048
▁ky	-4049
▁highest	-4050
▁observed	-4051
▁donor	-4052
pect	-4053
▁unid	-4054
▁deliver	-4055
urs	-4056
▁award	-4057
ront	-4058
▁fields	-4059
▁liqu	-4060
lines	-4061
▁dangerous	-4062
▁fixed	-4063
▁56	-4064
▁hol	-4065
▁recorded	-4066
▁deriv	-4067
row	-4068
▁highly	-4069
▁tit	-4070
▁speaking	-4071
rid	-4072
▁identity	-4073
▁mach	-4074
▁direction	-4075
tiv	-4076
▁expos	-4077
▁ratification	-4078
▁preventing	-4079
▁empower	-4080
▁hab	-4081
▁syn	-4082
▁neighbour	-4083
▁urged	-4084
▁latter	-4085
▁pointed	-4086
▁migrants	-4087
▁deliber	-4088
▁vessels	-4089
▁vienna	-4090
nam	-4091
▁restruct	-4092
▁68	-4093
pl	-4094
▁disclo	-4095
▁adoles	-4096
▁restructuring	-4097
▁envis	-4098
▁cut	-4099
▁produce	-4100
▁seventh	-4101
▁66	-4102
▁earlier	-4103
▁emphasized	-4104
▁belar	-4105
▁socio	-4106
▁jobs	-4107
▁moroc	-4108
▁selected	-4109
▁notification	-4110
iring	-4111
▁perspective	-4112
▁sweden	-4113
▁contributed	-4114
▁mrs	-4115
▁racism	-4116
▁availability	-4117
▁q	-4118
▁species	-4119
▁reproductive	-4120
▁learning	-4121
▁67	-4122
▁instance	-4123
▁left	-4124
▁croatia	-4125
▁designated	-4126
▁resp	-4127
▁observers	-4128
▁phil	-4129
▁city	-4130
▁completion	-4131
▁civilians	-4132
▁marine	-4133
▁cz	-4134
▁equivalent	-4135
▁vital	-4136
▁whom	-4137
▁updated	-4138
ship	-4139
▁arm	-4140
▁trends	-4141
▁dispos	-4142
▁ang	-4143
▁differences	-4144
▁passen	-4145
etary	-4146
▁parliamentary	-4147
▁concluding	-4148
▁hung	-4149
▁@@*	-4150
emination	-4151
▁prime	-4152
▁spirit	-4153
▁mess	-4154
▁uns	-4155
▁volume	-4156
▁weak	-4157
▁giving	-4158
ription	-4159
▁acad	-4160
ula	-4161
usal	-4162
▁penalty	-4163
▁transactions	-4164
▁courses	-4165
▁demo	-4166
▁oj	-4167
▁77	-4168
▁pollution	-4169
▁disease	-4170
▁subsequently	-4171
▁places	-4172
▁maintained	-4173
▁autom	-4174
▁reinteg	-4175
loyed	-4176
▁matern	-4177
▁supports	-4178
▁forty	-4179
▁guinea	-4180
▁96	-4181
▁wat	-4182
▁observer	-4183
▁threats	-4184
▁lebanon	-4185
▁authorized	-4186
▁dissemination	-4187
wide	-4188
▁prosecution	-4189
▁histor	-4190
▁highlighted	-4191
▁parent	-4192
▁residence	-4193
▁integrity	-4194
▁sales	-4195
tes	-4196
▁corresponding	-4197
▁characteristics	-4198
▁saving	-4199
▁operators	-4200
▁unemployment	-4201
▁roma	-4202
▁prelim	-4203
▁populations	-4204
▁yugosla	-4205
▁controls	-4206
▁encourages	-4207
▁rwanda	-4208
unity	-4209
▁intervention	-4210
▁yugoslavia	-4211
▁.@@	-4212
▁innovation	-4213
viation	-4214
▁et	-4215
▁incorporated	-4216
▁schedul	-4217
▁colle	-4218
▁disability	-4219
▁factor	-4220
▁testing	-4221
▁transit	-4222
▁interven	-4223
▁transparent	-4224
▁poland	-4225
▁severe	-4226
▁recalling	-4227
▁preliminary	-4228
▁intention	-4229
▁applying	-4230
▁marriage	-4231
▁cycle	-4232
ranch	-4233
▁eight	-4234
▁egy	-4235
▁omb	-4236
▁haiti	-4237
building	-4238
▁behavi	-4239
▁bound	-4240
▁dar	-4241
▁align	-4242
▁egypt	-4243
▁ombud	-4244
▁heav	-4245
▁guide	-4246
▁statute	-4247
▁declared	-4248
▁azer	-4249
▁attend	-4250
▁gaz	-4251
▁classification	-4252
▁sought	-4253
bai	-4254
▁original	-4255
▁prejudice	-4256
▁territorial	-4257
▁binding	-4258
▁tests	-4259
▁records	-4260
▁background	-4261
▁deputy	-4262
▁somalia	-4263
▁happ	-4264
▁ca	-4265
▁argent	-4266
▁arising	-4267
▁faced	-4268
▁accid	-4269
▁indonesia	-4270
▁previously	-4271
▁break	-4272
▁nationals	-4273
riers	-4274
▁nar	-4275
▁initiated	-4276
▁bulg	-4277
▁combined	-4278
▁reconciliation	-4279
▁consequently	-4280
▁database	-4281
▁distinc	-4282
▁quar	-4283
▁sole	-4284
▁2016	-4285
▁deem	-4286
▁strict	-4287
▁micro	-4288
▁romania	-4289
baijan	-4290
▁azerbaijan	-4291
▁applicant	-4292
▁seeking	-4293
▁95	-4294
▁attrib	-4295
▁thereby	-4296
▁applies	-4297
▁czech	-4298
▁reasonable	-4299
▁ended	-4300
uss	-4301
abil	-4302
▁authorisation	-4303
▁gh	-4304
▁coverage	-4305
rat	-4306
▁consumers	-4307
ares	-4308
▁supreme	-4309
▁condem	-4310
▁engage	-4311
▁wp	-4312
▁emerging	-4313
▁funded	-4314
ouse	-4315
▁works	-4316
▁occupation	-4317
ua	-4318
▁exports	-4319
▁strongly	-4320
empt	-4321
▁hazard	-4322
▁liability	-4323
▁targeted	-4324
▁ratified	-4325
▁degree	-4326
▁district	-4327
▁dele	-4328
▁decent	-4329
▁chamber	-4330
▁interf	-4331
▁examine	-4332
▁voc	-4333
▁outer	-4334
▁charges	-4335
▁storage	-4336
▁liquid	-4337
▁tourism	-4338
▁departments	-4339
▁foundation	-4340
▁austria	-4341
ommod	-4342
▁arri	-4343
▁accommod	-4344
▁allegations	-4345
▁technological	-4346
▁numerous	-4347
erted	-4348
▁assessed	-4349
▁encouraging	-4350
▁imprisonment	-4351
▁impos	-4352
▁drafting	-4353
▁disch	-4354
▁accused	-4355
▁eliminate	-4356
▁greece	-4357
▁tari	-4358
▁going	-4359
▁2020	-4360
ero	-4361
▁teachers	-4362
▁uses	-4363
▁hard	-4364
ert	-4365
▁belarus	-4366
▁norm	-4367
▁advantage	-4368
▁migrant	-4369
▁immigration	-4370
▁ninth	-4371
▁shows	-4372
▁pilot	-4373
▁discip	-4374
iently	-4375
▁acquis	-4376
▁pref	-4377
▁vill	-4378
▁trading	-4379
▁multip	-4380
▁prohibition	-4381
▁get	-4382
▁enabling	-4383
ded	-4384
▁interpretation	-4385
▁latest	-4386
▁mandates	-4387
rate	-4388
▁employed	-4389
▁merc	-4390
▁heard	-4391
▁command	-4392
▁lawy	-4393
▁85	-4394
teenth	-4395
▁adverse	-4396
▁stop	-4397
▁protecting	-4398
▁branch	-4399
▁numbers	-4400
▁located	-4401
▁marketing	-4402
▁mortality	-4403
▁98	-4404
▁attain	-4405
▁len	-4406
▁subsidiary	-4407
▁retain	-4408
▁mus	-4409
▁eligible	-4410
coming	-4411
ressive	-4412
▁adaptation	-4413
▁born	-4414
▁visits	-4415
▁eighth	-4416
▁derog	-4417
▁endorsed	-4418
▁figures	-4419
onses	-4420
▁asian	-4421
▁preparing	-4422
▁sites	-4423
▁undertakings	-4424
▁settlements	-4425
▁tariff	-4426
▁profit	-4427
▁prom	-4428
▁reintegration	-4429
marily	-4430
ertain	-4431
▁coordinator	-4432
▁little	-4433
▁organizational	-4434
▁responses	-4435
▁receiving	-4436
oted	-4437
▁300	-4438
▁supervision	-4439
ie	-4440
▁coordinating	-4441
▁dissemin	-4442
▁liberal	-4443
ugg	-4444
teed	-4445
▁presc	-4446
ou	-4447
▁monetary	-4448
ventive	-4449
▁guaranteed	-4450
▁internationally	-4451
iqu	-4452
▁instead	-4453
▁acce	-4454
▁website	-4455
▁moment	-4456
▁clean	-4457
wh	-4458
▁explan	-4459
▁improvements	-4460
▁examined	-4461
▁pregn	-4462
▁authorised	-4463
▁preventive	-4464
▁defic	-4465
▁thematic	-4466
▁extremely	-4467
▁armen	-4468
▁flows	-4469
fort	-4470
▁primarily	-4471
▁periods	-4472
▁ask	-4473
▁candidates	-4474
▁finland	-4475
▁russia	-4476
▁affecting	-4477
▁toler	-4478
▁dign	-4479
▁attemp	-4480
▁contra	-4481
▁enterprise	-4482
roduce	-4483
▁juvenile	-4484
ira	-4485
▁schemes	-4486
▁safeguard	-4487
▁disabled	-4488
▁behaviour	-4489
▁commod	-4490
▁decides	-4491
▁cn	-4492
▁burden	-4493
▁history	-4494
▁bat	-4495
▁adjustment	-4496
tin	-4497
▁outcomes	-4498
▁attack	-4499
▁facing	-4500
▁competence	-4501
▁eradication	-4502
enses	-4503
puts	-4504
light	-4505
▁unido	-4506
▁preced	-4507
inal	-4508
▁unable	-4509
▁ep	-4510
▁ombuds	-4511
▁examples	-4512
▁depos	-4513
erent	-4514
vak	-4515
▁abol	-4516
uay	-4517
ulating	-4518
▁doing	-4519
▁extensive	-4520
▁sustainability	-4521
▁try	-4522
▁dumping	-4523
▁minors	-4524
▁principal	-4525
▁coast	-4526
▁overc	-4527
▁invent	-4528
▁expan	-4529
▁experiences	-4530
▁conting	-4531
iop	-4532
national	-4533
▁91	-4534
▁mm	-4535
▁judiciary	-4536
▁appointment	-4537
forced	-4538
oll	-4539
▁maintaining	-4540
▁recip	-4541
▁gaza	-4542
▁closed	-4543
▁kuwait	-4544
▁pending	-4545
▁sah	-4546
▁innovative	-4547
▁exclusive	-4548
▁discriminatory	-4549
▁92	-4550
▁maritime	-4551
▁zeal	-4552
atible	-4553
▁biological	-4554
▁norms	-4555
▁losses	-4556
▁labor	-4557
▁covering	-4558
akh	-4559
▁belgium	-4560
▁methodology	-4561
▁actually	-4562
ne	-4563
eties	-4564
▁believes	-4565
▁contrary	-4566
▁oce	-4567
▁true	-4568
▁burund	-4569
▁inclusive	-4570
▁nep	-4571
▁lessons	-4572
iles	-4573
▁ton	-4574
▁chemicals	-4575
▁failed	-4576
▁expansion	-4577
▁farmers	-4578
▁conservation	-4579
▁regret	-4580
cessive	-4581
▁auditors	-4582
head	-4583
▁)@@	-4584
`@@	-4585
▁prohibited	-4586
▁dail	-4587
▁resident	-4588
▁zealand	-4589
▁option	-4590
rol	-4591
▁ownership	-4592
▁banks	-4593
▁dispute	-4594
▁pap	-4595
inese	-4596
▁nation	-4597
▁ol	-4598
▁morocco	-4599
▁hyd	-4600
▁mine	-4601
▁daily	-4602
▁transmission	-4603
▁undermin	-4604
▁recalled	-4605
▁electricity	-4606
▁facilitating	-4607
▁lith	-4608
fully	-4609
▁introduce	-4610
▁ethiop	-4611
ij	-4612
▁bang	-4613
▁borders	-4614
▁colombia	-4615
▁treated	-4616
▁supplies	-4617
▁nutri	-4618
▁sla	-4619
▁consultative	-4620
▁obstacles	-4621
▁legitimate	-4622
▁fer	-4623
▁slovak	-4624
▁length	-4625
▁commissions	-4626
▁mental	-4627
ingu	-4628
▁breach	-4629
▁outstanding	-4630
▁diplomatic	-4631
ighting	-4632
▁organs	-4633
▁reconst	-4634
▁regularly	-4635
▁package	-4636
▁announced	-4637
▁accur	-4638
▁portugal	-4639
▁supervis	-4640
▁lad	-4641
▁spread	-4642
▁title	-4643
▁inqu	-4644
▁systematic	-4645
▁lines	-4646
▁constructive	-4647
▁weight	-4648
▁sensitive	-4649
▁description	-4650
cing	-4651
▁domin	-4652
▁habit	-4653
▁indirec	-4654
▁vocational	-4655
▁alban	-4656
▁explained	-4657
▁2017	-4658
▁chinese	-4659
▁oh	-4660
▁transmitted	-4661
ara	-4662
▁tack	-4663
erra	-4664
uls	-4665
▁influence	-4666
▁quanti	-4667
▁search	-4668
▁legally	-4669
▁identifying	-4670
illance	-4671
▁termin	-4672
▁coming	-4673
▁surveillance	-4674
▁granting	-4675
▁enl	-4676
▁bol	-4677
▁jointly	-4678
▁97	-4679
▁attached	-4680
▁disasters	-4681
▁custody	-4682
▁preparations	-4683
titude	-4684
▁formulation	-4685
▁ecos	-4686
▁wto	-4687
▁assigned	-4688
▁impacts	-4689
▁stations	-4690
▁palestine	-4691
▁mac	-4692
▁sections	-4693
▁ambass	-4694
eland	-4695
▁denmark	-4696
▁persist	-4697
▁inequ	-4698
▁ombudsman	-4699
▁georgia	-4700
▁quick	-4701
oming	-4702
▁selection	-4703
▁appreci	-4704
▁alg	-4705
▁poss	-4706
▁93	-4707
raints	-4708
umb	-4709
tt	-4710
▁competitive	-4711
▁safeguards	-4712
▁promp	-4713
▁devices	-4714
with	-4715
▁train	-4716
▁sovereignty	-4717
▁decrease	-4718
▁occurred	-4719
atell	-4720
▁embar	-4721
tieth	-4722
▁disposal	-4723
▁uniform	-4724
▁195	-4725
▁appeals	-4726
▁ul	-4727
▁army	-4728
▁duration	-4729
▁dignity	-4730
▁argentina	-4731
▁dy	-4732
law	-4733
gs	-4734
▁wished	-4735
▁bulgaria	-4736
▁worked	-4737
▁subjected	-4738
▁ever	-4739
▁turkish	-4740
▁transform	-4741
▁minim	-4742
▁calculated	-4743
chr	-4744
▁hoped	-4745
▁incur	-4746
▁sierra	-4747
▁compris	-4748
▁demonstrated	-4749
▁performed	-4750
▁afford	-4751
▁dealt	-4752
▁liberia	-4753
fur	-4754
▁envisaged	-4755
▁arch	-4756
▁insu	-4757
rated	-4758
▁sense	-4759
▁pattern	-4760
▁urg	-4761
ii	-4762
▁bearing	-4763
▁notice	-4764
▁resolve	-4765
▁coordinate	-4766
▁bloc	-4767
▁transferred	-4768
▁links	-4769
▁equitable	-4770
▁wishes	-4771
▁survi	-4772
▁notified	-4773
ourg	-4774
phere	-4775
atri	-4776
▁scheduled	-4777
▁things	-4778
▁check	-4779
▁simply	-4780
▁operator	-4781
▁equity	-4782
▁evol	-4783
▁internally	-4784
▁operate	-4785
▁renewable	-4786
▁manual	-4787
uses	-4788
ifications	-4789
▁guard	-4790
▁detained	-4791
▁congrat	-4792
▁reconstruction	-4793
▁87	-4794
▁seminar	-4795
▁leone	-4796
▁expenditures	-4797
▁kept	-4798
▁pursue	-4799
▁adolesc	-4800
adequ	-4801
▁inadequ	-4802
▁collect	-4803
▁determining	-4804
▁acceler	-4805
▁quantities	-4806
▁reply	-4807
▁represents	-4808
▁incidents	-4809
▁comprom	-4810
▁load	-4811
▁compuls	-4812
▁ministries	-4813
▁burundi	-4814
▁transnational	-4815
▁bringing	-4816
▁recognizing	-4817
▁credi	-4818
▁loo	-4819
ilt	-4820
▁satell	-4821
▁delivered	-4822
▁teams	-4823
▁web	-4824
▁choice	-4825
▁ken	-4826
▁expenses	-4827
▁ago	-4828
▁biod	-4829
▁recognize	-4830
▁willing	-4831
▁belief	-4832
▁peacebuilding	-4833
▁fit	-4834
▁os	-4835
▁opened	-4836
ox	-4837
▁administr	-4838
▁financed	-4839
▁arrested	-4840
licit	-4841
▁enough	-4842
▁ia	-4843
▁protocols	-4844
con	-4845
rust	-4846
▁mother	-4847
▁exposure	-4848
▁argu	-4849
▁deemed	-4850
▁reservations	-4851
▁attended	-4852
▁liby	-4853
▁autonom	-4854
▁update	-4855
▁phen	-4856
vail	-4857
gets	-4858
▁repeated	-4859
▁lithu	-4860
▁stocks	-4861
▁campaigns	-4862
▁chile	-4863
▁precise	-4864
▁played	-4865
▁curric	-4866
▁divid	-4867
▁sets	-4868
▁mer	-4869
iling	-4870
▁adopting	-4871
▁compulsory	-4872
▁worldwide	-4873
▁suspend	-4874
▁frameworks	-4875
▁vision	-4876
▁constant	-4877
▁owned	-4878
▁prostitution	-4879
▁complaint	-4880
▁budgets	-4881
atures	-4882
▁philipp	-4883
▁broadc	-4884
▁empowerment	-4885
▁absol	-4886
▁forests	-4887
hr	-4888
▁ohchr	-4889
tr	-4890
▁figure	-4891
ony	-4892
dp	-4893
▁ecu	-4894
▁nigeria	-4895
▁constitutes	-4896
▁alone	-4897
vision	-4898
▁publications	-4899
▁cell	-4900
▁subpro	-4901
▁savings	-4902
▁weeks	-4903
▁wa	-4904
ili	-4905
▁hydro	-4906
▁intensi	-4907
▁coal	-4908
▁airport	-4909
▁execution	-4910
ystem	-4911
▁suffering	-4912
▁started	-4913
▁tel	-4914
▁guate	-4915
▁quantity	-4916
ola	-4917
▁guatemal	-4918
▁disad	-4919
▁disadvant	-4920
▁carbon	-4921
▁foster	-4922
▁quite	-4923
▁ecosystem	-4924
▁adolescents	-4925
▁remin	-4926
isons	-4927
fortun	-4928
ils	-4929
▁station	-4930
▁engagement	-4931
ussels	-4932
▁subprogram	-4933
▁generation	-4934
▁managed	-4935
▁ende	-4936
▁originating	-4937
▁manufacturer	-4938
▁09	-4939
▁unfortun	-4940
▁stresses	-4941
inking	-4942
elled	-4943
▁satisfaction	-4944
▁ug	-4945
▁attrac	-4946
▁brussels	-4947
▁confirm	-4948
▁asset	-4949
▁71	-4950
▁location	-4951
▁via	-4952
▁tunis	-4953
atically	-4954
▁widely	-4955
▁finding	-4956
▁72	-4957
▁productive	-4958
▁globalization	-4959
▁miss	-4960
▁constraints	-4961
▁kh	-4962
▁injury	-4963
▁clarify	-4964
▁arg	-4965
▁loans	-4966
▁absolute	-4967
▁thirty	-4968
▁disappear	-4969
▁nomin	-4970
▁cru	-4971
▁annexes	-4972
▁released	-4973
▁version	-4974
▁mainstreaming	-4975
▁simpli	-4976
▁explicit	-4977
▁race	-4978
▁revenue	-4979
▁88	-4980
▁genu	-4981
▁69	-4982
▁hor	-4983
▁03	-4984
rew	-4985
itals	-4986
▁detainees	-4987
▁consolidated	-4988
▁gap	-4989
road	-4990
▁genuine	-4991
▁suitable	-4992
▁producer	-4993
▁dynam	-4994
▁late	-4995
▁intell	-4996
▁intellect	-4997
▁starting	-4998
▁grad	-4999
▁temper	-5000
▁competitiveness	-5001
▁partner	-5002
▁unac	-5003
▁sectoral	-5004
▁nine	-5005
ots	-5006
▁76	-5007
▁idea	-5008
▁94	-5009
▁facts	-5010
▁dig	-5011
▁suffic	-5012
▁rati	-5013
▁motor	-5014
pe	-5015
▁@@)@@	-5016
▁prop	-5017
▁camb	-5018
▁inhuman	-5019
▁maur	-5020
▁fran	-5021
▁opposition	-5022
▁disputes	-5023
▁pi	-5024
▁composition	-5025
▁acceptance	-5026
▁demands	-5027
▁neither	-5028
▁lea	-5029
rant	-5030
▁allowing	-5031
▁hom	-5032
▁sustained	-5033
▁hungary	-5034
▁sloven	-5035
▁cease	-5036
▁infring	-5037
▁citizenship	-5038
▁accessible	-5039
▁theme	-5040
▁dia	-5041
linary	-5042
▁stabil	-5043
▁earth	-5044
▁reaching	-5045
▁plants	-5046
▁learned	-5047
▁dedic	-5048
▁05	-5049
jection	-5050
▁intellectual	-5051
mos	-5052
▁properly	-5053
▁insufficient	-5054
▁04	-5055
▁cohes	-5056
▁reviews	-5057
▁02	-5058
▁exporting	-5059
▁lux	-5060
▁*	-5061
▁73	-5062
▁achievements	-5063
▁perpetrators	-5064
unction	-5065
▁collected	-5066
▁cities	-5067
ortion	-5068
▁census	-5069
▁manage	-5070
▁barriers	-5071
▁certification	-5072
▁fraud	-5073
▁peru	-5074
▁monit	-5075
load	-5076
▁append	-5077
▁congress	-5078
▁liter	-5079
▁kaz	-5080
ios	-5081
▁programming	-5082
▁volunte	-5083
▁advancement	-5084
commit	-5085
umn	-5086
▁describ	-5087
▁affir	-5088
▁acceptable	-5089
▁repeal	-5090
▁instructions	-5091
ulates	-5092
ivers	-5093
▁ambassador	-5094
ova	-5095
▁flag	-5096
▁balanced	-5097
▁variety	-5098
▁phenomen	-5099
▁sanitation	-5100
▁older	-5101
▁conclude	-5102
airo	-5103
▁laying	-5104
▁outlined	-5105
▁join	-5106
ousand	-5107
▁thousand	-5108
▁qualified	-5109
▁mere	-5110
▁cas	-5111
▁basel	-5112
▁remar	-5113
▁quarter	-5114
▁distributed	-5115
▁cambod	-5116
▁jord	-5117
▁adh	-5118
▁seminars	-5119
▁counsel	-5120
▁darfur	-5121
▁premises	-5122
▁representing	-5123
▁chain	-5124
▁surf	-5125
▁everyone	-5126
▁subcommit	-5127
▁iaea	-5128
▁considerations	-5129
▁path	-5130
ague	-5131
▁output	-5132
▁discharge	-5133
▁repatri	-5134
gressive	-5135
▁investigate	-5136
▁armenia	-5137
▁accompanied	-5138
▁seriously	-5139
▁jordan	-5140
▁providers	-5141
▁permitted	-5142
▁pati	-5143
▁heavy	-5144
▁withdrawal	-5145
▁defend	-5146
▁penalties	-5147
yc	-5148
▁checks	-5149
▁lis	-5150
▁suffered	-5151
▁transf	-5152
▁heading	-5153
▁demonstrate	-5154
▁mines	-5155
porters	-5156
▁liberty	-5157
▁gree	-5158
po	-5159
▁disag	-5160
▁ratify	-5161
▁ultim	-5162
iscal	-5163
▁away	-5164
▁serbia	-5165
▁realization	-5166
ji	-5167
▁clust	-5168
▁vessel	-5169
▁changing	-5170
10	-5171
sc	-5172
▁difference	-5173
▁reiterated	-5174
▁marginal	-5175
▁doll	-5176
▁hearing	-5177
▁virt	-5178
▁cc	-5179
house	-5180
▁cd	-5181
▁covers	-5182
▁cf	-5183
▁focal	-5184
▁expanded	-5185
▁lia	-5186
▁trained	-5187
▁feel	-5188
▁speakers	-5189
▁assistant	-5190
▁ivo	-5191
uable	-5192
▁99	-5193
▁increases	-5194
ield	-5195
▁prob	-5196
▁propose	-5197
▁dimension	-5198
oman	-5199
▁computer	-5200
itre	-5201
▁pled	-5202
▁spanish	-5203
resh	-5204
ailand	-5205
▁fiscal	-5206
otes	-5207
▁teaching	-5208
▁thailand	-5209
iques	-5210
▁societies	-5211
▁ethiopia	-5212
▁lif	-5213
▁introducing	-5214
▁century	-5215
emen	-5216
▁waters	-5217
▁ready	-5218
opho	-5219
▁zones	-5220
▁flexibility	-5221
▁kenya	-5222
▁invitation	-5223
▁relatively	-5224
▁400	-5225
▁sponsors	-5226
times	-5227
asing	-5228
▁reim	-5229
▁town	-5230
iterran	-5231
sement	-5232
▁warning	-5233
▁english	-5234
▁pleased	-5235
▁lan	-5236
▁unre	-5237
▁rend	-5238
▁floor	-5239
▁destro	-5240
▁06	-5241
▁iraqi	-5242
▁belonging	-5243
▁impar	-5244
ommunic	-5245
oth	-5246
▁convinc	-5247
▁sample	-5248
▁gent	-5249
vance	-5250
▁rejected	-5251
tition	-5252
▁television	-5253
▁claimed	-5254
▁advocacy	-5255
▁mediterran	-5256
▁arbitrary	-5257
▁began	-5258
▁greek	-5259
▁cam	-5260
▁format	-5261
▁friend	-5262
▁attempt	-5263
▁mandatory	-5264
▁voting	-5265
▁aviation	-5266
▁corporate	-5267
▁citizen	-5268
▁techniques	-5269
▁largest	-5270
▁define	-5271
▁gave	-5272
▁mi	-5273
▁grants	-5274
▁tot	-5275
▁interventions	-5276
▁abroad	-5277
▁mediterranean	-5278
▁sometimes	-5279
▁directives	-5280
▁specify	-5281
▁acquisition	-5282
▁slow	-5283
▁deterior	-5284
▁jer	-5285
ware	-5286
umption	-5287
▁disclos	-5288
rants	-5289
oler	-5290
▁eritre	-5291
▁malay	-5292
▁largely	-5293
▁exclusion	-5294
▁relevance	-5295
▁procedural	-5296
▁feas	-5297
▁alle	-5298
▁similarly	-5299
▁gentle	-5300
▁organic	-5301
▁fu	-5302
▁top	-5303
▁appears	-5304
▁jama	-5305
▁soldi	-5306
▁killed	-5307
▁user	-5308
▁iceland	-5309
▁currency	-5310
urity	-5311
▁exemp	-5312
▁names	-5313
▁ict	-5314
▁businesses	-5315
▁endeavour	-5316
▁conventional	-5317
jects	-5318
onomic	-5319
▁08	-5320
▁telec	-5321
▁inadequate	-5322
oring	-5323
▁charged	-5324
▁steering	-5325
▁came	-5326
ape	-5327
▁news	-5328
▁mobility	-5329
▁cli	-5330
▁unm	-5331
▁algeria	-5332
▁unes	-5333
▁coup	-5334
▁ivoire	-5335
▁lithuania	-5336
▁optim	-5337
▁cohesion	-5338
iaries	-5339
▁ladies	-5340
▁becoming	-5341
ense	-5342
▁wider	-5343
▁reality	-5344
▁"	-5345
▁continuous	-5346
▁equally	-5347
▁enjoyment	-5348
oto	-5349
▁gentlemen	-5350
▁pill	-5351
▁79	-5352
▁78	-5353
▁cô	-5354
▁extradition	-5355
iversity	-5356
▁gives	-5357
▁antic	-5358
▁exceeding	-5359
▁drawing	-5360
anmar	-5361
▁accomplish	-5362
▁les	-5363
▁focusing	-5364
missible	-5365
▁reimbur	-5366
▁input	-5367
▁changed	-5368
▁reve	-5369
▁hazardous	-5370
▁reliable	-5371
▁broader	-5372
▁topics	-5373
▁monthly	-5374
▁pet	-5375
▁nic	-5376
▁myanmar	-5377
▁expresses	-5378
▁biodiversity	-5379
▁bear	-5380
reneur	-5381
▁côte	-5382
▁industries	-5383
▁crop	-5384
▁excessive	-5385
▁unique	-5386
▁letters	-5387
repreneur	-5388
▁predic	-5389
▁soft	-5390
▁07	-5391
▁directed	-5392
▁extrac	-5393
▁supplementary	-5394
▁recognizes	-5395
▁memor	-5396
▁assisting	-5397
▁homes	-5398
▁ap	-5399
▁controlled	-5400
▁perh	-5401
▁recognised	-5402
▁perhaps	-5403
▁allowance	-5404
▁stay	-5405
▁purchase	-5406
▁beneficiaries	-5407
▁justified	-5408
▁capable	-5409
▁unlaw	-5410
▁entrepreneur	-5411
▁impunity	-5412
▁machin	-5413
▁consign	-5414
▁advanced	-5415
▁acced	-5416
▁subcommittee	-5417
▁notably	-5418
▁kazakh	-5419
▁prevail	-5420
▁89	-5421
▁guatemala	-5422
▁managers	-5423
▁buildings	-5424
▁acid	-5425
▁eea	-5426
▁woman	-5427
▁conducting	-5428
▁assessing	-5429
▁prisons	-5430
itive	-5431
tish	-5432
▁grave	-5433
▁incomp	-5434
▁ign	-5435
▁movements	-5436
▁channel	-5437
▁message	-5438
▁joined	-5439
▁uganda	-5440
▁viet	-5441
▁meat	-5442
▁ld	-5443
▁neighbouring	-5444
lation	-5445
▁ilo	-5446
▁gaps	-5447
▁maternal	-5448
▁copy	-5449
▁indicates	-5450
economic	-5451
▁overcome	-5452
▁foot	-5453
▁tolerance	-5454
▁gl	-5455
▁municipal	-5456
▁restricted	-5457
bile	-5458
▁lisbon	-5459
▁camps	-5460
▁unesco	-5461
▁philippines	-5462
▁measured	-5463
▁depth	-5464
▁surveys	-5465
▁remedies	-5466
▁bench	-5467
▁codes	-5468
▁licence	-5469
▁wood	-5470
etic	-5471
▁receip	-5472
▁incurred	-5473
▁abst	-5474
▁timor	-5475
▁degrading	-5476
arc	-5477
▁fao	-5478
▁oral	-5479
▁managing	-5480
▁assisted	-5481
▁subprogramme	-5482
▁households	-5483
lav	-5484
lades	-5485
bre	-5486
▁appendix	-5487
▁seas	-5488
▁ip	-5489
▁upgra	-5490
▁satellite	-5491
▁lost	-5492
▁certificates	-5493
▁banglades	-5494
▁multiple	-5495
▁presidential	-5496
▁ngo	-5497
▁luxemb	-5498
▁bah	-5499
▁subsidies	-5500
▁mold	-5501
▁seems	-5502
▁capabilities	-5503
where	-5504
▁navi	-5505
▁paral	-5506
▁unod	-5507
▁sure	-5508
▁194	-5509
▁fruit	-5510
▁/	-5511
▁coherence	-5512
▁harmonization	-5513
▁madam	-5514
▁aged	-5515
▁reading	-5516
▁salv	-5517
▁2018	-5518
▁transfers	-5519
▁unilateral	-5520
▁lastly	-5521
▁cul	-5522
▁annivers	-5523
▁ecuador	-5524
▁colon	-5525
▁regardless	-5526
▁classified	-5527
▁shel	-5528
▁600	-5529
▁obvious	-5530
▁transportation	-5531
▁fees	-5532
▁modalities	-5533
▁intel	-5534
▁prefer	-5535
▁showed	-5536
▁anticip	-5537
▁conj	-5538
▁fas	-5539
▁macro	-5540
table	-5541
▁unodc	-5542
▁decentral	-5543
▁stable	-5544
▁luxembourg	-5545
▁sil	-5546
▁unfortunately	-5547
▁stages	-5548
▁measurement	-5549
▁pages	-5550
▁cruel	-5551
▁reserve	-5552
▁troops	-5553
▁certainly	-5554
▁brit	-5555
▁requesting	-5556
▁writing	-5557
▁regarded	-5558
ja	-5559
▁ideas	-5560
▁wides	-5561
▁mix	-5562
▁doubt	-5563
▁mur	-5564
pread	-5565
▁helping	-5566
▁remote	-5567
▁widespread	-5568
ns	-5569
▁thanks	-5570
▁unity	-5571
▁served	-5572
▁`@@	-5573
▁kg	-5574
▁consc	-5575
▁habitat	-5576
▁intellig	-5577
▁arrangement	-5578
▁lod	-5579
▁acknowledged	-5580
▁anniversary	-5581
▁front	-5582
▁else	-5583
▁enforced	-5584
▁calculation	-5585
▁86	-5586
▁intoler	-5587
▁psychological	-5588
▁urge	-5589
▁reflects	-5590
▁exceptional	-5591
▁facilitation	-5592
▁slovenia	-5593
▁something	-5594
▁allows	-5595
enez	-5596
▁summar	-5597
▁overview	-5598
ults	-5599
▁milk	-5600
▁bangladesh	-5601
▁notify	-5602
▁behind	-5603
▁stream	-5604
▁secondly	-5605
▁respected	-5606
ift	-5607
acted	-5608
▁lasting	-5609
▁estimate	-5610
▁overse	-5611
▁index	-5612
▁promoted	-5613
▁supervisory	-5614
▁convened	-5615
▁malaysia	-5616
▁da	-5617
▁device	-5618
▁opinions	-5619
▁xen	-5620
▁etc	-5621
▁excluded	-5622
▁rational	-5623
▁requiring	-5624
encing	-5625
▁integral	-5626
▁nothing	-5627
▁74	-5628
▁deser	-5629
▁lists	-5630
▁machinery	-5631
▁became	-5632
▁humanity	-5633
naire	-5634
▁delegated	-5635
▁offers	-5636
bound	-5637
▁sri	-5638
▁entail	-5639
▁italian	-5640
▁decree	-5641
▁correct	-5642
bek	-5643
▁evaluate	-5644
pping	-5645
▁kazakhstan	-5646
▁questionnaire	-5647
▁interpre	-5648
▁manif	-5649
▁fresh	-5650
▁firms	-5651
▁83	-5652
▁marked	-5653
▁professionals	-5654
▁refers	-5655
▁roles	-5656
▁verify	-5657
▁adequately	-5658
▁send	-5659
▁imped	-5660
▁removal	-5661
▁negotiating	-5662
▁tob	-5663
usalem	-5664
▁venez	-5665
▁jerusalem	-5666
▁temperature	-5667
ecd	-5668
▁xenopho	-5669
▁orders	-5670
▁deliberations	-5671
▁agents	-5672
▁inland	-5673
ote	-5674
▁deaths	-5675
▁84	-5676
andum	-5677
▁herit	-5678
▁danger	-5679
▁memorandum	-5680
▁hospital	-5681
▁mandated	-5682
▁rape	-5683
▁md	-5684
▁really	-5685
▁maced	-5686
▁convinced	-5687
▁concentration	-5688
emption	-5689
▁witnesses	-5690
rd	-5691
ita	-5692
▁valuable	-5693
▁derived	-5694
▁underlying	-5695
▁referring	-5696
▁interview	-5697
▁fear	-5698
▁smo	-5699
▁venezuel	-5700
lin	-5701
▁underst	-5702
ca	-5703
▁nepal	-5704
▁inventory	-5705
▁built	-5706
▁heritage	-5707
▁employers	-5708
▁relate	-5709
▁mobilization	-5710
▁gdp	-5711
▁adjustments	-5712
mak	-5713
▁lib	-5714
▁models	-5715
▁oriented	-5716
▁unp	-5717
▁vulnerability	-5718
▁decline	-5719
▁felt	-5720
▁province	-5721
ores	-5722
▁shares	-5723
▁helped	-5724
▁comparison	-5725
reshold	-5726
▁dependent	-5727
▁threshold	-5728
▁genoc	-5729
▁staffing	-5730
▁flexible	-5731
▁interior	-5732
sk	-5733
▁remun	-5734
▁enlarge	-5735
▁mobile	-5736
▁conjunction	-5737
▁surface	-5738
▁pup	-5739
▁serving	-5740
▁amm	-5741
▁%@@	-5742
▁uncertain	-5743
▁cambodia	-5744
▁lik	-5745
▁map	-5746
ush	-5747
▁reaffirmed	-5748
▁complainant	-5749
▁hence	-5750
▁soldiers	-5751
▁ratio	-5752
▁replies	-5753
▁modified	-5754
▁disclosure	-5755
▁reiterates	-5756
▁passed	-5757
▁compromise	-5758
▁exped	-5759
▁violated	-5760
▁sufficiently	-5761
▁schedule	-5762
▁beg	-5763
▁harmful	-5764
▁palestinians	-5765
▁harass	-5766
▁isol	-5767
gue	-5768
▁mitigation	-5769
▁stra	-5770
ali	-5771
▁usually	-5772
tioned	-5773
zed	-5774
▁thor	-5775
▁stim	-5776
ennial	-5777
▁costa	-5778
▁oecd	-5779
▁hal	-5780
▁wed	-5781
yed	-5782
gers	-5783
▁remedy	-5784
let	-5785
▁segment	-5786
▁britain	-5787
▁quota	-5788
▁tend	-5789
▁82	-5790
vation	-5791
▁british	-5792
▁ones	-5793
▁deprived	-5794
arent	-5795
▁moldova	-5796
▁dedicated	-5797
▁integrate	-5798
▁regulated	-5799
▁believed	-5800
▁exemption	-5801
▁81	-5802
▁worth	-5803
▁experienced	-5804
ham	-5805
ipped	-5806
uff	-5807
▁track	-5808
▁gath	-5809
▁journalists	-5810
▁incenti	-5811
ches	-5812
▁accred	-5813
▁sides	-5814
ock	-5815
gy	-5816
▁friendly	-5817
▁apparent	-5818
▁prescribed	-5819
▁entrust	-5820
▁derogation	-5821
▁transaction	-5822
▁contractual	-5823
▁aspect	-5824
▁successfully	-5825
▁toxic	-5826
▁negotiation	-5827
▁falling	-5828
band	-5829
▁liaison	-5830
▁@@$	-5831
▁faith	-5832
▁colo	-5833
▁vacc	-5834
▁producing	-5835
actory	-5836
▁definitions	-5837
▁mining	-5838
▁genocide	-5839
▁indication	-5840
▁word	-5841
▁progressive	-5842
▁handling	-5843
▁reservation	-5844
▁fores	-5845
▁infringe	-5846
▁voted	-5847
▁telecommunic	-5848
▁desertification	-5849
▁distinction	-5850
▁deadline	-5851
▁uz	-5852
▁declarations	-5853
▁passenger	-5854
▁papers	-5855
▁posed	-5856
aled	-5857
▁returned	-5858
30	-5859
▁favourable	-5860
▁coastal	-5861
▁newly	-5862
▁environmentally	-5863
▁formed	-5864
mitted	-5865
▁understood	-5866
▁online	-5867
▁angola	-5868
▁crises	-5869
▁deployed	-5870
▁1989	-5871
▁rede	-5872
lling	-5873
▁unions	-5874
▁rot	-5875
▁inquiry	-5876
▁mag	-5877
▁cp	-5878
▁agg	-5879
▁mu	-5880
▁fighting	-5881
▁salvador	-5882
dation	-5883
▁urug	-5884
▁impose	-5885
▁establishments	-5886
▁column	-5887
▁kil	-5888
da	-5889
▁uruguay	-5890
ception	-5891
▁completely	-5892
down	-5893
▁slovakia	-5894
▁wage	-5895
▁unlawful	-5896
▁seeks	-5897
▁digital	-5898
aid	-5899
▁latvia	-5900
ensions	-5901
▁forums	-5902
▁pertain	-5903
▁comes	-5904
▁candidate	-5905
▁receipt	-5906
▁subjects	-5907
▁muslim	-5908
▁locations	-5909
▁indicator	-5910
▁unan	-5911
▁tunisia	-5912
▁aqu	-5913
▁tender	-5914
▁outs	-5915
▁150	-5916
▁sugar	-5917
boundary	-5918
▁functional	-5919
▁recalls	-5920
▁transboundary	-5921
▁compil	-5922
▁=	-5923
▁pic	-5924
aired	-5925
▁academic	-5926
zing	-5927
▁wr	-5928
▁macedonia	-5929
▁reti	-5930
▁talks	-5931
▁constituted	-5932
▁productivity	-5933
▁hund	-5934
▁tir	-5935
▁intolerance	-5936
▁organize	-5937
▁displace	-5938
▁inspections	-5939
▁suggest	-5940
▁directorate	-5941
▁unif	-5942
▁troop	-5943
▁demobil	-5944
cd	-5945
▁observation	-5946
udi	-5947
▁consolidation	-5948
▁loan	-5949
▁depending	-5950
▁devoted	-5951
▁generated	-5952
▁nutrition	-5953
▁lebanese	-5954
omet	-5955
▁logistics	-5956
▁tonnes	-5957
▁hundred	-5958
▁incentives	-5959
▁thorough	-5960
▁male	-5961
▁object	-5962
▁proof	-5963
▁historical	-5964
▁resist	-5965
kh	-5966
▁raw	-5967
▁dup	-5968
▁paralle	-5969
▁closer	-5970
▁establishes	-5971
▁compatible	-5972
▁illust	-5973
ography	-5974
▁page	-5975
▁lawyers	-5976
▁laund	-5977
▁explor	-5978
▁taj	-5979
▁manufacturing	-5980
▁ocean	-5981
▁uzbek	-5982
▁delays	-5983
▁reductions	-5984
oration	-5985
▁degradation	-5986
oks	-5987
tian	-5988
rier	-5989
▁sam	-5990
gregated	-5991
▁resumed	-5992
▁veter	-5993
▁placing	-5994
▁larger	-5995
▁reinforce	-5996
▁nearly	-5997
▁compound	-5998
mer	-5999
istence	-6000
▁moun	-6001
▁arbitration	-6002
▁paris	-6003
▁boys	-6004
▁phenomenon	-6005
▁parame	-6006
▁embargo	-6007
▁yes	-6008
▁fal	-6009
▁accommodation	-6010
▁susp	-6011
▁ordinary	-6012
ales	-6013
▁consequence	-6014
▁lanka	-6015
▁coherent	-6016
▁diversi	-6017
▁constitu	-6018
▁tajik	-6019
▁sport	-6020
▁texts	-6021
▁licences	-6022
▁flight	-6023
▁calling	-6024
▁alco	-6025
▁narco	-6026
▁software	-6027
ambia	-6028
▁leaving	-6029
▁rich	-6030
▁clin	-6031
▁decades	-6032
▁renewed	-6033
▁800	-6034
▁repatriation	-6035
▁votes	-6036
▁pra	-6037
▁exists	-6038
▁liabilities	-6039
▁limitations	-6040
▁enlargement	-6041
ique	-6042
▁combination	-6043
▁pursued	-6044
▁signing	-6045
▁symp	-6046
▁master	-6047
▁drew	-6048
▁scen	-6049
▁minutes	-6050
▁correspond	-6051
▁thousands	-6052
▁refere	-6053
▁obliged	-6054
▁wrong	-6055
▁railway	-6056
utory	-6057
zone	-6058
▁invites	-6059
▁cooperative	-6060
25	-6061
▁mitig	-6062
oked	-6063
21	-6064
▁quickly	-6065
ancies	-6066
cession	-6067
▁wind	-6068
▁explanation	-6069
▁parallel	-6070
▁kar	-6071
▁venezuela	-6072
▁fat	-6073
▁wall	-6074
▁removed	-6075
ologies	-6076
▁buy	-6077
▁navigation	-6078
pected	-6079
▁beings	-6080
▁smes	-6081
▁intends	-6082
matic	-6083
▁imported	-6084
▁allegedly	-6085
▁albania	-6086
▁intermedi	-6087
▁installation	-6088
sile	-6089
▁distingu	-6090
▁dimensions	-6091
▁alcohol	-6092
atch	-6093
▁connected	-6094
▁seed	-6095
regular	-6096
▁referend	-6097
▁incident	-6098
▁oios	-6099
▁estonia	-6100
endar	-6101
▁incorporate	-6102
▁duplic	-6103
▁ensured	-6104
▁irregular	-6105
▁acquired	-6106
▁provinc	-6107
roc	-6108
▁forthcoming	-6109
▁continuation	-6110
▁eritrea	-6111
▁immun	-6112
erce	-6113
▁stipulates	-6114
egal	-6115
utable	-6116
▁convicted	-6117
▁violent	-6118
▁critic	-6119
set	-6120
▁tenth	-6121
▁residents	-6122
▁unam	-6123
▁clarification	-6124
▁sentenced	-6125
pped	-6126
liers	-6127
▁malta	-6128
▁pes	-6129
▁lamp	-6130
▁offenders	-6131
gor	-6132
▁tub	-6133
▁hot	-6134
▁remuneration	-6135
care	-6136
▁possibilities	-6137
▁provincial	-6138
▁registry	-6139
▁normally	-6140
▁separation	-6141
▁composed	-6142
▁none	-6143
▁senegal	-6144
▁adviser	-6145
▁aligned	-6146
▁suggestions	-6147
▁reportedly	-6148
▁destination	-6149
▁excellency	-6150
▁consisting	-6151
▁diver	-6152
▁whereby	-6153
fi	-6154
▁seekers	-6155
▁reviewing	-6156
rees	-6157
▁thought	-6158
ko	-6159
▁harassment	-6160
▁cluster	-6161
▁ecb	-6162
▁ele	-6163
atories	-6164
▁imper	-6165
▁analytical	-6166
agen	-6167
▁consists	-6168
▁looking	-6169
▁unanim	-6170
▁speech	-6171
rence	-6172
▁excellent	-6173
▁resolved	-6174
▁compr	-6175
reach	-6176
▁indirect	-6177
▁npt	-6178
▁bom	-6179
▁xenophobia	-6180
▁monday	-6181
graphic	-6182
▁securities	-6183
omic	-6184
▁cab	-6185
▁2019	-6186
▁labelling	-6187
▁weigh	-6188
▁mercury	-6189
▁intelligence	-6190
▁monten	-6191
▁utilization	-6192
ba	-6193
▁monteneg	-6194
▁intend	-6195
osis	-6196
▁catal	-6197
▁ldcs	-6198
▁ber	-6199
▁river	-6200
▁unaccept	-6201
▁replacement	-6202
▁specifications	-6203
▁laundering	-6204
▁1980	-6205
▁hereby	-6206
▁frequently	-6207
▁prospects	-6208
▁van	-6209
▁rapidly	-6210
▁intensive	-6211
tile	-6212
▁deleted	-6213
▁visited	-6214
▁soil	-6215
▁mothers	-6216
▁conta	-6217
▁outreach	-6218
▁vid	-6219
▁brok	-6220
▁enshr	-6221
▁scenari	-6222
▁decreased	-6223
▁moving	-6224
▁processed	-6225
▁accidents	-6226
▁pollut	-6227
▁rob	-6228
▁contacts	-6229
▁porn	-6230
▁120	-6231
▁greatest	-6232
▁denied	-6233
▁calendar	-6234
▁pupils	-6235
▁big	-6236
▁invite	-6237
▁atmos	-6238
▁learn	-6239
▁apart	-6240
▁tanz	-6241
▁alternatives	-6242
▁annually	-6243
▁municipalities	-6244
▁exclusively	-6245
▁referendum	-6246
▁quotas	-6247
▁equipped	-6248
▁instances	-6249
▁academ	-6250
▁appropriations	-6251
ceptions	-6252
inces	-6253
▁relates	-6254
▁fost	-6255
fin	-6256
▁remove	-6257
itary	-6258
▁kyoto	-6259
▁sports	-6260
▁commodity	-6261
▁impossible	-6262
▁nairo	-6263
▁white	-6264
▁nairobi	-6265
▁reflecting	-6266
▁sell	-6267
esty	-6268
▁super	-6269
▁nit	-6270
▁comprising	-6271
▁vii	-6272
▁attempts	-6273
ulsion	-6274
▁privi	-6275
▁700	-6276
cepts	-6277
▁inputs	-6278
▁comparable	-6279
▁begun	-6280
▁ut	-6281
▁inhab	-6282
▁displacement	-6283
▁tables	-6284
▁passengers	-6285
▁missing	-6286
▁fulfilled	-6287
▁ahead	-6288
▁disciplinary	-6289
een	-6290
▁approve	-6291
▁saudi	-6292
▁contingent	-6293
▁manifest	-6294
▁solely	-6295
▁continent	-6296
▁arise	-6297
▁monitored	-6298
▁references	-6299
▁greenhouse	-6300
▁spent	-6301
▁steel	-6302
▁frequency	-6303
▁projected	-6304
▁forestry	-6305
asc	-6306
▁provinces	-6307
▁adults	-6308
▁moral	-6309
▁distance	-6310
▁amounted	-6311
ience	-6312
▁boli	-6313
▁evaluations	-6314
ijing	-6315
▁welcoming	-6316
▁permits	-6317
▁rad	-6318
▁ty	-6319
mentioned	-6320
▁yemen	-6321
▁beijing	-6322
▁closure	-6323
▁sentences	-6324
▁suppliers	-6325
▁na	-6326
▁thurs	-6327
▁briefing	-6328
▁km	-6329
▁unli	-6330
▁proved	-6331
▁130	-6332
▁gains	-6333
▁counselling	-6334
▁liveli	-6335
withstanding	-6336
▁livelihood	-6337
aces	-6338
▁hus	-6339
▁notwithstanding	-6340
▁rica	-6341
▁taxes	-6342
udes	-6343
▁salary	-6344
▁issuing	-6345
arag	-6346
▁thursday	-6347
lantic	-6348
▁classes	-6349
oke	-6350
▁features	-6351
▁prosper	-6352
stuff	-6353
▁cance	-6354
▁symb	-6355
ste	-6356
▁dynamic	-6357
▁win	-6358
▁responding	-6359
▁immigrants	-6360
40	-6361
▁fellow	-6362
▁merely	-6363
▁investors	-6364
oty	-6365
▁succeed	-6366
▁indicating	-6367
▁commended	-6368
▁epid	-6369
▁file	-6370
orest	-6371
itious	-6372
▁blo	-6373
▁authors	-6374
▁explore	-6375
▁driving	-6376
▁interaction	-6377
▁endor	-6378
▁ships	-6379
▁yugoslav	-6380
▁duly	-6381
▁cutting	-6382
▁suspension	-6383
▁joh	-6384
▁obtaining	-6385
▁freely	-6386
▁sem	-6387
▁commerce	-6388
▁poly	-6389
▁liable	-6390
▁abuses	-6391
▁double	-6392
▁literacy	-6393
▁rio	-6394
▁disadvantaged	-6395
▁facilitated	-6396
▁chad	-6397
▁patterns	-6398
▁deeply	-6399
▁unders	-6400
▁tackle	-6401
▁defenders	-6402
▁involves	-6403
▁banking	-6404
▁visa	-6405
▁customary	-6406
▁sold	-6407
▁substantially	-6408
akes	-6409
▁asp	-6410
▁formulated	-6411
▁thereto	-6412
sibly	-6413
ergies	-6414
▁dispar	-6415
ived	-6416
▁parameters	-6417
▁instruction	-6418
▁initiate	-6419
▁simple	-6420
▁operated	-6421
▁wednes	-6422
ensing	-6423
▁village	-6424
▁dollars	-6425
▁unacceptable	-6426
▁tues	-6427
va	-6428
▁@@°	-6429
lated	-6430
ested	-6431
rgy	-6432
mon	-6433
▁montenegro	-6434
▁barb	-6435
▁1988	-6436
▁uzbekistan	-6437
▁tuesday	-6438
▁rapporteurs	-6439
▁nicarag	-6440
▁alliance	-6441
▁translation	-6442
ault	-6443
▁wednesday	-6444
▁@@*@@	-6445
▁symbol	-6446
▁motion	-6447
▁beneficiary	-6448
▁relationships	-6449
▁preval	-6450
_@@	-6451
sa	-6452
angible	-6453
▁tanzania	-6454
erred	-6455
orm	-6456
▁organizing	-6457
▁motiv	-6458
▁aggression	-6459
▁aband	-6460
▁concepts	-6461
▁sul	-6462
▁suspended	-6463
▁cyp	-6464
▁forec	-6465
▁greatly	-6466
osen	-6467
▁satisfy	-6468
▁zim	-6469
▁teleph	-6470
▁activ	-6471
▁workpl	-6472
▁friday	-6473
▁je	-6474
yal	-6475
▁authorization	-6476
▁vide	-6477
▁dismis	-6478
▁choose	-6479
▁fine	-6480
▁kyrgy	-6481
▁veget	-6482
▁brid	-6483
▁insec	-6484
▁pertaining	-6485
inting	-6486
000	-6487
▁kyrgyz	-6488
vals	-6489
▁ageing	-6490
▁strugg	-6491
versities	-6492
tility	-6493
▁recur	-6494
▁dil	-6495
▁indian	-6496
▁reserves	-6497
ourse	-6498
▁unops	-6499
irable	-6500
▁injur	-6501
▁dates	-6502
▁card	-6503
▁entrusted	-6504
▁justify	-6505
ican	-6506
▁aer	-6507
▁abandon	-6508
▁universities	-6509
▁tried	-6510
haust	-6511
▁adver	-6512
▁exhaust	-6513
▁rating	-6514
▁explicitly	-6515
▁postpon	-6516
▁bon	-6517
rations	-6518
▁mos	-6519
▁circulated	-6520
▁satisfactory	-6521
▁scre	-6522
▁linkages	-6523
▁consistency	-6524
▁mixt	-6525
▁refund	-6526
he	-6527
bian	-6528
▁signature	-6529
▁chosen	-6530
▁ozone	-6531
▁ghana	-6532
titudes	-6533
▁supplied	-6534
▁recital	-6535
▁difficulty	-6536
▁squ	-6537
ett	-6538
▁cargo	-6539
▁cypri	-6540
▁proposes	-6541
▁congratulate	-6542
▁sized	-6543
▁transmitting	-6544
ulted	-6545
za	-6546
▁110	-6547
▁seat	-6548
▁mali	-6549
▁generate	-6550
▁entering	-6551
▁holder	-6552
▁fulfilment	-6553
olution	-6554
▁black	-6555
▁suspected	-6556
▁stre	-6557
▁prosecutors	-6558
50	-6559
▁necessity	-6560
bab	-6561
rem	-6562
▁sl	-6563
▁interc	-6564
▁dry	-6565
orrow	-6566
..	-6567
▁persistent	-6568
▁healthy	-6569
▁judgement	-6570
▁neut	-6571
▁tajikistan	-6572
▁demobilization	-6573
▁asc	-6574
▁exchanges	-6575
▁addi	-6576
▁enrol	-6577
book	-6578
iliation	-6579
holder	-6580
▁block	-6581
▁tank	-6582
▁(	-6583
▁organised	-6584
▁chur	-6585
▁adult	-6586
▁publicly	-6587
▁explosive	-6588
▁holders	-6589
▁awarded	-6590
▁drafted	-6591
rip	-6592
▁comparative	-6593
▁responded	-6594
▁preserv	-6595
▁filed	-6596
▁pip	-6597
▁vary	-6598
‐@@	-6599
▁unr	-6600
▁biennial	-6601
aments	-6602
▁judgment	-6603
▁clearance	-6604
▁attributable	-6605
▁tribunals	-6606
▁complementary	-6607
▁macroeconomic	-6608
▁fron	-6609
▁enshrined	-6610
▁elaboration	-6611
▁expectations	-6612
▁definitive	-6613
▁chris	-6614
▁assumed	-6615
▁au	-6616
▁prevented	-6617
▁statutory	-6618
minent	-6619
▁stipulated	-6620
gi	-6621
▁cooperating	-6622
▁rome	-6623
▁zimbab	-6624
ani	-6625
▁strip	-6626
▁refused	-6627
ho	-6628
▁zimbabwe	-6629
▁sampling	-6630
▁timet	-6631
▁tested	-6632
▁hospitals	-6633
▁allowances	-6634
▁submissions	-6635
▁extending	-6636
▁communicate	-6637
▁cere	-6638
▁parental	-6639
▁entirely	-6640
▁anticipated	-6641
▁presents	-6642
▁adjusted	-6643
▁expanding	-6644
▁credibility	-6645
▁mail	-6646
▁book	-6647
▁stead	-6648
▁wastes	-6649
▁tom	-6650
▁validity	-6651
ensity	-6652
▁inside	-6653
▁conversion	-6654
▁accountable	-6655
▁diagn	-6656
▁sad	-6657
▁accurate	-6658
▁@@‐@@	-6659
▁shar	-6660
▁preceding	-6661
rets	-6662
▁preserve	-6663
ulum	-6664
11	-6665
▁irres	-6666
▁easily	-6667
▁unrwa	-6668
▁defining	-6669
▁horiz	-6670
▁exact	-6671
▁colonial	-6672
uct	-6673
▁necessarily	-6674
▁carriage	-6675
▁clause	-6676
▁urgency	-6677
stein	-6678
▁packaging	-6679
▁aus	-6680
▁orientation	-6681
▁@@%@@	-6682
▁camero	-6683
▁accident	-6684
porter	-6685
▁@@_@@	-6686
▁putting	-6687
▁desire	-6688
burg	-6689
▁cameroon	-6690
▁demographic	-6691
space	-6692
▁occasions	-6693
atar	-6694
▁drop	-6695
▁iso	-6696
▁carefully	-6697
▁irrespective	-6698
▁libyan	-6699
▁interference	-6700
▁prohibit	-6701
▁cult	-6702
▁assume	-6703
▁occupational	-6704
▁truth	-6705
▁redep	-6706
▁expressing	-6707
urb	-6708
weg	-6709
▁mediation	-6710
▁measuring	-6711
▁pornography	-6712
ishing	-6713
stuffs	-6714
ders	-6715
anted	-6716
rich	-6717
▁driven	-6718
▁guiding	-6719
▁separately	-6720
▁appeared	-6721
▁inhabit	-6722
▁taxation	-6723
▁suffer	-6724
ata	-6725
▁objects	-6726
▁addresses	-6727
▁laboratory	-6728
▁street	-6729
▁doha	-6730
▁methodologies	-6731
unition	-6732
▁qualifications	-6733
▁gef	-6734
▁ours	-6735
▁complic	-6736
ye	-6737
▁meant	-6738
▁elder	-6739
▁partial	-6740
▁foreigners	-6741
▁friends	-6742
▁secured	-6743
forcing	-6744
▁significance	-6745
▁strictly	-6746
ann	-6747
▁bolivia	-6748
▁wording	-6749
▁ending	-6750
▁lands	-6751
▁mineral	-6752
▁patients	-6753
umes	-6754
▁anyone	-6755
▁formation	-6756
anian	-6757
▁marking	-6758
▁considerably	-6759
▁governed	-6760
▁assurance	-6761
▁parliaments	-6762
water	-6763
ipping	-6764
▁finds	-6765
▁trying	-6766
▁firstly	-6767
▁detection	-6768
▁engineering	-6769
▁outputs	-6770
vency	-6771
▁recru	-6772
▁spending	-6773
▁elsewhere	-6774
▁conve	-6775
▁airspace	-6776
ney	-6777
▁earn	-6778
rc	-6779
ón	-6780
▁showing	-6781
agues	-6782
▁driver	-6783
▁advances	-6784
▁ba	-6785
▁gained	-6786
▁cs	-6787
▁commodities	-6788
▁underlined	-6789
▁ox	-6790
▁themes	-6791
▁therein	-6792
▁dro	-6793
▁ethics	-6794
▁negotiated	-6795
▁analyse	-6796
▁stronger	-6797
▁acknowledge	-6798
▁offering	-6799
▁autonomous	-6800
▁issuance	-6801
▁highlight	-6802
ley	-6803
tre	-6804
aint	-6805
▁intra	-6806
▁intensify	-6807
▁singap	-6808
▁remarks	-6809
▁administer	-6810
▁singapore	-6811
▁becomes	-6812
▁conviction	-6813
▁satisfied	-6814
▁ecosystems	-6815
▁disseminate	-6816
▁inflation	-6817
▁inequality	-6818
▁hunger	-6819
▁injured	-6820
gence	-6821
▁admission	-6822
ateful	-6823
itative	-6824
▁inters	-6825
ino	-6826
▁curriculum	-6827
rates	-6828
▁abor	-6829
▁250	-6830
▁prove	-6831
▁limitation	-6832
▁lawyer	-6833
▁ax	-6834
▁horizon	-6835
▁ultimately	-6836
▁counterpar	-6837
vian	-6838
▁contents	-6839
▁partly	-6840
▁objection	-6841
▁abduc	-6842
▁pregnant	-6843
▁reaffirms	-6844
▁advantages	-6845
▁running	-6846
▁cultiv	-6847
isite	-6848
▁deprivation	-6849
▁closing	-6850
▁exposed	-6851
▁initially	-6852
▁nicaragua	-6853
▁possession	-6854
+@@	-6855
▁unlike	-6856
▁analyses	-6857
▁medicinal	-6858
▁107	-6859
▁cultures	-6860
▁willingness	-6861
ung	-6862
▁mauriti	-6863
▁employer	-6864
fies	-6865
▁mong	-6866
▁argued	-6867
▁consistently	-6868
▁enorm	-6869
▁consultants	-6870
▁liberalization	-6871
▁dom	-6872
▁undermine	-6873
iny	-6874
▁capability	-6875
ogen	-6876
▁imposition	-6877
▁absor	-6878
ecture	-6879
▁applicants	-6880
▁regimes	-6881
▁easy	-6882
ultane	-6883
▁infant	-6884
▁simultane	-6885
▁acquire	-6886
▁integrating	-6887
▁wealth	-6888
▁ced	-6889
▁grateful	-6890
oured	-6891
▁gases	-6892
▁programs	-6893
▁ham	-6894
▁attor	-6895
▁restriction	-6896
▁reb	-6897
▁accum	-6898
▁viable	-6899
▁inhabitants	-6900
▁confidential	-6901
▁sb	-6902
▁pool	-6903
▁privile	-6904
▁restoration	-6905
▁900	-6906
▁intim	-6907
▁abd	-6908
▁redress	-6909
▁league	-6910
▁servants	-6911
▁colleagues	-6912
▁kill	-6913
▁possess	-6914
isive	-6915
▁warm	-6916
▁systematically	-6917
▁guaranteeing	-6918
▁@@–	-6919
▁maxim	-6920
▁elderly	-6921
▁administrator	-6922
▁arabia	-6923
▁installations	-6924
▁targeting	-6925
▁destroyed	-6926
▁bid	-6927
▁depends	-6928
▁seats	-6929
▁nc	-6930
uated	-6931
▁sheet	-6932
▁threatened	-6933
▁pregnancy	-6934
▁trials	-6935
▁bad	-6936
▁sponsored	-6937
▁danish	-6938
entially	-6939
▁lot	-6940
lining	-6941
▁harmonized	-6942
▁emphasize	-6943
▁auspic	-6944
▁commence	-6945
▁stem	-6946
▁box	-6947
▁tobac	-6948
▁norweg	-6949
eres	-6950
▁signs	-6951
▁disaggregated	-6952
umin	-6953
▁attitudes	-6954
▁enabled	-6955
otyp	-6956
▁malaria	-6957
▁terrorists	-6958
▁veterinary	-6959
▁restrictive	-6960
▁volunteers	-6961
▁tobacco	-6962
▁pharm	-6963
▁eliminating	-6964
alling	-6965
▁existed	-6966
aba	-6967
▁smaller	-6968
▁orally	-6969
▁reimbursement	-6970
ules	-6971
▁meaningful	-6972
▁delegates	-6973
▁ensures	-6974
leb	-6975
▁atomic	-6976
▁maternity	-6977
asts	-6978
dam	-6979
▁justification	-6980
▁expulsion	-6981
▁norwegian	-6982
▁opposed	-6983
▁operative	-6984
▁reiterate	-6985
▁vast	-6986
▁smugg	-6987
▁mutually	-6988
▁refusal	-6989
▁reaffirm	-6990
▁ammunition	-6991
01	-6992
▁causing	-6993
gments	-6994
▁disappearance	-6995
▁swiss	-6996
▁restore	-6997
▁conducive	-6998
▁paying	-6999
▁whenever	-7000
isp	-7001
▁potentially	-7002
▁samples	-7003
▁mongol	-7004
locked	-7005
fol	-7006
▁insol	-7007
iencies	-7008
▁hour	-7009
▁everything	-7010
ompass	-7011
lot	-7012
▁heat	-7013
▁magn	-7014
▁makers	-7015
▁surround	-7016
▁divided	-7017
▁drinking	-7018
▁auspices	-7019
▁encompass	-7020
▁profile	-7021
▁customers	-7022
ago	-7023
▁extrem	-7024
▁termination	-7025
▁/@@	-7026
▁survival	-7027
▁offset	-7028
▁firmly	-7029
▁moz	-7030
▁osce	-7031
▁137	-7032
▁eradicate	-7033
▁reloc	-7034
sta	-7035
▁withdrawn	-7036
issau	-7037
▁discre	-7038
raint	-7039
atibility	-7040
▁drought	-7041
▁councils	-7042
▁enrolment	-7043
▁ports	-7044
▁criter	-7045
▁pas	-7046
ga	-7047
▁bond	-7048
▁privacy	-7049
▁villages	-7050
▁chaired	-7051
tenstein	-7052
▁stere	-7053
▁consulted	-7054
▁telephone	-7055
▁crops	-7056
▁shelter	-7057
▁mauritius	-7058
atever	-7059
▁whatever	-7060
▁criterion	-7061
▁wine	-7062
▁outline	-7063
▁swedish	-7064
▁meps	-7065
▁phot	-7066
▁retire	-7067
▁confisc	-7068
▁bott	-7069
tifications	-7070
▁yield	-7071
▁ww	-7072
tiated	-7073
▁channels	-7074
▁unn	-7075
▁escap	-7076
▁extraordin	-7077
▁convening	-7078
▁aliens	-7079
▁liech	-7080
▁certified	-7081
▁presentations	-7082
▁liechtenstein	-7083
▁mostly	-7084
▁updating	-7085
▁revital	-7086
▁contradic	-7087
▁timetable	-7088
▁diverse	-7089
▁ruling	-7090
▁freight	-7091
▁ourselves	-7092
▁transformation	-7093
ceived	-7094
▁urgently	-7095
lets	-7096
▁meets	-7097
▁designation	-7098
▁flood	-7099
▁manufacturers	-7100
▁examining	-7101
▁presidents	-7102
osing	-7103
▁mozamb	-7104
▁confidenti	-7105
fp	-7106
▁mdgs	-7107
▁shift	-7108
▁salaries	-7109
▁root	-7110
lers	-7111
▁aggreg	-7112
▁officially	-7113
▁qatar	-7114
▁admitted	-7115
▁lodged	-7116
▁provider	-7117
▁departure	-7118
ewise	-7119
▁recyc	-7120
▁furn	-7121
▁rising	-7122
▁stockp	-7123
▁hopes	-7124
▁deficit	-7125
▁facto	-7126
▁policymak	-7127
▁millions	-7128
▁mixed	-7129
▁ordin	-7130
▁performing	-7131
oub	-7132
▁fostering	-7133
ato	-7134
▁canc	-7135
▁likewise	-7136
▁colour	-7137
ecting	-7138
▁adapted	-7139
▁announce	-7140
▁formulate	-7141
▁cuban	-7142
▁ah	-7143
▁retained	-7144
back	-7145
▁goes	-7146
▁mist	-7147
▁generating	-7148
▁possibly	-7149
90	-7150
▁benefited	-7151
▁bissau	-7152
▁leader	-7153
rog	-7154
▁incons	-7155
▁voice	-7156
▁wages	-7157
udget	-7158
▁confidentiality	-7159
eenth	-7160
▁excess	-7161
▁inconsist	-7162
▁investigated	-7163
▁abolition	-7164
▁hamp	-7165
▁landlocked	-7166
▁archit	-7167
▁uncon	-7168
▁fuels	-7169
▁appropriation	-7170
▁proceeding	-7171
▁concerted	-7172
▁discretion	-7173
▁fiftieth	-7174
▁participatory	-7175
arms	-7176
▁portugues	-7177
▁fee	-7178
▁focuses	-7179
▁suggests	-7180
▁formally	-7181
▁celeb	-7182
▁portfol	-7183
▁historic	-7184
stat	-7185
▁preservation	-7186
▁scr	-7187
▁governor	-7188
▁accessibility	-7189
ouses	-7190
▁decisive	-7191
▁went	-7192
▁regrets	-7193
▁precisely	-7194
▁submitting	-7195
ricts	-7196
▁negl	-7197
▁niger	-7198
fire	-7199
los	-7200
▁complexity	-7201
▁prioritiz	-7202
▁portuguese	-7203
ountered	-7204
▁encountered	-7205
▁enormous	-7206
▁accelerate	-7207
▁109	-7208
▁father	-7209
▁consolidate	-7210
▁cis	-7211
▁placement	-7212
▁punishable	-7213
▁medicines	-7214
▁economically	-7215
▁farming	-7216
▁imperative	-7217
▁stereotyp	-7218
opol	-7219
▁blue	-7220
▁tangible	-7221
▁enact	-7222
▁enqu	-7223
▁interde	-7224
▁attitude	-7225
▁ecological	-7226
utch	-7227
▁sphere	-7228
▁geographic	-7229
▁guided	-7230
kina	-7231
▁districts	-7232
▁protective	-7233
▁synergies	-7234
▁hat	-7235
▁communicated	-7236
▁deport	-7237
▁resistance	-7238
ki	-7239
▁claimant	-7240
▁wash	-7241
▁catch	-7242
▁quantit	-7243
▁extraordinary	-7244
▁recipient	-7245
▁mobilize	-7246
▁interactive	-7247
ccc	-7248
▁merg	-7249
▁retail	-7250
▁occupying	-7251
▁immunity	-7252
▁cells	-7253
▁inserted	-7254
tising	-7255
▁slavery	-7256
▁www	-7257
▁hond	-7258
enh	-7259
▁borne	-7260
usion	-7261
▁125	-7262
▁huge	-7263
▁observance	-7264
▁debates	-7265
▁@@;@@	-7266
▁corporations	-7267
▁career	-7268
▁cold	-7269
▁quantitative	-7270
▁heart	-7271
▁flu	-7272
▁display	-7273
kind	-7274
▁poorest	-7275
▁zambia	-7276
▁pollutants	-7277
▁prevalence	-7278
▁copies	-7279
▁prosperity	-7280
▁morning	-7281
▁breakdown	-7282
▁bomb	-7283
▁duplication	-7284
▁formula	-7285
▁resc	-7286
▁logis	-7287
▁servicing	-7288
▁repair	-7289
▁recover	-7290
▁hands	-7291
▁pursuing	-7292
▁pensions	-7293
▁benchmar	-7294
ae	-7295
▁gradually	-7296
oting	-7297
▁foundations	-7298
▁cum	-7299
▁accounted	-7300
urances	-7301
cp	-7302
▁husband	-7303
▁extrab	-7304
▁noneth	-7305
udgetary	-7306
tures	-7307
▁specialists	-7308
▁absten	-7309
▁extrabudgetary	-7310
▁nonetheless	-7311
▁inspectors	-7312
▁hondur	-7313
iat	-7314
▁route	-7315
▁substit	-7316
▁vacancy	-7317
▁revenues	-7318
▁employee	-7319
▁dispro	-7320
▁uphold	-7321
vine	-7322
▁roads	-7323
▁municipality	-7324
▁continuity	-7325
ni	-7326
▁resett	-7327
rap	-7328
teen	-7329
▁sbi	-7330
▁condemn	-7331
▁sr	-7332
▁unnecess	-7333
▁enhancement	-7334
▁renewal	-7335
▁desirable	-7336
▁moved	-7337
▁sbsta	-7338
▁stands	-7339
▁chance	-7340
nesses	-7341
lete	-7342
▁plus	-7343
▁innoc	-7344
▁generations	-7345
▁mongolia	-7346
▁revealed	-7347
▁deterioration	-7348
▁libya	-7349
▁pain	-7350
▁struggle	-7351
ao	-7352
▁firearms	-7353
▁exercised	-7354
▁aspir	-7355
▁104	-7356
self	-7357
▁himself	-7358
▁empow	-7359
wealth	-7360
▁argument	-7361
▁105	-7362
▁ambitious	-7363
▁securing	-7364
▁commonwealth	-7365
▁logistical	-7366
▁essentially	-7367
▁zero	-7368
▁unemployed	-7369
▁emergencies	-7370
▁autonomy	-7371
▁credible	-7372
inder	-7373
▁hosted	-7374
▁@@–@@	-7375
▁burkina	-7376
▁lies	-7377
▁killing	-7378
▁workplace	-7379
▁faso	-7380
▁balances	-7381
▁contributes	-7382
opard	-7383
▁inval	-7384
▁curricula	-7385
▁speaker	-7386
▁jamaica	-7387
▁exported	-7388
▁insecurity	-7389
▁circulation	-7390
▁thing	-7391
▁param	-7392
▁attorney	-7393
▁@@&	-7394
▁indirectly	-7395
▁perspec	-7396
▁irre	-7397
anged	-7398
wan	-7399
▁emphasizes	-7400
▁saying	-7401
▁blood	-7402
▁arguments	-7403
▁truly	-7404
▁fulfilling	-7405
▁expiry	-7406
▁wanted	-7407
▁discussing	-7408
ommission	-7409
▁kilomet	-7410
▁mozambique	-7411
utors	-7412
▁tanks	-7413
▁atlantic	-7414
▁perspectives	-7415
▁acp	-7416
▁recruited	-7417
ented	-7418
▁jeopard	-7419
▁repeatedly	-7420
ros	-7421
▁electrical	-7422
▁exceptions	-7423
▁temp	-7424
▁ascertain	-7425
▁investigating	-7426
▁pure	-7427
▁shipping	-7428
▁incompatible	-7429
astic	-7430
▁assurances	-7431
mine	-7432
enhagen	-7433
▁houses	-7434
▁disproportion	-7435
▁harmonised	-7436
itis	-7437
▁mode	-7438
▁promptly	-7439
▁prevailing	-7440
▁massive	-7441
▁carrier	-7442
▁evolution	-7443
▁regulate	-7444
▁101	-7445
▁pose	-7446
▁headed	-7447
▁prompt	-7448
▁murder	-7449
▁126	-7450
▁ranging	-7451
▁dual	-7452
▁probably	-7453
▁evaluated	-7454
▁compatibility	-7455
▁sulph	-7456
▁politic	-7457
▁excluding	-7458
▁ordered	-7459
ez	-7460
▁annexed	-7461
▁repealed	-7462
▁syria	-7463
▁turkmen	-7464
▁fis	-7465
▁partially	-7466
▁synth	-7467
▁coerc	-7468
▁fill	-7469
▁undersc	-7470
ives	-7471
▁volati	-7472
▁appra	-7473
▁complied	-7474
ilst	-7475
▁art	-7476
▁amp	-7477
▁chairs	-7478
▁spite	-7479
▁petition	-7480
▁verbal	-7481
▁describe	-7482
inational	-7483
▁confront	-7484
▁103	-7485
▁feasible	-7486
▁honourable	-7487
▁proven	-7488
▁properties	-7489
▁abu	-7490
organ	-7491
▁whilst	-7492
▁preparedness	-7493
▁bes	-7494
▁copenhagen	-7495
▁radioactive	-7496
▁irish	-7497
▁attendance	-7498
24	-7499
ulf	-7500
▁@@&@@	-7501
▁enacted	-7502
▁baseline	-7503
entic	-7504
sen	-7505
▁affects	-7506
▁feeding	-7507
▁stateless	-7508
ughter	-7509
▁mountain	-7510
▁retirement	-7511
▁uncertainty	-7512
▁realistic	-7513
▁authentic	-7514
zen	-7515
icop	-7516
▁stating	-7517
▁popular	-7518
▁123	-7519
▁square	-7520
▁feasibility	-7521
▁affirm	-7522
▁parag	-7523
▁broadcasting	-7524
▁finalized	-7525
▁eurostat	-7526
▁mun	-7527
▁premium	-7528
▁incidence	-7529
▁worker	-7530
▁vat	-7531
▁dispatch	-7532
▁automatically	-7533
▁panama	-7534
▁directors	-7535
▁wfp	-7536
ibia	-7537
▁severely	-7538
▁atmosphere	-7539
▁militi	-7540
▁reject	-7541
▁utmost	-7542
▁automatic	-7543
▁dutch	-7544
▁inspector	-7545
▁administered	-7546
▁108	-7547
▁hague	-7548
▁looked	-7549
▁evident	-7550
▁containers	-7551
▁reaction	-7552
▁insolvency	-7553
▁lays	-7554
▁condemned	-7555
mad	-7556
▁tell	-7557
▁&	-7558
▁analysed	-7559
▁kyrgyzstan	-7560
▁narcotic	-7561
▁qualify	-7562
▁reaffirming	-7563
▁imbal	-7564
▁clarity	-7565
▁106	-7566
▁unequ	-7567
break	-7568
▁clients	-7569
▁inad	-7570
▁cited	-7571
▁proceeds	-7572
▁ips	-7573
▁tok	-7574
▁intimid	-7575
▁saint	-7576
▁endang	-7577
▁thanked	-7578
▁library	-7579
▁cm	-7580
▁demonstration	-7581
▁paraguay	-7582
▁scrut	-7583
▁mitigate	-7584
▁ceasefire	-7585
▁disparities	-7586
▁moham	-7587
▁cedaw	-7588
▁exploration	-7589
▁afore	-7590
▁commend	-7591
▁ib	-7592
tered	-7593
▁comprises	-7594
after	-7595
olon	-7596
▁cabin	-7597
▁polish	-7598
▁convene	-7599
▁1987	-7600
▁fell	-7601
▁concentrated	-7602
▁dos	-7603
▁helicop	-7604
▁readiness	-7605
long	-7606
comings	-7607
▁shortcomings	-7608
▁exhib	-7609
▁...	-7610
▁cypriot	-7611
bally	-7612
▁declined	-7613
▁engaging	-7614
▁injuries	-7615
▁amongst	-7616
▁save	-7617
requ	-7618
▁commander	-7619
▁ing	-7620
venth	-7621
disc	-7622
▁guil	-7623
▁pace	-7624
▁inequalities	-7625
▁cfsp	-7626
▁eca	-7627
▁discipline	-7628
ket	-7629
▁ts	-7630
▁140	-7631
▁discon	-7632
▁benin	-7633
▁sincere	-7634
▁manager	-7635
▁incorporating	-7636
▁delayed	-7637
▁repar	-7638
▁emerged	-7639
▁detri	-7640
▁combatants	-7641
▁sahara	-7642
▁promotes	-7643
tization	-7644
▁refrain	-7645
▁supplier	-7646
▁orph	-7647
▁subsidy	-7648
▁durable	-7649
▁deduc	-7650
▁impartial	-7651
▁routes	-7652
▁pact	-7653
plan	-7654
▁legitimacy	-7655
▁suggestion	-7656
▁lingu	-7657
▁°	-7658
▁databases	-7659
▁delivering	-7660
▁proposing	-7661
▁turning	-7662
▁indications	-7663
▁accreditation	-7664
▁kinds	-7665
▁upgrading	-7666
15	-7667
missibility	-7668
▁drivers	-7669
▁tor	-7670
▁acute	-7671
▁compilation	-7672
▁(@@	-7673
▁match	-7674
▁identical	-7675
▁indicative	-7676
▁invasion	-7677
▁maintains	-7678
irates	-7679
▁coalition	-7680
▁dominican	-7681
▁namibia	-7682
▁recording	-7683
▁eligibility	-7684
▁crossing	-7685
▁aforementioned	-7686
▁usd	-7687
▁restrict	-7688
▁separated	-7689
▁additionally	-7690
▁metal	-7691
99	-7692
tilities	-7693
▁pursuit	-7694
▁hostilities	-7695
▁capture	-7696
▁leads	-7697
erated	-7698
▁installed	-7699
▁guilty	-7700
▁subsistence	-7701
▁decolon	-7702
▁messages	-7703
▁canadian	-7704
▁vent	-7705
▁infringement	-7706
▁unw	-7707
▁jew	-7708
▁ped	-7709
▁boost	-7710
▁college	-7711
▁remit	-7712
df	-7713
▁magist	-7714
ict	-7715
oper	-7716
▁deposit	-7717
▁imposing	-7718
▁documented	-7719
▁montre	-7720
▁pig	-7721
▁invo	-7722
▁visible	-7723
itral	-7724
▁beneficial	-7725
fications	-7726
▁viii	-7727
▁gab	-7728
atial	-7729
▁poult	-7730
▁uncitral	-7731
▁highlights	-7732
▁à	-7733
▁dw	-7734
▁strike	-7735
lights	-7736
23	-7737
▁refuse	-7738
▁poultry	-7739
▁prolong	-7740
▁smooth	-7741
▁picture	-7742
aco	-7743
▁pestic	-7744
▁distor	-7745
▁resolving	-7746
▁enjoyed	-7747
▁handed	-7748
▁pillar	-7749
▁stabilization	-7750
▁executions	-7751
▁rely	-7752
▁tensions	-7753
entieth	-7754
▁suppression	-7755
▁hatred	-7756
▁twentieth	-7757
▁°@@	-7758
▁video	-7759
▁ine	-7760
▁imf	-7761
▁saw	-7762
▁evaluating	-7763
▁unj	-7764
▁foodstuffs	-7765
▁verified	-7766
▁ml	-7767
▁160	-7768
▁season	-7769
▁exemptions	-7770
erb	-7771
▁clearing	-7772
▁abortion	-7773
ano	-7774
▁iranian	-7775
▁collaborative	-7776
▁seemed	-7777
▁damages	-7778
▁allocate	-7779
▁outset	-7780
▁prohibits	-7781
▁assure	-7782
osi	-7783
▁smuggling	-7784
▁alter	-7785
▁prosecute	-7786
▁wild	-7787
till	-7788
▁hundreds	-7789
▁profits	-7790
▁declare	-7791
▁surpl	-7792
▁heavily	-7793
▁schen	-7794
▁globally	-7795
▁ct	-7796
▁exh	-7797
▁honduras	-7798
▁retention	-7799
oa	-7800
▁spok	-7801
▁divor	-7802
▁ven	-7803
icide	-7804
▁appreciate	-7805
▁fdi	-7806
▁audits	-7807
▁capita	-7808
▁gal	-7809
▁1986	-7810
▁spare	-7811
▁maln	-7812
▁signal	-7813
▁aggra	-7814
▁budgeting	-7815
▁tail	-7816
▁sligh	-7817
▁schengen	-7818
▁montreal	-7819
uk	-7820
▁lt	-7821
▁executed	-7822
▁night	-7823
▁serves	-7824
▁clarified	-7825
▁slightly	-7826
▁decolonization	-7827
▁saharan	-7828
▁momentum	-7829
▁punished	-7830
▁twice	-7831
▁divisions	-7832
▁inm	-7833
holm	-7834
▁commem	-7835
▁submits	-7836
▁presenting	-7837
▁interpreted	-7838
▁tabled	-7839
▁marginalized	-7840
▁owner	-7841
▁prc	-7842
▁concludes	-7843
atization	-7844
▁workload	-7845
laim	-7846
▁branches	-7847
▁structured	-7848
▁wound	-7849
▁payable	-7850
▁frequent	-7851
▁characterized	-7852
▁launching	-7853
▁told	-7854
hile	-7855
▁grade	-7856
▁comprise	-7857
▁hong	-7858
▁inherent	-7859
▁linguistic	-7860
▁arrival	-7861
▁obviously	-7862
▁exercising	-7863
▁traditions	-7864
▁promul	-7865
▁portfolio	-7866
▁allevi	-7867
▁residential	-7868
▁preferen	-7869
▁births	-7870
▁outbreak	-7871
▁thereon	-7872
▁relatives	-7873
yan	-7874
▁valuation	-7875
▁compli	-7876
▁eleventh	-7877
▁resettlement	-7878
awi	-7879
▁fewer	-7880
▁collecting	-7881
▁gathering	-7882
endum	-7883
rupt	-7884
▁boards	-7885
▁112	-7886
▁oceans	-7887
▁fitted	-7888
▁unnecessary	-7889
▁childhood	-7890
▁bulk	-7891
▁nitro	-7892
▁exceeded	-7893
▁thereafter	-7894
▁bh	-7895
▁deploy	-7896
▁unfair	-7897
▁prerequ	-7898
itude	-7899
▁pot	-7900
▁envoy	-7901
▁stakeholder	-7902
▁empowered	-7903
▁suspic	-7904
12	-7905
▁1985	-7906
▁incite	-7907
▁advocate	-7908
▁sharp	-7909
▁exac	-7910
▁overseas	-7911
▁115	-7912
▁crc	-7913
▁upper	-7914
▁subc	-7915
▁modification	-7916
▁airports	-7917
▁korean	-7918
▁diox	-7919
▁bahrain	-7920
▁warrant	-7921
▁juveniles	-7922
empor	-7923
icial	-7924
▁student	-7925
armar	-7926
▁fishery	-7927
▁recourse	-7928
▁obstacle	-7929
▁leste	-7930
▁originally	-7931
▁racist	-7932
▁absolutely	-7933
▁diversification	-7934
▁center	-7935
arians	-7936
▁attributed	-7937
▁translated	-7938
▁batter	-7939
▁earmar	-7940
▁privileges	-7941
▁label	-7942
role	-7943
▁easier	-7944
▁totally	-7945
▁ipsas	-7946
▁expressly	-7947
hiri	-7948
▁founded	-7949
▁seiz	-7950
▁nap	-7951
▁advertising	-7952
▁stockholm	-7953
▁accompanying	-7954
izations	-7955
▁allocations	-7956
▁aside	-7957
▁guideline	-7958
▁schol	-7959
▁neutral	-7960
▁enrich	-7961
▁designate	-7962
▁observe	-7963
▁dism	-7964
▁contempor	-7965
▁revolution	-7966
▁girl	-7967
▁kong	-7968
▁chapters	-7969
▁efficiently	-7970
▁australian	-7971
▁royal	-7972
▁foreseen	-7973
▁assignment	-7974
met	-7975
▁maurit	-7976
▁deals	-7977
▁radiation	-7978
▁rear	-7979
▁frag	-7980
utrition	-7981
▁rare	-7982
▁appreciated	-7983
▁concession	-7984
▁breast	-7985
took	-7986
▁instability	-7987
▁ga	-7988
▁constantly	-7989
▁surrounding	-7990
▁abstentions	-7991
▁interdepend	-7992
▁incorporation	-7993
▁indisp	-7994
▁oda	-7995
▁preferential	-7996
▁bis	-7997
▁amounting	-7998
▁holdings	-7999
▁gratitude	-8000
▁administering	-8001
▁falls	-8002
▁initiation	-8003
▁180	-8004
▁cataly	-8005
▁solve	-8006
tan	-8007
▁htt	-8008
▁modify	-8009
▁resume	-8010
▁domain	-8011
▁undertook	-8012
while	-8013
▁disturb	-8014
entive	-8015
▁unanimously	-8016
▁deple	-8017
ada	-8018
▁importers	-8019
fall	-8020
▁alarm	-8021
▁breed	-8022
▁indispens	-8023
▁qualitative	-8024
minated	-8025
▁exacerb	-8026
▁playing	-8027
▁church	-8028
▁wi	-8029
▁neighbourhood	-8030
▁profess	-8031
bou	-8032
▁somali	-8033
▁ale	-8034
▁client	-8035
▁packages	-8036
▁seized	-8037
▁viewed	-8038
▁apprais	-8039
▁diam	-8040
▁nato	-8041
▁wal	-8042
▁guardians	-8043
▁restraint	-8044
▁persec	-8045
▁negotiate	-8046
uration	-8047
▁genetic	-8048
▁hygi	-8049
▁subsc	-8050
▁turkmenistan	-8051
▁bio	-8052
▁unmis	-8053
mines	-8054
▁modifications	-8055
▁gradu	-8056
▁coordinators	-8057
oms	-8058
iar	-8059
atal	-8060
ients	-8061
▁insp	-8062
kes	-8063
▁horizontal	-8064
▁oli	-8065
▁cultivation	-8066
▁practition	-8067
▁indispensable	-8068
▁testim	-8069
▁appointments	-8070
▁aggrav	-8071
▁doubts	-8072
oon	-8073
tious	-8074
▁alien	-8075
▁luc	-8076
▁respecting	-8077
▁gar	-8078
▁resort	-8079
▁affordable	-8080
▁aiming	-8081
▁tac	-8082
▁exclude	-8083
▁lond	-8084
▁flights	-8085
▁lowest	-8086
point	-8087
olan	-8088
▁preca	-8089
▁prohibiting	-8090
▁accorded	-8091
▁kid	-8092
▁volumes	-8093
▁pillars	-8094
▁ji	-8095
▁@@]	-8096
▁assumption	-8097
▁examinations	-8098
▁timber	-8099
▁rental	-8100
rimin	-8101
án	-8102
▁phr	-8103
▁spring	-8104
▁jamahiri	-8105
▁portion	-8106
▁contractors	-8107
▁wond	-8108
▁aborig	-8109
▁peer	-8110
▁defines	-8111
▁thinking	-8112
tar	-8113
▁audi	-8114
29	-8115
▁phases	-8116
▁conciliation	-8117
▁contemporary	-8118
▁@@!	-8119
▁screening	-8120
18	-8121
▁jamahiriya	-8122
▁harmonisation	-8123
▁towns	-8124
▁wheel	-8125
▁london	-8126
▁pron	-8127
▁kilometres	-8128
▁died	-8129
▁detect	-8130
▁careful	-8131
▁watch	-8132
▁cauc	-8133
▁togo	-8134
▁elaborated	-8135
note	-8136
▁illiter	-8137
▁scenario	-8138
▁belgian	-8139
▁fiji	-8140
▁escal	-8141
▁ethical	-8142
▁ultimate	-8143
▁politics	-8144
▁roc	-8145
▁limiting	-8146
13	-8147
▁1970	-8148
posed	-8149
▁avoiding	-8150
iban	-8151
▁robust	-8152
bul	-8153
▁reception	-8154
▁concur	-8155
▁fronti	-8156
▁adr	-8157
▁interesting	-8158
▁liberation	-8159
▁distinct	-8160
cl	-8161
vest	-8162
▁eco	-8163
▁books	-8164
▁christian	-8165
▁disappearances	-8166
▁formulating	-8167
▁remind	-8168
▁won	-8169
▁icc	-8170
▁prosecuted	-8171
▁reun	-8172
14	-8173
▁anc	-8174
bid	-8175
rors	-8176
tedly	-8177
▁reciproc	-8178
▁worst	-8179
▁benchmarks	-8180
▁hearings	-8181
▁container	-8182
▁virtue	-8183
system	-8184
▁sac	-8185
▁emirates	-8186
▁manufactured	-8187
▁cabinet	-8188
▁appropriately	-8189
▁nom	-8190
▁taliban	-8191
▁regulating	-8192
▁exercises	-8193
▁ment	-8194
▁narrow	-8195
▁gene	-8196
▁teacher	-8197
▁interoper	-8198
▁xx	-8199
▁realize	-8200
▁washing	-8201
▁continuously	-8202
eli	-8203
▁adding	-8204
▁modules	-8205
▁underlines	-8206
▁elaborate	-8207
▁corporal	-8208
avoured	-8209
ighten	-8210
urning	-8211
▁religions	-8212
▁propag	-8213
worth	-8214
▁introductory	-8215
▁deserv	-8216
▁contrast	-8217
60	-8218
▁adolescent	-8219
▁mutil	-8220
late	-8221
▁push	-8222
▁merits	-8223
▁incentive	-8224
▁chlor	-8225
▁surpr	-8226
rey	-8227
aling	-8228
▁associate	-8229
iro	-8230
▁aspirations	-8231
▁bed	-8232
▁malnutrition	-8233
▁carriers	-8234
▁lakes	-8235
▁respects	-8236
▁normative	-8237
▁selective	-8238
▁livelihoods	-8239
▁1967	-8240
▁club	-8241
using	-8242
▁grass	-8243
▁crew	-8244
osite	-8245
appropri	-8246
▁accuracy	-8247
ests	-8248
▁underp	-8249
▁administrations	-8250
▁rendered	-8251
▁reinforcing	-8252
▁fast	-8253
▁false	-8254
▁unprec	-8255
▁advisers	-8256
▁unified	-8257
▁unpreced	-8258
▁receives	-8259
▁unprecedented	-8260
▁balk	-8261
▁expense	-8262
▁participant	-8263
▁·	-8264
andan	-8265
▁attract	-8266
▁interre	-8267
▁arrived	-8268
▁feature	-8269
▁aboriginal	-8270
▁livest	-8271
▁concentrations	-8272
▁livestock	-8273
▁consulting	-8274
▁wondered	-8275
▁bases	-8276
the	-8277
ulative	-8278
▁unifem	-8279
▁tons	-8280
▁engines	-8281
▁healthcare	-8282
can	-8283
▁band	-8284
▁coe	-8285
▁killings	-8286
▁mg	-8287
▁passing	-8288
▁holds	-8289
▁agent	-8290
▁cast	-8291
▁forwarded	-8292
▁powerful	-8293
▁lie	-8294
▁vend	-8295
▁revise	-8296
▁unifil	-8297
▁situated	-8298
▁endorse	-8299
▁190	-8300
▁durban	-8301
▁plays	-8302
▁deficiencies	-8303
▁attending	-8304
▁convergence	-8305
▁devast	-8306
▁hall	-8307
▁perceived	-8308
▁um	-8309
▁gradual	-8310
▁mult	-8311
▁tuberc	-8312
iatric	-8313
▁corporation	-8314
▁investor	-8315
▁realities	-8316
▁gren	-8317
▁nepad	-8318
▁disappo	-8319
▁simultaneously	-8320
▁independently	-8321
▁sick	-8322
eline	-8323
▁briefings	-8324
▁eventually	-8325
▁reinforced	-8326
▁stored	-8327
▁methyl	-8328
▁semi	-8329
do	-8330
▁recre	-8331
▁talk	-8332
▁multinational	-8333
▁module	-8334
aire	-8335
▁proactive	-8336
▁acknowledges	-8337
▁permission	-8338
cel	-8339
▁trail	-8340
▁medicine	-8341
▁shortly	-8342
▁disseminated	-8343
19	-8344
▁trig	-8345
arat	-8346
olese	-8347
▁dji	-8348
che	-8349
▁acted	-8350
▁architecture	-8351
▁individually	-8352
art	-8353
▁feedback	-8354
▁tubercul	-8355
▁notion	-8356
▁unpa	-8357
▁inher	-8358
▁recognise	-8359
▁heating	-8360
▁married	-8361
▁nitrogen	-8362
ints	-8363
▁rout	-8364
▁institutes	-8365
▁safeguarding	-8366
▁munitions	-8367
▁infection	-8368
▁isolation	-8369
▁grand	-8370
▁unpro	-8371
fying	-8372
▁advise	-8373
aten	-8374
▁djibou	-8375
▁rid	-8376
▁cancer	-8377
▁roll	-8378
▁temporarily	-8379
hat	-8380
▁workforce	-8381
gad	-8382
ori	-8383
▁modelling	-8384
▁*@@	-8385
▁appraisal	-8386
▁tu	-8387
▁returning	-8388
ona	-8389
▁recycling	-8390
ille	-8391
▁fissile	-8392
▁metals	-8393
▁profound	-8394
▁tomorrow	-8395
▁licensing	-8396
▁corrections	-8397
▁http	-8398
▁infrastructures	-8399
▁usa	-8400
▁realized	-8401
▁cant	-8402
fta	-8403
▁pc	-8404
▁disbur	-8405
▁tai	-8406
▁tribute	-8407
hips	-8408
▁iron	-8409
▁perf	-8410
▁projections	-8411
▁sending	-8412
▁asser	-8413
▁suit	-8414
dr	-8415
▁lending	-8416
ek	-8417
▁nur	-8418
▁broken	-8419
▁assured	-8420
acting	-8421
domin	-8422
▁investigative	-8423
bert	-8424
▁bovine	-8425
▁incumb	-8426
▁descent	-8427
▁corrected	-8428
▁amn	-8429
alled	-8430
ami	-8431
▁settled	-8432
▁operates	-8433
▁neighbours	-8434
▁diamond	-8435
▁networking	-8436
▁vertical	-8437
▁austrian	-8438
▁lamps	-8439
udence	-8440
▁motivated	-8441
▁hazards	-8442
▁adherence	-8443
ados	-8444
elfth	-8445
▁<	-8446
▁twelfth	-8447
▁returns	-8448
▁113	-8449
▁intermediate	-8450
▁wishing	-8451
▁sir	-8452
▁thirdly	-8453
vis	-8454
▁lived	-8455
▁politically	-8456
▁transported	-8457
▁somew	-8458
▁guy	-8459
▁grown	-8460
▁locally	-8461
ishment	-8462
▁inventories	-8463
▁tuberculosis	-8464
▁enables	-8465
▁standardization	-8466
▁amnesty	-8467
▁sid	-8468
▁thirds	-8469
fa	-8470
▁measurements	-8471
▁confron	-8472
enable	-8473
▁innocent	-8474
22	-8475
aneous	-8476
▁organisms	-8477
▁pred	-8478
▁138	-8479
▁124	-8480
▁lao	-8481
▁stressing	-8482
▁lever	-8483
▁stopp	-8484
▁landmines	-8485
▁spot	-8486
▁suppor	-8487
fiable	-8488
▁advancing	-8489
▁simplified	-8490
▁ho	-8491
tiality	-8492
▁bor	-8493
▁rh	-8494
▁row	-8495
▁bridge	-8496
▁preference	-8497
▁178	-8498
▁summer	-8499
▁fleet	-8500
▁constructed	-8501
▁lawful	-8502
▁una	-8503
▁customer	-8504
acing	-8505
▁socially	-8506
▁croatian	-8507
▁dischar	-8508
▁wherever	-8509
▁scrutiny	-8510
▁listing	-8511
urd	-8512
ames	-8513
wana	-8514
▁monuc	-8515
▁118	-8516
olved	-8517
▁hungarian	-8518
▁confirmation	-8519
▁rose	-8520
▁socialist	-8521
umbered	-8522
▁dimin	-8523
▁attainment	-8524
▁clinical	-8525
▁fro	-8526
▁unmik	-8527
▁attempted	-8528
body	-8529
▁surplus	-8530
ifies	-8531
▁denial	-8532
▁1982	-8533
abric	-8534
▁scholars	-8535
▁org	-8536
▁117	-8537
▁ki	-8538
aires	-8539
▁supportive	-8540
▁madrid	-8541
▁rescue	-8542
▁cess	-8543
▁taiwan	-8544
▁tension	-8545
comp	-8546
rar	-8547
▁114	-8548
sives	-8549
▁filled	-8550
▁dp	-8551
▁adversely	-8552
▁researchers	-8553
▁spoke	-8554
▁stood	-8555
▁routine	-8556
▁visibility	-8557
▁@@`@@	-8558
▁djibouti	-8559
otechn	-8560
▁liquidity	-8561
atorium	-8562
▁laboratories	-8563
▁combus	-8564
▁protest	-8565
▁intercon	-8566
▁broadly	-8567
▁absorb	-8568
▁commissioners	-8569
▁gear	-8570
▁delete	-8571
▁chronic	-8572
▁evac	-8573
▁prospect	-8574
redi	-8575
▁mich	-8576
▁mauritania	-8577
▁certainty	-8578
▁intimidation	-8579
▁yester	-8580
▁plural	-8581
▁hygiene	-8582
▁precon	-8583
▁baltic	-8584
etus	-8585
▁collateral	-8586
▁spl	-8587
▁noise	-8588
▁appealed	-8589
ums	-8590
▁116	-8591
▁predomin	-8592
▁emphasizing	-8593
▁buyer	-8594
▁error	-8595
▁yesterday	-8596
▁tackling	-8597
▁visual	-8598
▁image	-8599
▁anything	-8600
▁ages	-8601
▁pledges	-8602
▁cars	-8603
▁residual	-8604
▁repeat	-8605
▁viability	-8606
▁specialist	-8607
▁asking	-8608
rolled	-8609
general	-8610
log	-8611
▁invalid	-8612
▁shif	-8613
▁casual	-8614
▁acceded	-8615
▁trag	-8616
▁fired	-8617
▁insert	-8618
▁legality	-8619
▁dict	-8620
▁gathered	-8621
▁ingredi	-8622
▁pret	-8623
rating	-8624
▁happened	-8625
▁102	-8626
▁imo	-8627
▁epidemic	-8628
▁files	-8629
gorous	-8630
ongo	-8631
▁predictable	-8632
regional	-8633
▁spouses	-8634
uda	-8635
▁mutilation	-8636
▁sudanese	-8637
▁mixture	-8638
▁jos	-8639
▁shortage	-8640
▁tracking	-8641
titutional	-8642
arb	-8643
▁creditors	-8644
▁genital	-8645
▁albanian	-8646
▁methodological	-8647
agasc	-8648
▁weather	-8649
▁analysing	-8650
▁utilized	-8651
▁hr	-8652
▁bots	-8653
▁doctors	-8654
bt	-8655
▁shell	-8656
inations	-8657
▁correction	-8658
▁unpaid	-8659
▁invoked	-8660
▁madagasc	-8661
▁nominated	-8662
umptions	-8663
▁verbale	-8664
▁exhaus	-8665
▁sor	-8666
ía	-8667
▁intensity	-8668
▁repay	-8669
▁era	-8670
▁slaughter	-8671
▁reflection	-8672
▁accelerated	-8673
trum	-8674
▁linking	-8675
▁madagascar	-8676
discip	-8677
▁botswana	-8678
▁environments	-8679
▁happen	-8680
▁drive	-8681
▁timing	-8682
utical	-8683
▁registers	-8684
aka	-8685
▁rice	-8686
▁sequ	-8687
ressed	-8688
▁earmarked	-8689
▁reorgan	-8690
▁selling	-8691
▁minimize	-8692
▁agrees	-8693
▁dismant	-8694
▁gulf	-8695
▁inali	-8696
▁admissibility	-8697
35	-8698
▁inmates	-8699
▁impartiality	-8700
▁hit	-8701
iture	-8702
▁spectrum	-8703
▁notifications	-8704
tible	-8705
▁ix	-8706
▁155	-8707
▁specification	-8708
▁roots	-8709
▁suspects	-8710
▁illegally	-8711
▁ordinance	-8712
aceutical	-8713
▁explosives	-8714
▁procur	-8715
▁cessation	-8716
▁weaknesses	-8717
▁asean	-8718
▁sph	-8719
▁brings	-8720
▁moratorium	-8721
▁discontin	-8722
liances	-8723
▁affili	-8724
▁surviv	-8725
▁witnessed	-8726
disciplinary	-8727
▁academy	-8728
ala	-8729
▁virtually	-8730
ller	-8731
uous	-8732
riages	-8733
▁choices	-8734
oys	-8735
known	-8736
▁rightly	-8737
rig	-8738
▁weekly	-8739
▁practitioners	-8740
▁subcommission	-8741
▁carc	-8742
▁franc	-8743
▁unu	-8744
▁efta	-8745
▁inalienable	-8746
▁aggregate	-8747
▁redeployment	-8748
ogenic	-8749
▁ukrainian	-8750
▁committing	-8751
▁chambers	-8752
▁arran	-8753
essional	-8754
▁incitement	-8755
▁jurispr	-8756
▁reasonably	-8757
▁cape	-8758
▁malawi	-8759
▁sitting	-8760
▁volunteer	-8761
▁prosecutions	-8762
▁barbados	-8763
vable	-8764
▁corrid	-8765
▁sovi	-8766
▁door	-8767
▁cuts	-8768
▁civic	-8769
▁stereotypes	-8770
▁postal	-8771
▁divorce	-8772
▁informing	-8773
▁pharmaceutical	-8774
▁damaged	-8775
▁unknown	-8776
▁convey	-8777
▁bhut	-8778
▁alleviation	-8779
▁dismiss	-8780
▁145	-8781
▁remark	-8782
▁extrajud	-8783
▁interviews	-8784
▁continental	-8785
▁conceptual	-8786
rend	-8787
▁flying	-8788
▁resumption	-8789
raf	-8790
▁solar	-8791
▁naturally	-8792
▁spouse	-8793
▁cart	-8794
▁disreg	-8795
▁shape	-8796
▁mobilizing	-8797
▁deposits	-8798
onian	-8799
▁hosting	-8800
▁phrase	-8801
▁avoided	-8802
▁desired	-8803
▁mapping	-8804
▁qualification	-8805
▁exit	-8806
▁replied	-8807
▁intercultural	-8808
▁retro	-8809
▁piracy	-8810
▁window	-8811
▁assumptions	-8812
iesel	-8813
▁intensified	-8814
▁suspect	-8815
▁violate	-8816
▁switch	-8817
antly	-8818
▁johan	-8819
▁contamination	-8820
▁farms	-8821
▁oversee	-8822
▁renov	-8823
▁son	-8824
▁quarterly	-8825
16	-8826
▁shor	-8827
▁objections	-8828
tment	-8829
▁dan	-8830
▁soviet	-8831
▁tong	-8832
▁indent	-8833
▁summarized	-8834
▁perpetrated	-8835
▁accommodate	-8836
▁pledged	-8837
▁swift	-8838
▁monitors	-8839
▁unamid	-8840
▁breaches	-8841
▁herewith	-8842
▁accede	-8843
▁contingency	-8844
▁@@+@@	-8845
▁contractor	-8846
▁supplemented	-8847
iries	-8848
▁inev	-8849
▁guyana	-8850
▁133	-8851
▁tariffs	-8852
▁revers	-8853
▁braking	-8854
▁players	-8855
▁ash	-8856
▁repealing	-8857
entials	-8858
▁traditionally	-8859
▁jurisdictions	-8860
▁az	-8861
▁occurs	-8862
▁pertin	-8863
▁instal	-8864
▁gri	-8865
▁codi	-8866
iction	-8867
▁differ	-8868
▁haitian	-8869
▁jurisprudence	-8870
▁spatial	-8871
▁fails	-8872
▁advised	-8873
▁fragment	-8874
▁complying	-8875
▁ast	-8876
▁stimulate	-8877
▁127	-8878
inement	-8879
▁answers	-8880
▁conferred	-8881
▁exposures	-8882
▁conscience	-8883
rist	-8884
▁hum	-8885
▁ko	-8886
▁gm	-8887
urate	-8888
▁marks	-8889
▁+	-8890
▁ceiling	-8891
▁undoub	-8892
▁fragile	-8893
▁isolated	-8894
▁ef	-8895
▁airlines	-8896
▁auc	-8897
▁finn	-8898
att	-8899
▁revisions	-8900
▁doctor	-8901
▁extrajudicial	-8902
ilience	-8903
▁nationally	-8904
▁responsive	-8905
▁config	-8906
ounced	-8907
▁reconsid	-8908
▁resilience	-8909
▁exporters	-8910
▁reserved	-8911
▁preferred	-8912
▁implies	-8913
▁constituent	-8914
▁defendant	-8915
▁preclud	-8916
▁helps	-8917
▁controlling	-8918
▁creative	-8919
▁evolving	-8920
▁fash	-8921
▁unch	-8922
▁deadlines	-8923
▁proclaim	-8924
▁sexually	-8925
▁interconn	-8926
▁glass	-8927
▁tragic	-8928
▁pressing	-8929
▁modes	-8930
▁impair	-8931
▁wife	-8932
▁scientists	-8933
▁dollar	-8934
▁recipients	-8935
▁gun	-8936
▁experiencing	-8937
▁bab	-8938
▁japanese	-8939
▁returnees	-8940
▁failing	-8941
▁tire	-8942
ectivity	-8943
▁reverse	-8944
▁assault	-8945
▁earnings	-8946
▁threaten	-8947
▁missile	-8948
▁patient	-8949
▁occurring	-8950
▁defer	-8951
▁compounds	-8952
▁somewhat	-8953
▁sponsoring	-8954
▁skilled	-8955
▁turnover	-8956
▁reass	-8957
▁chairpersons	-8958
idal	-8959
▁confident	-8960
lah	-8961
▁usual	-8962
▁talking	-8963
▁residing	-8964
▁importation	-8965
▁170	-8966
▁@@=	-8967
▁challenging	-8968
idad	-8969
▁secretariats	-8970
▁earthqu	-8971
▁segments	-8972
▁las	-8973
▁distinguished	-8974
▁minur	-8975
owas	-8976
▁petrole	-8977
▁concentrate	-8978
▁endeavours	-8979
▁tfe	-8980
▁demonstrates	-8981
▁inappropri	-8982
▁eme	-8983
▁confed	-8984
▁recovered	-8985
arer	-8986
▁tenure	-8987
▁complies	-8988
▁embod	-8989
▁meanwhile	-8990
27	-8991
▁mel	-8992
▁county	-8993
▁entitlements	-8994
▁lacking	-8995
▁petroleum	-8996
▁marriages	-8997
▁systemic	-8998
▁aquac	-8999
▁skin	-9000
▁accredited	-9001
▁apparat	-9002
▁holistic	-9003
▁packing	-9004
▁119	-9005
▁besides	-9006
▁trustees	-9007
▁pand	-9008
▁trip	-9009
hy	-9010
▁debtor	-9011
▁abolished	-9012
▁consignment	-9013
▁exactly	-9014
▁film	-9015
▁tfeu	-9016
▁disregard	-9017
▁wars	-9018
▁ecowas	-9019
▁infected	-9020
▁creates	-9021
▁patent	-9022
▁inadmissible	-9023
ectoral	-9024
▁liquidation	-9025
▁fairly	-9026
▁exceeds	-9027
▁handbook	-9028
▁pertinent	-9029
▁aquaculture	-9030
▁managerial	-9031
▁signatories	-9032
▁ought	-9033
▁emergence	-9034
▁nominal	-9035
▁sciences	-9036
▁hect	-9037
▁custod	-9038
▁estate	-9039
▁undoubtedly	-9040
▁entrepreneurs	-9041
▁familiar	-9042
▁dangers	-9043
▁propor	-9044
▁criticism	-9045
riptions	-9046
apse	-9047
▁string	-9048
▁privatization	-9049
▁metres	-9050
▁cancell	-9051
▁spheres	-9052
▁accomplishments	-9053
▁129	-9054
▁virus	-9055
utation	-9056
▁visas	-9057
▁vietnam	-9058
▁correspondence	-9059
▁apparently	-9060
right	-9061
▁calculating	-9062
▁demonstrations	-9063
▁describes	-9064
▁specially	-9065
books	-9066
▁benchmark	-9067
▁reproduced	-9068
▁josé	-9069
▁auditor	-9070
▁circular	-9071
▁acknowledging	-9072
▁gather	-9073
▁fixing	-9074
▁intent	-9075
▁apparatus	-9076
hem	-9077
rowing	-9078
▁epidem	-9079
ographic	-9080
▁workplan	-9081
▁policymakers	-9082
far	-9083
▁caucas	-9084
▁frozen	-9085
▁looks	-9086
▁passport	-9087
▁arbitr	-9088
▁vegetables	-9089
▁disseminating	-9090
▁moder	-9091
▁beliefs	-9092
▁pu	-9093
▁inflic	-9094
▁consolidating	-9095
▁guardian	-9096
▁jean	-9097
▁harmonize	-9098
▁entitlement	-9099
▁cope	-9100
▁128	-9101
▁brake	-9102
▁exempt	-9103
▁select	-9104
▁apportion	-9105
▁sn	-9106
asure	-9107
▁testimony	-9108
lamation	-9109
▁pricing	-9110
enness	-9111
▁unccd	-9112
▁removing	-9113
▁oau	-9114
▁incomes	-9115
▁lose	-9116
▁boundaries	-9117
titions	-9118
▁completing	-9119
ena	-9120
▁foods	-9121
▁rejection	-9122
▁reac	-9123
▁bhutan	-9124
▁additive	-9125
▁default	-9126
▁benefiting	-9127
▁credentials	-9128
▁biom	-9129
▁briefly	-9130
iers	-9131
▁says	-9132
▁induc	-9133
▁additives	-9134
▁questioned	-9135
oul	-9136
▁reliance	-9137
▁height	-9138
▁ratifying	-9139
▁underscored	-9140
pheric	-9141
▁trace	-9142
▁registrar	-9143
▁relocation	-9144
ray	-9145
▁recurrent	-9146
▁unlikely	-9147
▁deliberate	-9148
▁proportionate	-9149
▁medi	-9150
▁frank	-9151
▁nurs	-9152
▁entries	-9153
▁promulg	-9154
auc	-9155
▁claus	-9156
▁helpful	-9157
▁profitability	-9158
▁cairo	-9159
▁gone	-9160
▁scot	-9161
▁schooling	-9162
▁prerequisite	-9163
▁persecution	-9164
▁shoc	-9165
▁panels	-9166
▁reliability	-9167
unt	-9168
▁congolese	-9169
▁monter	-9170
held	-9171
▁deciding	-9172
▁broadcast	-9173
▁platforms	-9174
▁scenarios	-9175
▁util	-9176
▁disord	-9177
▁successive	-9178
▁releases	-9179
▁turned	-9180
▁consultant	-9181
gregation	-9182
▁vaccination	-9183
▁cycles	-9184
▁harvest	-9185
▁awaiting	-9186
bral	-9187
▁washington	-9188
▁waiting	-9189
▁nongo	-9190
▁johannes	-9191
mi	-9192
▁pv	-9193
▁publishing	-9194
▁serbian	-9195
▁miscon	-9196
▁impetus	-9197
▁childcare	-9198
▁135	-9199
▁cmp	-9200
▁gold	-9201
▁bottom	-9202
▁ot	-9203
cessions	-9204
▁reins	-9205
▁sixtieth	-9206
▁stig	-9207
▁clauses	-9208
iland	-9209
▁arrests	-9210
▁thirteenth	-9211
▁inconsistent	-9212
▁undue	-9213
▁commenced	-9214
▁getting	-9215
▁136	-9216
▁cards	-9217
▁peak	-9218
▁fluct	-9219
kers	-9220
▁errors	-9221
▁ther	-9222
olic	-9223
▁coex	-9224
ini	-9225
▁serb	-9226
▁intervene	-9227
▁monopol	-9228
▁sulphur	-9229
▁simplification	-9230
ado	-9231
▁tyre	-9232
eces	-9233
▁traged	-9234
▁authorisations	-9235
▁bureauc	-9236
▁neglig	-9237
▁harmony	-9238
▁monterrey	-9239
▁aro	-9240
▁cad	-9241
▁153	-9242
▁undcp	-9243
▁dismissed	-9244
▁highlighting	-9245
▁render	-9246
▁combustion	-9247
▁kuwaiti	-9248
▁attained	-9249
▁underpin	-9250
▁fabric	-9251
▁forens	-9252
▁liberalisation	-9253
▁preamb	-9254
▁maturity	-9255
▁unmil	-9256
▁ware	-9257
▁diagnos	-9258
asa	-9259
▁icp	-9260
▁pul	-9261
▁paul	-9262
▁universality	-9263
▁amis	-9264
▁updates	-9265
▁unex	-9266
▁enem	-9267
▁irregularities	-9268
▁distinguish	-9269
▁ties	-9270
khaz	-9271
▁purely	-9272
anium	-9273
▁settings	-9274
17	-9275
▁settle	-9276
▁write	-9277
▁illiteracy	-9278
▁emep	-9279
▁categor	-9280
▁authorize	-9281
▁periodically	-9282
▁ball	-9283
▁abkhaz	-9284
▁134	-9285
▁nongovernmental	-9286
▁rig	-9287
uming	-9288
▁maldi	-9289
▁directions	-9290
▁creditor	-9291
▁preserving	-9292
▁oly	-9293
whel	-9294
▁clothing	-9295
▁personally	-9296
lassi	-9297
▁alongside	-9298
▁postponed	-9299
▁overwhel	-9300
▁nord	-9301
▁symposi	-9302
▁upcoming	-9303
▁counterparts	-9304
▁ninet	-9305
▁courage	-9306
▁wil	-9307
▁dependence	-9308
▁succession	-9309
▁inappropriate	-9310
compan	-9311
▁permissible	-9312
▁1984	-9313
▁precurs	-9314
▁olymp	-9315
▁preambular	-9316
▁weighted	-9317
ker	-9318
▁rolling	-9319
▁summits	-9320
▁touch	-9321
▁handled	-9322
▁tenders	-9323
▁intersessional	-9324
▁openness	-9325
eries	-9326
▁incumbent	-9327
▁investing	-9328
▁printed	-9329
companied	-9330
▁diplomacy	-9331
▁dropped	-9332
▁precaution	-9333
▁unaccompanied	-9334
▁corrective	-9335
▁patro	-9336
▁coordinates	-9337
▁ant	-9338
▁postpone	-9339
ura	-9340
▁varied	-9341
▁forming	-9342
▁romanian	-9343
▁validation	-9344
▁reminded	-9345
eor	-9346
▁magnitude	-9347
▁offender	-9348
▁manifestations	-9349
zy	-9350
▁mol	-9351
▁neglect	-9352
▁visiting	-9353
▁por	-9354
▁js	-9355
▁sponsor	-9356
▁fertility	-9357
▁abandoned	-9358
▁mosc	-9359
▁loading	-9360
37	-9361
▁xii	-9362
▁strive	-9363
és	-9364
▁petitions	-9365
▁prud	-9366
▁dioxide	-9367
▁sar	-9368
atorial	-9369
isi	-9370
▁draws	-9371
▁synthes	-9372
born	-9373
▁dub	-9374
▁papua	-9375
▁attaches	-9376
▁occurrence	-9377
lock	-9378
rov	-9379
▁europol	-9380
▁awards	-9381
▁addendum	-9382
▁prolonged	-9383
▁reparation	-9384
▁corro	-9385
▁suicide	-9386
▁differenti	-9387
▁kit	-9388
▁artis	-9389
▁caucasus	-9390
▁enactment	-9391
▁sant	-9392
lac	-9393
▁briefed	-9394
▁developmental	-9395
inated	-9396
▁eliminated	-9397
▁fate	-9398
▁discour	-9399
▁alleviate	-9400
▁vacancies	-9401
▁steady	-9402
▁impedi	-9403
▁doctr	-9404
▁finnish	-9405
▁trin	-9406
asm	-9407
▁disclosed	-9408
▁budgeted	-9409
▁corner	-9410
▁conditional	-9411
▁220	-9412
▁holid	-9413
▁pressures	-9414
▁carries	-9415
▁icelandic	-9416
▁sat	-9417
0000	-9418
▁commencement	-9419
▁lease	-9420
▁alignment	-9421
▁arts	-9422
▁typically	-9423
▁machine	-9424
▁reclassi	-9425
lows	-9426
▁rub	-9427
▁explanations	-9428
▁od	-9429
▁disagree	-9430
▁convictions	-9431
▁156	-9432
▁>	-9433
▁uncondition	-9434
▁tunnel	-9435
▁shelters	-9436
▁textile	-9437
▁calculations	-9438
▁py	-9439
▁aftern	-9440
▁monaco	-9441
liest	-9442
▁extrad	-9443
▁respondents	-9444
▁purchasing	-9445
▁dumped	-9446
▁derogations	-9447
▁arbitral	-9448
▁standardized	-9449
berg	-9450
ques	-9451
▁kidn	-9452
▁andor	-9453
▁confiscation	-9454
▁concessions	-9455
▁sg	-9456
▁readily	-9457
cell	-9458
▁handic	-9459
26	-9460
▁importing	-9461
▁corre	-9462
▁illness	-9463
▁referral	-9464
▁expects	-9465
▁detected	-9466
▁preferences	-9467
▁nationwide	-9468
▁gn	-9469
uing	-9470
▁collectively	-9471
▁comprised	-9472
28	-9473
▁inability	-9474
▁commentary	-9475
rued	-9476
▁dilig	-9477
▁gabon	-9478
▁survivors	-9479
inqu	-9480
eng	-9481
▁plane	-9482
▁worse	-9483
▁mixtures	-9484
▁cumulative	-9485
▁globalisation	-9486
▁endorsement	-9487
▁halt	-9488
▁declining	-9489
▁biof	-9490
▁inso	-9491
▁studied	-9492
▁muslims	-9493
▁deferred	-9494
▁brut	-9495
▁hind	-9496
▁cooperatives	-9497
▁subsidiarity	-9498
▁insofar	-9499
▁complicated	-9500
▁credits	-9501
▁economics	-9502
iration	-9503
45	-9504
▁generic	-9505
▁reunification	-9506
▁indisc	-9507
▁scour	-9508
▁compiled	-9509
▁professor	-9510
tia	-9511
▁sand	-9512
▁immunities	-9513
▁jewish	-9514
▁unoci	-9515
▁threatening	-9516
▁1975	-9517
▁moscow	-9518
rome	-9519
▁deportation	-9520
▁olive	-9521
▁foremost	-9522
▁ni	-9523
▁correctly	-9524
tifying	-9525
amas	-9526
▁hur	-9527
▁afternoon	-9528
▁succeeded	-9529
▁predecess	-9530
▁xi	-9531
▁narcotics	-9532
▁printing	-9533
▁undaf	-9534
▁commends	-9535
▁carn	-9536
▁gibral	-9537
▁decentralized	-9538
▁demonstrating	-9539
look	-9540
▁discrep	-9541
▁recitals	-9542
▁fashion	-9543
▁itc	-9544
▁earliest	-9545
▁egyp	-9546
▁designing	-9547
▁maldives	-9548
▁remember	-9549
▁anch	-9550
▁terminated	-9551
▁genetically	-9552
▁activists	-9553
▁permanently	-9554
▁applicability	-9555
▁cath	-9556
▁remitt	-9557
▁substitute	-9558
▁technically	-9559
▁fifteenth	-9560
▁hinder	-9561
▁sensitivity	-9562
ardship	-9563
ogues	-9564
▁identifies	-9565
▁infections	-9566
▁variable	-9567
ión	-9568
▁executing	-9569
▁conscious	-9570
▁149	-9571
abo	-9572
▁boundary	-9573
▁modernization	-9574
▁alert	-9575
▁undermined	-9576
▁delegate	-9577
▁trinidad	-9578
odium	-9579
▁meantime	-9580
▁shipment	-9581
dad	-9582
▁forensic	-9583
▁politicians	-9584
▁cancellation	-9585
▁trop	-9586
▁leak	-9587
▁flat	-9588
▁sampled	-9589
▁supposed	-9590
▁contaminated	-9591
▁mankind	-9592
▁samoa	-9593
gone	-9594
▁breeding	-9595
▁pretrial	-9596
▁indiscrimin	-9597
▁happy	-9598
ario	-9599
▁centred	-9600
erto	-9601
▁announcement	-9602
▁ifrs	-9603
ora	-9604
▁cot	-9605
ski	-9606
rie	-9607
▁shap	-9608
▁fm	-9609
ovis	-9610
▁compact	-9611
▁positively	-9612
▁fallen	-9613
vo	-9614
▁argues	-9615
▁affirmed	-9616
▁websites	-9617
▁confederation	-9618
▁maximize	-9619
▁wants	-9620
▁golan	-9621
▁faces	-9622
▁regrettable	-9623
▁ethnicity	-9624
agn	-9625
fs	-9626
▁verde	-9627
▁competences	-9628
▁1981	-9629
▁militia	-9630
▁conce	-9631
grade	-9632
▁audiovis	-9633
▁commemor	-9634
▁exempted	-9635
▁nineteenth	-9636
xts	-9637
uthor	-9638
wed	-9639
ym	-9640
adi	-9641
gil	-9642
▁abduction	-9643
▁barrier	-9644
▁inherit	-9645
▁supplementing	-9646
▁footnote	-9647
▁calib	-9648
47	-9649
▁pesticides	-9650
▁bret	-9651
▁treas	-9652
rest	-9653
▁adapting	-9654
▁stringent	-9655
ading	-9656
era	-9657
represent	-9658
▁burd	-9659
▁nutritional	-9660
▁kidnapp	-9661
▁subordin	-9662
▁imag	-9663
▁clash	-9664
▁consular	-9665
▁audiovisual	-9666
▁kab	-9667
▁1979	-9668
etric	-9669
▁mart	-9670
▁jun	-9671
▁massac	-9672
eared	-9673
▁confined	-9674
▁invested	-9675
▁assistants	-9676
▁compensate	-9677
▁instituted	-9678
▁1373	-9679
▁checked	-9680
▁rotation	-9681
▁commonly	-9682
▁tobago	-9683
▁modest	-9684
▁christ	-9685
▁188	-9686
ole	-9687
uters	-9688
▁radical	-9689
▁seller	-9690
▁complemented	-9691
31	-9692
▁travelling	-9693
▁foresee	-9694
▁georgian	-9695
▁woods	-9696
▁destabil	-9697
▁ram	-9698
▁ruled	-9699
▁condemns	-9700
▁holy	-9701
▁explanatory	-9702
▁landing	-9703
▁uranium	-9704
▁157	-9705
ibly	-9706
▁finalize	-9707
▁gibraltar	-9708
▁interregional	-9709
▁meteor	-9710
▁plastic	-9711
▁accomplished	-9712
iable	-9713
▁rwandan	-9714
▁dwell	-9715
▁prescrib	-9716
▁320	-9717
▁interface	-9718
▁expedite	-9719
▁prominent	-9720
yn	-9721
acc	-9722
▁bioc	-9723
▁moroccan	-9724
▁emer	-9725
▁superior	-9726
asb	-9727
cf	-9728
▁2021	-9729
▁nomen	-9730
▁forget	-9731
▁suspicion	-9732
▁bag	-9733
▁cool	-9734
▁purchased	-9735
ob	-9736
▁bagh	-9737
▁margins	-9738
▁sessional	-9739
▁demin	-9740
▁bonds	-9741
▁phased	-9742
▁revitalization	-9743
▁generous	-9744
▁unauthor	-9745
▁mys	-9746
arial	-9747
▁arrears	-9748
▁signals	-9749
98	-9750
▁wors	-9751
▁nomencl	-9752
▁chairmanship	-9753
▁ltd	-9754
▁plain	-9755
▁females	-9756
▁apar	-9757
▁coinc	-9758
▁consec	-9759
▁enquiry	-9760
▁favoured	-9761
▁disappeared	-9762
▁spaces	-9763
▁claimants	-9764
illa	-9765
▁curb	-9766
▁precautionary	-9767
▁johannesburg	-9768
▁degrees	-9769
duct	-9770
▁toxicity	-9771
▁wet	-9772
▁addis	-9773
▁unrest	-9774
▁hed	-9775
▁brac	-9776
▁explored	-9777
▁judgements	-9778
▁poses	-9779
▁kin	-9780
▁coupled	-9781
tite	-9782
▁requisite	-9783
▁countering	-9784
▁kim	-9785
rance	-9786
rous	-9787
▁misconduct	-9788
▁approving	-9789
▁dossi	-9790
▁overwhelming	-9791
▁alarming	-9792
▁shortfall	-9793
▁chairmen	-9794
▁statutes	-9795
▁proportionality	-9796
▁alternate	-9797
▁derivatives	-9798
elihood	-9799
onal	-9800
▁fourteenth	-9801
▁libr	-9802
▁lifting	-9803
▁regretted	-9804
▁serbs	-9805
▁posted	-9806
▁eib	-9807
▁verif	-9808
▁encouragement	-9809
▁ababa	-9810
▁artific	-9811
▁extract	-9812
oe	-9813
▁adhere	-9814
▁resign	-9815
▁istan	-9816
▁arsen	-9817
▁istanbul	-9818
▁forecast	-9819
▁john	-9820
▁tib	-9821
▁prisoner	-9822
▁burdens	-9823
▁eggs	-9824
▁entails	-9825
▁rough	-9826
▁perfect	-9827
▁cef	-9828
▁varieties	-9829
▁escwa	-9830
▁calculate	-9831
▁confirms	-9832
▁likelihood	-9833
▁colleague	-9834
▁egyptian	-9835
otho	-9836
osph	-9837
theid	-9838
▁fled	-9839
▁joining	-9840
▁split	-9841
▁incomplete	-9842
▁native	-9843
uma	-9844
▁arrive	-9845
▁lev	-9846
▁foss	-9847
▁programmatic	-9848
▁democratization	-9849
▁rooms	-9850
▁apartheid	-9851
▁mercen	-9852
▁brazilian	-9853
▁missiles	-9854
▁voluntarily	-9855
▁414	-9856
▁edition	-9857
gar	-9858
raw	-9859
institutional	-9860
▁insist	-9861
▁exporter	-9862
▁replacing	-9863
▁residues	-9864
▁solving	-9865
▁specifying	-9866
▁correctional	-9867
bted	-9868
itably	-9869
▁abdul	-9870
▁wai	-9871
▁exhausted	-9872
▁violating	-9873
▁sin	-9874
▁1974	-9875
▁wing	-9876
ax	-9877
assy	-9878
rupted	-9879
▁passage	-9880
▁clinics	-9881
▁208	-9882
▁timel	-9883
▁homeless	-9884
▁myself	-9885
▁unfccc	-9886
▁1978	-9887
▁yearly	-9888
▁afforded	-9889
▁diame	-9890
▁filling	-9891
▁abstain	-9892
▁accepting	-9893
▁ey	-9894
kok	-9895
forest	-9896
▁predict	-9897
▁stamp	-9898
▁bretton	-9899
▁hydrogen	-9900
ais	-9901
▁indebted	-9902
entiary	-9903
lla	-9904
▁prote	-9905
▁balkans	-9906
▁upgrade	-9907
▁sort	-9908
▁lob	-9909
▁birds	-9910
rah	-9911
uit	-9912
▁cod	-9913
▁symposium	-9914
▁nomenclature	-9915
▁streamlining	-9916
▁suppress	-9917
▁overcoming	-9918
son	-9919
▁merit	-9920
▁settlers	-9921
▁comor	-9922
▁shareholders	-9923
ticultural	-9924
▁legislature	-9925
▁debts	-9926
▁oman	-9927
▁repression	-9928
▁embassy	-9929
▁immigrant	-9930
▁biotechn	-9931
▁disclose	-9932
ratory	-9933
▁industrialized	-9934
▁lesotho	-9935
stone	-9936
▁provisionally	-9937
▁bonn	-9938
reb	-9939
▁nag	-9940
▁sixteenth	-9941
▁mes	-9942
urg	-9943
▁hyb	-9944
▁checking	-9945
▁versions	-9946
▁overl	-9947
partite	-9948
▁milest	-9949
▁extraction	-9950
▁210	-9951
▁advocated	-9952
mann	-9953
▁handle	-9954
▁casualties	-9955
▁perpetrator	-9956
▁deny	-9957
▁sens	-9958
▁complementarity	-9959
▁consecutive	-9960
▁basin	-9961
▁111	-9962
▁undergo	-9963
▁civilizations	-9964
ella	-9965
▁tendency	-9966
▁omission	-9967
▁volatile	-9968
▁perception	-9969
iph	-9970
astrop	-9971
▁surrend	-9972
apers	-9973
overed	-9974
atement	-9975
▁expensive	-9976
▁financially	-9977
▁detrimental	-9978
▁tuna	-9979
▁practic	-9980
▁patri	-9981
▁advocates	-9982
▁communiqu	-9983
▁pandemic	-9984
▁dramatic	-9985
▁refunds	-9986
▁usage	-9987
▁350	-9988
▁lighting	-9989
▁ignored	-9990
▁exploited	-9991
▁tv	-9992
ão	-9993
▁ends	-9994
▁restored	-9995
▁escape	-9996
▁socioeconomic	-9997
▁remand	-9998
▁confinement	-9999
racted	-10000
ropic	-10001
▁trainers	-10002
▁seab	-10003
ressions	-10004
▁159	-10005
▁sheets	-10006
▁attacked	-10007
akar	-10008
▁sun	-10009
▁eman	-10010
▁unchanged	-10011
▁earthquake	-10012
▁pays	-10013
▁procurator	-10014
▁authorise	-10015
▁seeds	-10016
▁europeans	-10017
▁innovations	-10018
tised	-10019
▁brom	-10020
▁progressively	-10021
rying	-10022
▁curren	-10023
▁contracep	-10024
▁bangkok	-10025
▁migratory	-10026
▁layer	-10027
▁148	-10028
iological	-10029
bery	-10030
▁theore	-10031
▁abolish	-10032
▁baghdad	-10033
74	-10034
board	-10035
▁1949	-10036
▁infringements	-10037
je	-10038
inter	-10039
▁newsp	-10040
▁desk	-10041
▁mexican	-10042
▁consignments	-10043
▁cooperated	-10044
▁indonesian	-10045
▁gravity	-10046
▁endorses	-10047
▁demanding	-10048
▁importantly	-10049
▁connections	-10050
▁liberian	-10051
chell	-10052
▁newspapers	-10053
▁spoken	-10054
▁criminals	-10055
itely	-10056
▁banned	-10057
▁segregation	-10058
▁enemy	-10059
ione	-10060
▁utilize	-10061
tage	-10062
utor	-10063
▁authorising	-10064
▁finances	-10065
▁imbalances	-10066
ructure	-10067
eta	-10068
▁die	-10069
▁unitar	-10070
▁personality	-10071
▁commented	-10072
odal	-10073
▁reluct	-10074
▁collaborate	-10075
▁swe	-10076
▁geared	-10077
eding	-10078
▁inquiries	-10079
▁aven	-10080
▁raises	-10081
▁challenged	-10082
una	-10083
▁particulars	-10084
▁seventeenth	-10085
▁gambia	-10086
▁excellence	-10087
rogation	-10088
▁decreasing	-10089
▁corresponds	-10090
▁cleaning	-10091
▁euros	-10092
ratic	-10093
▁rain	-10094
▁crp	-10095
▁olympic	-10096
ivoc	-10097
▁sensing	-10098
str	-10099
▁totalling	-10100
▁incap	-10101
cellaneous	-10102
▁confession	-10103
▁pops	-10104
▁deplo	-10105
▁grid	-10106
zo	-10107
▁libraries	-10108
▁admit	-10109
▁@@$@@	-10110
▁truc	-10111
▁bahamas	-10112
▁variables	-10113
cont	-10114
▁andorra	-10115
▁colombian	-10116
▁constituting	-10117
▁asks	-10118
▁orphans	-10119
▁miscellaneous	-10120
▁154	-10121
▁rent	-10122
▁divide	-10123
▁1983	-10124
▁infec	-10125
▁phy	-10126
▁eb	-10127
▁wrongful	-10128
▁liberties	-10129
▁diameter	-10130
▁matri	-10131
▁minimal	-10132
▁vers	-10133
▁121	-10134
▁beam	-10135
▁density	-10136
paper	-10137
▁contexts	-10138
▁dominant	-10139
▁simplify	-10140
▁armenian	-10141
▁therap	-10142
▁affirmative	-10143
ounce	-10144
▁chains	-10145
▁voters	-10146
▁exploring	-10147
▁pm	-10148
▁ai	-10149
▁template	-10150
▁1960	-10151
lity	-10152
39	-10153
▁mercenaries	-10154
▁editor	-10155
siveness	-10156
▁aquatic	-10157
▁preserved	-10158
▁differentiated	-10159
▁wounded	-10160
▁@@`	-10161
▁scar	-10162
▁unjus	-10163
cies	-10164
▁ru	-10165
▁sake	-10166
▁biomass	-10167
ark	-10168
▁pp	-10169
▁devastating	-10170
▁venture	-10171
▁overcrow	-10172
▁belgrade	-10173
epers	-10174
▁coexistence	-10175
▁emo	-10176
▁fossil	-10177
▁infectious	-10178
▁tiss	-10179
enza	-10180
inity	-10181
▁139	-10182
▁immunization	-10183
▁demining	-10184
ocation	-10185
▁confusion	-10186
▁vacant	-10187
▁machines	-10188
▁unprofor	-10189
▁games	-10190
▁roster	-10191
▁buff	-10192
▁caution	-10193
▁scourge	-10194
▁interpol	-10195
▁specifies	-10196
▁1977	-10197
under	-10198
▁tribal	-10199
▁marsh	-10200
▁imply	-10201
▁ak	-10202
▁attempting	-10203
▁cotton	-10204
▁importer	-10205
▁signatory	-10206
▁remainder	-10207
▁proceeded	-10208
▁initiating	-10209
▁hub	-10210
▁+@@	-10211
▁compliant	-10212
▁expectancy	-10213
bic	-10214
▁memory	-10215
reatment	-10216
▁fccc	-10217
▁varying	-10218
▁planet	-10219
aida	-10220
▁mah	-10221
▁berlin	-10222
▁tragedy	-10223
▁leaves	-10224
▁diversion	-10225
▁unom	-10226
▁translate	-10227
▁configuration	-10228
▁archives	-10229
▁diagnostic	-10230
▁valued	-10231
rality	-10232
▁arabic	-10233
▁unclear	-10234
▁fellowship	-10235
▁studying	-10236
naires	-10237
▁restoring	-10238
▁aris	-10239
▁enrolled	-10240
▁malt	-10241
▁factual	-10242
▁icrc	-10243
▁maps	-10244
▁controller	-10245
annual	-10246
▁waterways	-10247
▁impression	-10248
etit	-10249
▁newspaper	-10250
▁assuming	-10251
▁cefact	-10252
▁competit	-10253
▁literature	-10254
▁visitors	-10255
▁thoroughly	-10256
▁phenomena	-10257
atom	-10258
▁profiles	-10259
▁seriousness	-10260
▁fort	-10261
58	-10262
▁taught	-10263
▁acquiring	-10264
▁tent	-10265
▁consor	-10266
▁belize	-10267
▁replic	-10268
▁undermining	-10269
▁promise	-10270
▁tortured	-10271
▁persistence	-10272
tiary	-10273
▁pleasure	-10274
▁parad	-10275
▁optimal	-10276
ika	-10277
▁persu	-10278
▁usefulness	-10279
▁questionnaires	-10280
▁marginalization	-10281
▁clearer	-10282
▁steadily	-10283
elve	-10284
▁accessing	-10285
▁determines	-10286
▁tier	-10287
▁devote	-10288
uba	-10289
▁destroy	-10290
pay	-10291
arbons	-10292
▁conserv	-10293
▁impede	-10294
▁detainee	-10295
▁é	-10296
▁wholes	-10297
▁minute	-10298
▁vit	-10299
▁converted	-10300
▁multiannual	-10301
▁promulgated	-10302
▁agro	-10303
▁accus	-10304
▁inception	-10305
▁interdependence	-10306
▁blind	-10307
▁amisom	-10308
▁twelve	-10309
▁ace	-10310
▁forc	-10311
▁debris	-10312
▁indiscriminate	-10313
▁runs	-10314
▁arises	-10315
▁eighteenth	-10316
▁1976	-10317
▁paramount	-10318
jo	-10319
▁axis	-10320
▁ces	-10321
▁122	-10322
orted	-10323
▁unequivoc	-10324
▁idf	-10325
ights	-10326
▁instrumental	-10327
amble	-10328
36	-10329
▁physically	-10330
▁hyp	-10331
▁organis	-10332
▁fines	-10333
▁undergone	-10334
▁influenced	-10335
▁indefin	-10336
▁communiqué	-10337
▁alm	-10338
mented	-10339
▁demanded	-10340
▁portal	-10341
▁wait	-10342
▁panell	-10343
▁mir	-10344
▁observes	-10345
▁communicable	-10346
asbourg	-10347
▁para	-10348
▁biggest	-10349
▁logical	-10350
▁strasbourg	-10351
▁safer	-10352
▁computers	-10353
▁tyres	-10354
▁sensiti	-10355
▁bulgarian	-10356
olly	-10357
▁potato	-10358
▁outlook	-10359
▁supervised	-10360
▁illustrated	-10361
▁mechanical	-10362
raining	-10363
▁psychiatric	-10364
▁bay	-10365
sim	-10366
38	-10367
▁stric	-10368
ila	-10369
▁147	-10370
mir	-10371
▁intervals	-10372
ball	-10373
▁stopped	-10374
▁tripartite	-10375
▁arc	-10376
▁consisted	-10377
▁peter	-10378
▁unres	-10379
▁depositary	-10380
▁contested	-10381
▁disadvantage	-10382
▁dé	-10383
▁distortions	-10384
▁multicultural	-10385
ela	-10386
▁veto	-10387
▁universally	-10388
▁underline	-10389
▁thresholds	-10390
ci	-10391
och	-10392
▁une	-10393
▁helicopter	-10394
▁agendas	-10395
▁enlar	-10396
▁petrol	-10397
▁commens	-10398
▁185	-10399
▁catastrop	-10400
▁exploit	-10401
▁auditing	-10402
▁attractive	-10403
▁admissible	-10404
▁filing	-10405
rained	-10406
▁caric	-10407
▁shelf	-10408
▁arranged	-10409
▁ppp	-10410
▁accumulated	-10411
▁instalment	-10412
▁floods	-10413
▁banning	-10414
▁ingredients	-10415
▁competing	-10416
▁sympath	-10417
▁lag	-10418
▁argentine	-10419
▁ster	-10420
fare	-10421
just	-10422
▁necessit	-10423
▁cereals	-10424
▁swaz	-10425
▁prete	-10426
▁helicopters	-10427
▁recognises	-10428
▁146	-10429
▁fitting	-10430
etal	-10431
▁ctbt	-10432
▁misuse	-10433
ange	-10434
▁adequacy	-10435
▁variations	-10436
▁ric	-10437
▁spend	-10438
▁opposite	-10439
hu	-10440
▁negatively	-10441
▁puerto	-10442
▁ideal	-10443
▁recept	-10444
▁successor	-10445
▁abovementioned	-10446
▁sey	-10447
▁abide	-10448
▁sme	-10449
▁approves	-10450
▁1540	-10451
▁teen	-10452
making	-10453
▁receptac	-10454
▁antig	-10455
▁ceased	-10456
▁guards	-10457
▁slight	-10458
▁claiming	-10459
▁ineff	-10460
▁philos	-10461
▁hotel	-10462
▁streamline	-10463
ourcing	-10464
▁audited	-10465
▁jiu	-10466
▁wholly	-10467
▁ease	-10468
▁che	-10469
▁’	-10470
▁ias	-10471
▁rab	-10472
▁substantiated	-10473
▁merger	-10474
▁terminology	-10475
▁sho	-10476
uels	-10477
▁embry	-10478
▁demol	-10479
▁venue	-10480
▁outlines	-10481
▁uc	-10482
rect	-10483
asive	-10484
mn	-10485
oning	-10486
▁freeze	-10487
▁railways	-10488
yah	-10489
ensed	-10490
rific	-10491
▁facilitates	-10492
▁philosoph	-10493
▁tailored	-10494
tering	-10495
▁cyber	-10496
▁costly	-10497
▁counterfe	-10498
omon	-10499
▁risen	-10500
▁mdg	-10501
▁synergy	-10502
eds	-10503
entious	-10504
▁elementary	-10505
▁compete	-10506
▁coercive	-10507
▁estonian	-10508
▁209	-10509
▁competencies	-10510
▁tibet	-10511
▁extremism	-10512
roup	-10513
▁soph	-10514
▁appointing	-10515
▁terminal	-10516
▁investigators	-10517
▁imprisoned	-10518
soever	-10519
▁preamble	-10520
▁revi	-10521
▁disin	-10522
▁embodied	-10523
▁nomination	-10524
▁corr	-10525
▁kash	-10526
tening	-10527
▁transferring	-10528
▁seabed	-10529
▁demarc	-10530
▁freezing	-10531
▁sew	-10532
▁dose	-10533
▁denomin	-10534
▁hid	-10535
▁reforming	-10536
▁unita	-10537
▁frontier	-10538
ners	-10539
▁commensurate	-10540
▁currencies	-10541
▁footing	-10542
▁frac	-10543
arious	-10544
▁print	-10545
▁anth	-10546
▁bulle	-10547
▁trem	-10548
points	-10549
▁acceding	-10550
▁promising	-10551
▁influenza	-10552
▁describing	-10553
▁cleans	-10554
thal	-10555
▁toward	-10556
sterdam	-10557
▁amsterdam	-10558
▁bulletin	-10559
▁remedial	-10560
▁sanction	-10561
▁escalation	-10562
▁accelerating	-10563
▁rationale	-10564
▁beef	-10565
▁eventual	-10566
▁207	-10567
▁furniture	-10568
▁drama	-10569
▁satellites	-10570
▁eye	-10571
ustah	-10572
▁patrols	-10573
▁marital	-10574
▁158	-10575
▁237	-10576
▁unav	-10577
▁minustah	-10578
▁redund	-10579
▁intentions	-10580
▁arose	-10581
▁dried	-10582
▁facilitator	-10583
▁upheld	-10584
▁trafficked	-10585
▁predecessor	-10586
▁contributors	-10587
hus	-10588
▁microfin	-10589
▁unaid	-10590
▁commissioned	-10591
▁nr	-10592
▁catches	-10593
▁atroc	-10594
▁contracted	-10595
▁recreational	-10596
▁interrogation	-10597
▁toll	-10598
▁americas	-10599
▁dynamics	-10600
▁240	-10601
ranted	-10602
▁thick	-10603
▁senate	-10604
icians	-10605
▁186	-10606
▁ceb	-10607
▁borrow	-10608
▁gb	-10609
otal	-10610
▁spiritual	-10611
▁founding	-10612
ishu	-10613
46	-10614
▁sodium	-10615
▁depu	-10616
▁promised	-10617
anging	-10618
▁patrol	-10619
▁exchanged	-10620
▁gon	-10621
▁allegation	-10622
▁exhaustive	-10623
eper	-10624
▁alumin	-10625
▁hybrid	-10626
▁cos	-10627
▁fibre	-10628
ercus	-10629
▁ethiopian	-10630
▁brand	-10631
▁ero	-10632
▁rigorous	-10633
▁eradicating	-10634
otropic	-10635
▁oils	-10636
▁diagnosis	-10637
▁restitution	-10638
▁publicity	-10639
las	-10640
terdam	-10641
▁guardianship	-10642
▁reveal	-10643
▁virgin	-10644
▁rotterdam	-10645
▁biotechnology	-10646
▁diligence	-10647
adow	-10648
▁diesel	-10649
▁mitigating	-10650
▁multilateralism	-10651
asi	-10652
▁magistrates	-10653
oby	-10654
▁tropical	-10655
▁eclac	-10656
▁bic	-10657
▁phosph	-10658
▁lengthy	-10659
▁groundwater	-10660
▁urbanization	-10661
▁hydroc	-10662
▁sed	-10663
▁caught	-10664
▁mogad	-10665
▁qaida	-10666
▁actu	-10667
▁pipeline	-10668
▁bak	-10669
aya	-10670
rats	-10671
▁ath	-10672
▁@@°@@	-10673
▁chern	-10674
▁atmospheric	-10675
math	-10676
▁mogadishu	-10677
▁bit	-10678
▁textbooks	-10679
▁cst	-10680
▁muse	-10681
▁assass	-10682
▁barcel	-10683
▁emphasise	-10684
▁renovation	-10685
rez	-10686
▁faster	-10687
ocial	-10688
▁barcelona	-10689
▁175	-10690
▁landsc	-10691
▁pieces	-10692
▁warn	-10693
▁aftermath	-10694
▁cdm	-10695
▁pn	-10696
▁specialised	-10697
▁1973	-10698
▁remittances	-10699
▁mc	-10700
▁lift	-10701
▁named	-10702
▁width	-10703
▁caricom	-10704
▁confer	-10705
▁hostile	-10706
▁psychotropic	-10707
atisf	-10708
▁blockade	-10709
▁tsun	-10710
▁meteorological	-10711
▁ballot	-10712
▁notable	-10713
▁hampered	-10714
▁realizing	-10715
▁plate	-10716
lb	-10717
▁ranking	-10718
▁euratom	-10719
▁reop	-10720
▁168	-10721
▁males	-10722
▁swaziland	-10723
▁proclaimed	-10724
▁restricting	-10725
▁exacerbated	-10726
▁absent	-10727
▁subsystem	-10728
▁restructure	-10729
▁cater	-10730
▁tourist	-10731
▁deforest	-10732
▁policing	-10733
tium	-10734
uri	-10735
▁dismissal	-10736
▁misle	-10737
ometric	-10738
▁cit	-10739
▁hier	-10740
▁scarce	-10741
33	-10742
▁vigil	-10743
▁confrontation	-10744
▁tentative	-10745
▁sums	-10746
urable	-10747
▁forecasts	-10748
▁store	-10749
▁mohamed	-10750
▁unaids	-10751
▁custodial	-10752
▁bosnian	-10753
▁biofuels	-10754
▁images	-10755
▁emphasises	-10756
▁ryan	-10757
▁batteries	-10758
▁cleaner	-10759
▁expelled	-10760
▁fairness	-10761
uv	-10762
osp	-10763
▁235	-10764
▁extends	-10765
▁leis	-10766
▁finished	-10767
▁frust	-10768
▁comoros	-10769
▁equatorial	-10770
▁unequal	-10771
yo	-10772
▁icao	-10773
▁leverage	-10774
▁rebel	-10775
iname	-10776
▁catholic	-10777
▁anton	-10778
▁proud	-10779
▁offensive	-10780
▁coefficient	-10781
▁suriname	-10782
worthy	-10783
fier	-10784
▁gaining	-10785
▁effected	-10786
▁successes	-10787
chlor	-10788
▁1971	-10789
▁volatility	-10790
▁repercus	-10791
▁packag	-10792
oli	-10793
vert	-10794
▁deputies	-10795
▁genuinely	-10796
▁cannab	-10797
▁failures	-10798
jev	-10799
▁nets	-10800
eri	-10801
▁230	-10802
▁approximation	-10803
▁presumption	-10804
▁purchases	-10805
▁inheritance	-10806
▁principally	-10807
▁deforestation	-10808
▁kw	-10809
▁leisure	-10810
▁166	-10811
▁dialogues	-10812
▁alike	-10813
▁policymaking	-10814
▁propaganda	-10815
▁abused	-10816
▁irrever	-10817
▁synthesis	-10818
▁fruitful	-10819
beit	-10820
▁offsh	-10821
▁remarkable	-10822
onium	-10823
▁typical	-10824
▁<@@	-10825
▁straight	-10826
▁accords	-10827
▁deposited	-10828
▁packagings	-10829
▁bih	-10830
▁utility	-10831
▁whatsoever	-10832
▁1000	-10833
iced	-10834
lamm	-10835
▁aar	-10836
▁167	-10837
▁trips	-10838
▁educate	-10839
▁seizure	-10840
▁repercussions	-10841
mas	-10842
▁distribute	-10843
▁broaden	-10844
▁combine	-10845
▁bureaux	-10846
▁defense	-10847
▁tremend	-10848
▁finalization	-10849
▁penit	-10850
▁attaining	-10851
▁pf	-10852
▁multis	-10853
eas	-10854
▁reinsurance	-10855
▁shocks	-10856
▁theat	-10857
▁transp	-10858
▁azerbaijani	-10859
▁microfinance	-10860
▁theoretical	-10861
onym	-10862
iled	-10863
▁seizures	-10864
▁voltage	-10865
▁photograph	-10866
▁audio	-10867
▁dece	-10868
▁coc	-10869
ito	-10870
▁martin	-10871
oking	-10872
▁orphan	-10873
▁pigs	-10874
elau	-10875
▁fib	-10876
▁alph	-10877
▁precarious	-10878
▁deserve	-10879
ched	-10880
▁inviting	-10881
sg	-10882
▁wire	-10883
▁seychell	-10884
▁foregoing	-10885
▁fishermen	-10886
arest	-10887
▁seychelles	-10888
▁oic	-10889
▁sab	-10890
acent	-10891
▁autumn	-10892
▁165	-10893
▁tokelau	-10894
▁nordic	-10895
▁cleansing	-10896
▁extremist	-10897
term	-10898
▁assemblies	-10899
ighters	-10900
▁aluminium	-10901
▁1972	-10902
▁cerd	-10903
▁react	-10904
▁clusters	-10905
pi	-10906
▁linkage	-10907
▁journey	-10908
▁enforcing	-10909
▁quarters	-10910
▁cancelled	-10911
▁prize	-10912
▁predominantly	-10913
gage	-10914
▁rand	-10915
grams	-10916
▁brother	-10917
▁cannabis	-10918
▁craft	-10919
▁imbalance	-10920
▁vinc	-10921
▁waiver	-10922
arching	-10923
▁1951	-10924
▁forbid	-10925
▁peacekeepers	-10926
luor	-10927
▁contemp	-10928
▁basically	-10929
dem	-10930
▁144	-10931
acity	-10932
▁overarching	-10933
▁levi	-10934
ct	-10935
▁penins	-10936
▁bills	-10937
ull	-10938
▁churches	-10939
▁appearance	-10940
▁manip	-10941
▁tet	-10942
▁injus	-10943
▁opt	-10944
▁graph	-10945
▁hectares	-10946
▁humankind	-10947
▁169	-10948
▁brig	-10949
▁hate	-10950
▁backed	-10951
▁speedy	-10952
▁stemming	-10953
▁procuring	-10954
▁nominations	-10955
▁lacked	-10956
▁esa	-10957
▁pledge	-10958
▁thermal	-10959
▁hardship	-10960
▁@@′	-10961
▁prohibitions	-10962
▁erosion	-10963
▁kp	-10964
▁ola	-10965
▁pel	-10966
▁skill	-10967
▁141	-10968
▁departmental	-10969
▁experimental	-10970
ason	-10971
▁traffickers	-10972
▁prag	-10973
▁parity	-10974
▁stimul	-10975
▁someone	-10976
▁evacuation	-10977
▁evic	-10978
▁codification	-10979
aug	-10980
▁shot	-10981
▁accumulation	-10982
▁010	-10983
▁boliv	-10984
▁tsi	-10985
▁insured	-10986
▁breastfe	-10987
▁doctrine	-10988
▁governors	-10989
▁permitting	-10990
▁shipments	-10991
▁levy	-10992
▁fluctuations	-10993
▁abid	-10994
▁issuer	-10995
▁deteriorating	-10996
rine	-10997
▁nd	-10998
▁undergoing	-10999
▁stabilisation	-11000
lamp	-11001
▁206	-11002
▁swine	-11003
▁stockpiling	-11004
▁hero	-11005
▁coercion	-11006
▁sis	-11007
▁rated	-11008
▁enum	-11009
▁176	-11010
▁nos	-11011
▁biocidal	-11012
tail	-11013
▁rigid	-11014
▁contingents	-11015
▁penet	-11016
▁childb	-11017
▁adjacent	-11018
▁accurately	-11019
▁presently	-11020
▁strain	-11021
▁treasury	-11022
▁owed	-11023
ingual	-11024
▁residue	-11025
▁solomon	-11026
▁characteristic	-11027
▁albeit	-11028
▁groupings	-11029
▁nh	-11030
▁artistic	-11031
▁expire	-11032
▁cass	-11033
▁hierarch	-11034
▁automated	-11035
▁encoun	-11036
44	-11037
▁peninsula	-11038
70	-11039
▁±	-11040
restrial	-11041
ectures	-11042
▁detriment	-11043
▁marino	-11044
▁documentary	-11045
▁expressions	-11046
▁xvi	-11047
▁diamonds	-11048
▁deserves	-11049
▁aux	-11050
turn	-11051
▁excise	-11052
▁nationalities	-11053
▁hardly	-11054
▁participates	-11055
▁compile	-11056
tm	-11057
▁clashes	-11058
▁dependency	-11059
▁ou	-11060
▁happening	-11061
rf	-11062
▁controversi	-11063
▁143	-11064
▁pretext	-11065
▁chann	-11066
▁maria	-11067
gain	-11068
▁observing	-11069
▁protects	-11070
▁broch	-11071
▁pollutant	-11072
▁mit	-11073
▁unsustain	-11074
▁rarely	-11075
▁headings	-11076
▁virtual	-11077
▁alex	-11078
▁gang	-11079
▁wake	-11080
▁clarifying	-11081
▁approvals	-11082
▁spreading	-11083
▁clubs	-11084
▁evening	-11085
▁heighten	-11086
ector	-11087
▁bolivarian	-11088
ronically	-11089
zz	-11090
ube	-11091
▁legacy	-11092
▁unenc	-11093
▁differential	-11094
▁cry	-11095
▁indices	-11096
▁artificial	-11097
▁lifesty	-11098
▁overd	-11099
▁allocating	-11100
▁nox	-11101
▁organise	-11102
▁eritrean	-11103
▁comparability	-11104
cha	-11105
▁corps	-11106
▁terrestrial	-11107
▁tsunami	-11108
▁218	-11109
▁expired	-11110
▁essence	-11111
▁unanimous	-11112
▁affiliated	-11113
▁subsidiaries	-11114
▁aggravated	-11115
▁centers	-11116
▁burn	-11117
gorously	-11118
▁precedent	-11119
▁repos	-11120
▁shorter	-11121
▁bios	-11122
▁widow	-11123
▁angle	-11124
▁maize	-11125
▁wholesale	-11126
▁sadc	-11127
lex	-11128
lad	-11129
▁fires	-11130
▁auction	-11131
▁plas	-11132
▁sanitary	-11133
wc	-11134
▁ivor	-11135
▁differing	-11136
▁deprec	-11137
▁defending	-11138
▁instructs	-11139
▁competitors	-11140
▁trains	-11141
▁defendants	-11142
▁unencumbered	-11143
▁unconditional	-11144
▁arti	-11145
▁practically	-11146
▁sustaining	-11147
aded	-11148
▁deliberately	-11149
pper	-11150
▁emerge	-11151
▁discovered	-11152
ette	-11153
itiously	-11154
▁congratulations	-11155
tigation	-11156
▁appliances	-11157
▁terminate	-11158
ipo	-11159
▁struck	-11160
▁recommending	-11161
▁interfere	-11162
▁battery	-11163
athers	-11164
▁appreciates	-11165
ions	-11166
▁bargain	-11167
▁tonne	-11168
▁unfic	-11169
▁discriminate	-11170
▁lifel	-11171
▁lesser	-11172
▁ryanair	-11173
▁unficyp	-11174
▁portable	-11175
▁repayment	-11176
▁supplying	-11177
▁receivable	-11178
▁inaug	-11179
▁collapse	-11180
▁reads	-11181
▁ci	-11182
▁marketed	-11183
▁probation	-11184
▁taxpay	-11185
▁problematic	-11186
48	-11187
▁oslo	-11188
▁reciprocal	-11189
▁delic	-11190
▁undertakes	-11191
▁david	-11192
▁communal	-11193
▁brackets	-11194
▁overf	-11195
▁piece	-11196
▁worship	-11197
▁younger	-11198
▁experiment	-11199
▁dg	-11200
mony	-11201
racies	-11202
▁lifelong	-11203
▁leaf	-11204
▁€	-11205
▁presumed	-11206
▁consortium	-11207
▁seeing	-11208
▁observatory	-11209
▁adds	-11210
▁wonder	-11211
roll	-11212
▁ghg	-11213
▁vita	-11214
▁classifications	-11215
▁therapy	-11216
azi	-11217
▁kurd	-11218
▁bail	-11219
ping	-11220
▁interrelated	-11221
▁buffer	-11222
▁pluralism	-11223
▁varies	-11224
▁greenland	-11225
▁condemnation	-11226
▁182	-11227
▁dossier	-11228
▁schedules	-11229
ikh	-11230
▁parking	-11231
nez	-11232
▁scene	-11233
▁arisen	-11234
▁protein	-11235
▁mobilized	-11236
▁confronted	-11237
▁afro	-11238
▁oppose	-11239
atlantic	-11240
▁barro	-11241
▁prospective	-11242
▁ahmed	-11243
dim	-11244
▁132	-11245
no	-11246
▁orth	-11247
▁headlamp	-11248
obyl	-11249
▁worrying	-11250
▁expeditiously	-11251
▁harsh	-11252
▁intense	-11253
▁symbols	-11254
▁qualifying	-11255
tians	-11256
▁protests	-11257
▁cens	-11258
ubli	-11259
▁orbit	-11260
▁infants	-11261
▁manuals	-11262
▁contraven	-11263
▁premature	-11264
▁breastfeeding	-11265
eful	-11266
▁idps	-11267
▁charging	-11268
▁imminent	-11269
▁fax	-11270
▁park	-11271
▁fes	-11272
▁merch	-11273
▁?	-11274
atu	-11275
▁protracted	-11276
▁harmonizing	-11277
tiles	-11278
▁accepts	-11279
▁traders	-11280
▁×	-11281
hyd	-11282
▁promises	-11283
▁rc	-11284
▁doors	-11285
▁overlap	-11286
loading	-11287
▁chernobyl	-11288
▁aggressive	-11289
▁hu	-11290
▁plight	-11291
▁revising	-11292
▁tracing	-11293
▁measurable	-11294
▁precedence	-11295
▁bali	-11296
▁troub	-11297
▁breaking	-11298
▁waterway	-11299
▁multilingual	-11300
▁transatlantic	-11301
▁unsustainable	-11302
▁minurso	-11303
▁paramilit	-11304
▁adjud	-11305
▁zaire	-11306
▁tremendous	-11307
▁proxim	-11308
▁broadband	-11309
▁adopts	-11310
▁involunt	-11311
▁constituents	-11312
▁multisectoral	-11313
oja	-11314
▁argue	-11315
▁urging	-11316
▁wg	-11317
▁repeti	-11318
▁flagrant	-11319
▁blocks	-11320
▁disruption	-11321
ructive	-11322
▁lump	-11323
meas	-11324
▁beaten	-11325
▁judgments	-11326
▁adn	-11327
aine	-11328
▁multif	-11329
▁gc	-11330
▁450	-11331
▁esma	-11332
▁sophistic	-11333
▁empowering	-11334
rin	-11335
room	-11336
▁minerals	-11337
▁260	-11338
▁taxable	-11339
▁triang	-11340
▁inflicted	-11341
▁precondition	-11342
ersed	-11343
▁powder	-11344
▁neutrality	-11345
▁sahel	-11346
▁shortages	-11347
itations	-11348
▁lobby	-11349
▁theory	-11350
▁ppe	-11351
▁[	-11352
▁avian	-11353
▁instructed	-11354
▁189	-11355
▁butter	-11356
▁los	-11357
▁rip	-11358
chool	-11359
▁chart	-11360
▁guam	-11361
▁displayed	-11362
▁distress	-11363
ract	-11364
tet	-11365
▁tertiary	-11366
▁reputation	-11367
▁uncertainties	-11368
▁kiv	-11369
▁overcrowding	-11370
east	-11371
▁sara	-11372
▁kinder	-11373
▁dominated	-11374
▁extr	-11375
▁quad	-11376
aty	-11377
ips	-11378
oma	-11379
▁puts	-11380
▁martí	-11381
▁sudden	-11382
▁mindful	-11383
xy	-11384
tably	-11385
▁kabul	-11386
▁stree	-11387
▁spokes	-11388
▁plo	-11389
▁selecting	-11390
▁fever	-11391
▁damaging	-11392
▁prevents	-11393
▁educated	-11394
▁offshore	-11395
▁defam	-11396
▁supervisor	-11397
▁rooted	-11398
▁vendors	-11399
▁unfortunate	-11400
80	-11401
▁psychos	-11402
▁ratios	-11403
▁aarhus	-11404
▁regrettably	-11405
▁eia	-11406
▁epidemiological	-11407
▁deficits	-11408
▁imis	-11409
▁overdue	-11410
▁142	-11411
inees	-11412
ode	-11413
utives	-11414
▁strikes	-11415
ville	-11416
▁magaz	-11417
▁annul	-11418
▁foreseeable	-11419
ams	-11420
▁pit	-11421
▁reside	-11422
34	-11423
▁smart	-11424
▁automo	-11425
▁ara	-11426
▁eyes	-11427
▁verifying	-11428
▁nm	-11429
qual	-11430
▁vaccines	-11431
▁ups	-11432
▁inevitably	-11433
▁streets	-11434
▁variation	-11435
▁knows	-11436
▁passive	-11437
▁discriminated	-11438
▁novel	-11439
len	-11440
▁152	-11441
▁magistrate	-11442
▁emig	-11443
▁winter	-11444
▁executives	-11445
▁preferable	-11446
▁obli	-11447
▁license	-11448
▁supervise	-11449
represented	-11450
▁vegetable	-11451
▁ineffective	-11452
▁formalities	-11453
▁jose	-11454
▁disturbing	-11455
▁rulings	-11456
▁panellists	-11457
▁regulators	-11458
▁secretaries	-11459
▁disorders	-11460
▁uncdf	-11461
armed	-11462
▁unfores	-11463
54	-11464
▁opium	-11465
▁clarifications	-11466
▁reconsider	-11467
▁ambig	-11468
▁amaz	-11469
ourced	-11470
▁validated	-11471
▁moderate	-11472
▁particulate	-11473
▁invi	-11474
▁umoja	-11475
▁khar	-11476
▁devise	-11477
▁reproduction	-11478
cyc	-11479
▁battal	-11480
▁001	-11481
▁devi	-11482
▁luis	-11483
▁suscep	-11484
200	-11485
▁fru	-11486
▁cornerstone	-11487
▁practicable	-11488
▁216	-11489
▁exceptionally	-11490
▁vendor	-11491
▁bromide	-11492
▁cric	-11493
▁produces	-11494
▁salt	-11495
▁kashmir	-11496
▁attracting	-11497
▁shells	-11498
▁scholarships	-11499
▁270	-11500
▁hamas	-11501
▁warming	-11502
▁solved	-11503
▁counsell	-11504
sis	-11505
▁shut	-11506
▁grades	-11507
apped	-11508
dh	-11509
▁sacrific	-11510
ids	-11511
▁cres	-11512
▁relied	-11513
▁simultaneous	-11514
xual	-11515
▁subcont	-11516
▁wag	-11517
▁backlog	-11518
▁ig	-11519
▁extensively	-11520
▁revol	-11521
▁formats	-11522
▁remn	-11523
▁preferably	-11524
▁trigg	-11525
▁enlarged	-11526
▁penitentiary	-11527
▁vested	-11528
apsed	-11529
irth	-11530
▁humans	-11531
▁belongs	-11532
▁injurious	-11533
▁131	-11534
redit	-11535
▁ivorian	-11536
▁sentencing	-11537
▁seventy	-11538
▁emotional	-11539
▁unt	-11540
▁paed	-11541
▁justi	-11542
▁micron	-11543
▁debated	-11544
▁echo	-11545
▁disrup	-11546
▁solvent	-11547
▁incorrect	-11548
▁drafts	-11549
▁confirming	-11550
▁landscape	-11551
▁@@>	-11552
▁flee	-11553
ima	-11554
illary	-11555
▁surely	-11556
▁embarked	-11557
leration	-11558
actor	-11559
▁controversial	-11560
▁unus	-11561
▁distortion	-11562
▁177	-11563
▁pour	-11564
▁atrocities	-11565
32	-11566
▁reactions	-11567
▁psychosocial	-11568
▁harness	-11569
▁242	-11570
▁ignore	-11571
▁signatures	-11572
▁alger	-11573
▁fertili	-11574
▁palais	-11575
▁societal	-11576
▁cleared	-11577
▁depended	-11578
▁1958	-11579
▁uneven	-11580
rety	-11581
▁broadcas	-11582
▁unv	-11583
▁crude	-11584
▁187	-11585
▁sexes	-11586
▁pec	-11587
▁combining	-11588
▁consultancy	-11589
tc	-11590
▁proportional	-11591
▁entirety	-11592
▁crow	-11593
▁deletion	-11594
▁smoking	-11595
rage	-11596
autical	-11597
▁rations	-11598
cile	-11599
uan	-11600
▁democracies	-11601
jevo	-11602
▁disadvantages	-11603
▁hopeful	-11604
▁interrog	-11605
will	-11606
xb	-11607
▁loads	-11608
▁repris	-11609
▁exchanging	-11610
▁unreason	-11611
▁utilisation	-11612
emis	-11613
▁explosion	-11614
meat	-11615
▁1961	-11616
▁solic	-11617
▁preclude	-11618
▁subscrib	-11619
▁irri	-11620
▁knowing	-11621
riger	-11622
▁approached	-11623
▁reaches	-11624
▁supporters	-11625
▁reasoned	-11626
▁refriger	-11627
▁irrigation	-11628
▁lifted	-11629
▁threatens	-11630
▁enters	-11631
▁recurrence	-11632
▁estimation	-11633
▁162	-11634
▁lam	-11635
sements	-11636
▁substanti	-11637
otic	-11638
▁mop	-11639
▁incin	-11640
▁apportionment	-11641
▁israelis	-11642
▁∙	-11643
airy	-11644
▁reconcile	-11645
▁refusing	-11646
▁grew	-11647
▁srps	-11648
▁fulfils	-11649
▁regulates	-11650
▁subparagraphs	-11651
▁dramatically	-11652
▁confiscated	-11653
▁rank	-11654
▁attest	-11655
▁depleting	-11656
▁synthetic	-11657
▁proximity	-11658
▁game	-11659
▁coff	-11660
▁professions	-11661
▁losing	-11662
▁ghs	-11663
iga	-11664
▁ana	-11665
▁adjudic	-11666
▁contravention	-11667
▁summaries	-11668
▁countervail	-11669
yei	-11670
▁silence	-11671
▁interactions	-11672
▁vulnerabilities	-11673
▁battle	-11674
rella	-11675
▁abyei	-11676
▁remnants	-11677
▁recession	-11678
▁incremental	-11679
▁kal	-11680
▁litres	-11681
▁censuses	-11682
▁preceded	-11683
▁bern	-11684
▁couple	-11685
▁precursors	-11686
▁acceleration	-11687
▁1968	-11688
▁wave	-11689
▁evidenced	-11690
▁supplements	-11691
ky	-11692
▁reformed	-11693
▁unrelated	-11694
▁promotional	-11695
▁fragmentation	-11696
▁goodwill	-11697
▁grsg	-11698
▁suited	-11699
▁sami	-11700
▁onwards	-11701
▁[@@	-11702
▁iom	-11703
urban	-11704
usha	-11705
▁prince	-11706
recy	-11707
▁unreg	-11708
▁secrecy	-11709
▁militias	-11710
▁involuntary	-11711
▁passports	-11712
▁harb	-11713
▁trees	-11714
▁verifiable	-11715
▁srpska	-11716
▁abducted	-11717
▁trailer	-11718
▁prioritize	-11719
▁keen	-11720
ported	-11721
▁ay	-11722
▁explains	-11723
▁delinqu	-11724
▁intermediaries	-11725
▁vicinity	-11726
inki	-11727
▁explaining	-11728
▁ss	-11729
▁fifteen	-11730
▁ncbs	-11731
▁impaired	-11732
▁consequent	-11733
lind	-11734
▁cooling	-11735
▁fears	-11736
▁compare	-11737
▁unauthorized	-11738
▁music	-11739
▁republi	-11740
▁deriving	-11741
▁inspected	-11742
▁logic	-11743
ken	-11744
▁cb	-11745
▁lub	-11746
▁commits	-11747
plo	-11748
▁obligatory	-11749
▁expectation	-11750
▁theft	-11751
▁arctic	-11752
▁copyright	-11753
▁228	-11754
▁borrowing	-11755
▁reinst	-11756
▁obstetric	-11757
▁transposition	-11758
▁seasonal	-11759
▁utilizing	-11760
▁wise	-11761
▁evolved	-11762
▁thickness	-11763
▁morbid	-11764
▁karab	-11765
▁tn	-11766
anol	-11767
▁annot	-11768
▁151	-11769
▁adjourn	-11770
▁appell	-11771
▁compensatory	-11772
▁democrats	-11773
▁unresolved	-11774
▁sensitization	-11775
▁sha	-11776
▁umb	-11777
▁scales	-11778
▁neglected	-11779
▁fern	-11780
ras	-11781
▁enrichment	-11782
▁ices	-11783
▁lodge	-11784
▁retaining	-11785
▁fault	-11786
▁organisational	-11787
▁deems	-11788
▁variance	-11789
▁everywhere	-11790
fter	-11791
▁envisages	-11792
▁intermediary	-11793
▁215	-11794
▁endanger	-11795
▁deepening	-11796
▁assignments	-11797
ardo	-11798
▁tasked	-11799
▁ambient	-11800
istrib	-11801
▁tongue	-11802
▁ensuing	-11803
▁eurosystem	-11804
▁grsp	-11805
▁bears	-11806
▁gtr	-11807
▁bush	-11808
▁addiction	-11809
▁colonialism	-11810
▁harmonious	-11811
▁delim	-11812
▁receivables	-11813
▁connectivity	-11814
▁agr	-11815
▁dismantling	-11816
▁sarajevo	-11817
▁sty	-11818
dimension	-11819
▁ranks	-11820
▁refin	-11821
▁optical	-11822
▁tirexb	-11823
▁cypriots	-11824
▁repairs	-11825
▁interpreters	-11826
▁prerog	-11827
▁hels	-11828
▁discrepancies	-11829
enic	-11830
▁olaf	-11831
▁multidimension	-11832
▁antigua	-11833
▁endangered	-11834
▁interviewed	-11835
toum	-11836
▁microc	-11837
▁karabakh	-11838
▁algerian	-11839
▁1325	-11840
▁predictability	-11841
▁dairy	-11842
▁garc	-11843
▁251	-11844
▁invitations	-11845
▁abkhazia	-11846
▁editorial	-11847
▁226	-11848
oplan	-11849
▁misleading	-11850
leged	-11851
▁subprogrammes	-11852
▁circle	-11853
▁random	-11854
▁salmon	-11855
▁appreh	-11856
▁preschool	-11857
ativity	-11858
▁audience	-11859
▁complainants	-11860
▁alexand	-11861
▁flamm	-11862
▁circled	-11863
▁assists	-11864
▁indivis	-11865
▁balancing	-11866
▁248	-11867
uce	-11868
▁onto	-11869
▁marshall	-11870
▁anchor	-11871
▁orderly	-11872
▁occupations	-11873
got	-11874
▁stol	-11875
▁empty	-11876
▁edge	-11877
ounded	-11878
▁redoub	-11879
▁begins	-11880
▁collaborating	-11881
▁mouth	-11882
▁specim	-11883
▁curtail	-11884
▁feeling	-11885
▁recruiting	-11886
▁inspectorate	-11887
osia	-11888
▁interpretative	-11889
group	-11890
▁destructive	-11891
▁guides	-11892
▁mt	-11893
orge	-11894
▁interloc	-11895
▁abilities	-11896
▁hiring	-11897
▁jam	-11898
ación	-11899
▁suggesting	-11900
▁corridors	-11901
▁extrater	-11902
▁strengths	-11903
▁ion	-11904
▁wales	-11905
▁fibres	-11906
▁drain	-11907
▁earned	-11908
▁pragmatic	-11909
▁dh	-11910
aming	-11911
▁ka	-11912
▁annum	-11913
▁implicit	-11914
nance	-11915
▁conveyed	-11916
▁affiliation	-11917
intment	-11918
▁republika	-11919
odes	-11920
▁@@...	-11921
▁stance	-11922
▁211	-11923
▁1969	-11924
adors	-11925
▁corridor	-11926
▁khartoum	-11927
▁correlation	-11928
▁guar	-11929
▁labels	-11930
▁scotland	-11931
▁lend	-11932
▁ration	-11933
▁elaborating	-11934
measures	-11935
erson	-11936
▁helsinki	-11937
▁arma	-11938
▁enclo	-11939
▁asserted	-11940
▁compartment	-11941
▁morbidity	-11942
▁stockpiles	-11943
▁extraterrit	-11944
▁agreeing	-11945
▁cylind	-11946
▁ceremony	-11947
▁voter	-11948
teness	-11949
▁conducts	-11950
▁football	-11951
▁exert	-11952
▁listen	-11953
▁captured	-11954
▁advocating	-11955
ael	-11956
tillery	-11957
▁premiums	-11958
▁ambassadors	-11959
▁que	-11960
▁pesticide	-11961
▁accomplishment	-11962
▁kilo	-11963
▁colleges	-11964
▁countermeasures	-11965
▁stricter	-11966
▁communist	-11967
▁got	-11968
▁tended	-11969
▁deliveries	-11970
▁arriving	-11971
itisation	-11972
▁tighten	-11973
print	-11974
▁factory	-11975
▁habitats	-11976
inafter	-11977
▁inex	-11978
▁electronically	-11979
▁td	-11980
▁emanating	-11981
▁pregnancies	-11982
pass	-11983
▁voices	-11984
▁prompted	-11985
▁nagorn	-11986
▁reconf	-11987
▁resolute	-11988
▁armaments	-11989
▁reiterating	-11990
▁vanu	-11991
▁fathers	-11992
▁hereinafter	-11993
▁ps	-11994
▁reinforcement	-11995
▁gend	-11996
▁radar	-11997
▁derive	-11998
▁deposition	-11999
▁statistic	-12000
▁implements	-12001
▁bankrupt	-12002
▁catalyst	-12003
▁rod	-12004
▁obso	-12005
▁efsa	-12006
▁pointing	-12007
alam	-12008
▁academia	-12009
▁gard	-12010
▁prosecuting	-12011
vic	-12012
▁moves	-12013
▁obsolete	-12014
▁164	-12015
▁214	-12016
▁iru	-12017
▁inflows	-12018
▁affirms	-12019
▁indictment	-12020
▁centralized	-12021
▁glad	-12022
uate	-12023
▁enforceable	-12024
▁comprehensively	-12025
▁imposes	-12026
▁generators	-12027
▁enjoys	-12028
umber	-12029
▁axle	-12030
▁vanuatu	-12031
▁pursuance	-12032
pol	-12033
▁barroso	-12034
▁distort	-12035
▁reorganization	-12036
▁happens	-12037
▁calm	-12038
▁practised	-12039
▁subsection	-12040
▁wines	-12041
▁questioning	-12042
▁emphasised	-12043
▁gmos	-12044
▁unjustified	-12045
enburg	-12046
▁contacted	-12047
▁differently	-12048
develop	-12049
oulement	-12050
▁dog	-12051
inks	-12052
▁lucia	-12053
▁titles	-12054
▁monopoly	-12055
▁descriptions	-12056
occ	-12057
▁ancillary	-12058
▁employing	-12059
▁dpr	-12060
▁danube	-12061
▁kidnapping	-12062
▁warmly	-12063
▁avoidance	-12064
▁tendering	-12065
▁diet	-12066
▁fighters	-12067
▁wol	-12068
▁redistrib	-12069
▁airline	-12070
▁awg	-12071
▁counterparty	-12072
eter	-12073
ilings	-12074
▁thrust	-12075
▁excessively	-12076
▁standardisation	-12077
inger	-12078
▁quartet	-12079
▁280	-12080
ema	-12081
▁implied	-12082
▁holidays	-12083
▁ipcc	-12084
▁activated	-12085
▁174	-12086
ilingual	-12087
▁hostage	-12088
osexual	-12089
▁prim	-12090
▁couples	-12091
▁sickness	-12092
▁htm	-12093
▁artillery	-12094
dc	-12095
fc	-12096
▁290	-12097
▁manoe	-12098
uz	-12099
▁temperatures	-12100
▁matrix	-12101
▁absorption	-12102
cut	-12103
lez	-12104
orese	-12105
▁vaccine	-12106
▁timorese	-12107
▁choosing	-12108
▁tokyo	-12109
▁rounds	-12110
▁trailers	-12111
▁interm	-12112
tawa	-12113
▁heb	-12114
worthiness	-12115
▁227	-12116
▁fly	-12117
▁timeliness	-12118
garten	-12119
▁225	-12120
▁instraw	-12121
▁575	-12122
kland	-12123
erting	-12124
▁minus	-12125
▁stimulating	-12126
▁ottawa	-12127
▁hers	-12128
▁buying	-12129
▁guarant	-12130
▁reduces	-12131
▁ceilings	-12132
▁sympt	-12133
▁humane	-12134
▁incorporates	-12135
▁administrators	-12136
▁catalytic	-12137
▁profitable	-12138
▁vacu	-12139
▁irreversible	-12140
gam	-12141
▁almaty	-12142
▁noble	-12143
▁junior	-12144
▁manoeuv	-12145
▁compelled	-12146
▁ante	-12147
▁fertil	-12148
▁ordnance	-12149
▁lacks	-12150
▁236	-12151
▁palau	-12152
▁semen	-12153
▁barbuda	-12154
▁envisage	-12155
▁umbrella	-12156
▁allot	-12157
allic	-12158
orestation	-12159
front	-12160
▁dprk	-12161
▁answered	-12162
▁ratings	-12163
▁shadow	-12164
▁affix	-12165
▁england	-12166
▁finalizing	-12167
▁sna	-12168
▁paramilitary	-12169
▁arusha	-12170
▁impediments	-12171
▁ranges	-12172
▁formerly	-12173
▁unsatisf	-12174
▁expendable	-12175
▁tam	-12176
▁ahmad	-12177
▁upholding	-12178
▁alf	-12179
▁belt	-12180
▁kindergarten	-12181
95	-12182
▁rebuilding	-12183
▁deteriorated	-12184
rible	-12185
udinal	-12186
▁bargaining	-12187
▁commanders	-12188
▁defects	-12189
▁grrf	-12190
▁travelled	-12191
utic	-12192
▁contradiction	-12193
▁advisable	-12194
▁transformed	-12195
▁750	-12196
▁teh	-12197
roper	-12198
▁streamlined	-12199
▁trusteeship	-12200
▁ideological	-12201
▁substitution	-12202
▁severity	-12203
▁journalist	-12204
▁gonz	-12205
▁sophisticated	-12206
onf	-12207
▁crown	-12208
▁widening	-12209
acion	-12210
▁consci	-12211
▁abortions	-12212
laud	-12213
▁belaru	-12214
▁christians	-12215
▁confronting	-12216
py	-12217
▁relie	-12218
▁aeroplan	-12219
▁totalled	-12220
▁accusations	-12221
▁endow	-12222
▁doubled	-12223
▁eminent	-12224
ogene	-12225
▁pump	-12226
asse	-12227
▁inviol	-12228
▁impairment	-12229
▁quoted	-12230
▁boat	-12231
▁immen	-12232
▁sle	-12233
urers	-12234
rooms	-12235
▁immense	-12236
▁accompany	-12237
▁bold	-12238
▁metad	-12239
▁prudent	-12240
▁stipulate	-12241
▁sight	-12242
▁unsatisfactory	-12243
▁anthrop	-12244
▁invoice	-12245
▁tackled	-12246
▁rests	-12247
▁replen	-12248
▁solemn	-12249
▁destined	-12250
▁suspicious	-12251
▁alternatively	-12252
▁applaud	-12253
▁transc	-12254
▁vincent	-12255
list	-12256
van	-12257
▁defamation	-12258
▁gall	-12259
▁dedication	-12260
vin	-12261
▁metadata	-12262
▁963	-12263
▁farmer	-12264
bor	-12265
▁dust	-12266
▁declaring	-12267
▁carlos	-12268
rote	-12269
▁downstream	-12270
▁expiration	-12271
▁friendship	-12272
afe	-12273
▁pin	-12274
▁recognising	-12275
▁void	-12276
▁inner	-12277
▁filter	-12278
bb	-12279
▁caring	-12280
▁commemoration	-12281
▁brune	-12282
▁warranted	-12283
▁improper	-12284
▁reward	-12285
▁lithuanian	-12286
▁338	-12287
▁wis	-12288
▁illustrate	-12289
▁brutal	-12290
▁accrued	-12291
rape	-12292
▁wheat	-12293
ertion	-12294
▁rubber	-12295
▁dispatched	-12296
▁trigger	-12297
▁tox	-12298
▁populated	-12299
▁vacuum	-12300
▁peacefully	-12301
▁demarcation	-12302
bel	-12303
▁fraudul	-12304
▁circulate	-12305
▁subhead	-12306
▁privately	-12307
▁griev	-12308
▁cambodian	-12309
▁din	-12310
▁kivu	-12311
▁refoulement	-12312
▁interpretations	-12313
▁synd	-12314
▁robert	-12315
▁inspired	-12316
▁aerial	-12317
▁burning	-12318
▁discontinued	-12319
▁beir	-12320
▁surrender	-12321
usco	-12322
▁honest	-12323
▁broadening	-12324
▁declares	-12325
▁thom	-12326
▁redeployed	-12327
▁actuarial	-12328
▁brunei	-12329
▁notices	-12330
▁bilingual	-12331
▁shop	-12332
▁sheep	-12333
▁patern	-12334
▁noteworthy	-12335
▁therape	-12336
ño	-12337
▁np	-12338
▁ros	-12339
anas	-12340
▁interdependent	-12341
▁fundamentally	-12342
▁outbreaks	-12343
▁sund	-12344
▁beirut	-12345
▁utilities	-12346
▁mam	-12347
▁eurojust	-12348
▁outlining	-12349
▁childbirth	-12350
▁understands	-12351
▁supervisors	-12352
él	-12353
▁stal	-12354
erical	-12355
▁stigm	-12356
▁copper	-12357
▁facult	-12358
▁immo	-12359
▁disposed	-12360
▁seam	-12361
▁donations	-12362
▁travellers	-12363
▁condemning	-12364
▁sewage	-12365
▁feedingstuffs	-12366
▁sees	-12367
▁gsp	-12368
▁seize	-12369
▁traded	-12370
▁francis	-12371
▁composite	-12372
ida	-12373
▁alto	-12374
▁susceptible	-12375
▁phone	-12376
▁underdevelop	-12377
▁corp	-12378
▁vietnamese	-12379
▁silent	-12380
▁flavour	-12381
▁crossings	-12382
elle	-12383
▁educators	-12384
wood	-12385
▁anonym	-12386
▁kimber	-12387
▁nonpro	-12388
▁openly	-12389
▁score	-12390
▁cocaine	-12391
▁devised	-12392
▁tunisian	-12393
tments	-12394
▁edf	-12395
andis	-12396
▁acknowledgement	-12397
▁μ	-12398
▁1107	-12399
dd	-12400
▁intr	-12401
▁mounted	-12402
▁consumed	-12403
▁enacting	-12404
▁mot	-12405
▁deeper	-12406
▁textiles	-12407
▁labelled	-12408
fold	-12409
▁163	-12410
▁unb	-12411
▁161	-12412
▁unama	-12413
▁disciplines	-12414
▁tuval	-12415
▁184	-12416
▁kam	-12417
▁shaping	-12418
▁traceability	-12419
▁192	-12420
▁embed	-12421
▁evictions	-12422
▁hans	-12423
▁appearing	-12424
▁chiefs	-12425
▁213	-12426
▁surge	-12427
heta	-12428
▁217	-12429
esia	-12430
▁rocket	-12431
▁pronounced	-12432
▁rt	-12433
▁shield	-12434
▁eag	-12435
▁han	-12436
▁thai	-12437
▁milestone	-12438
rot	-12439
▁dc	-12440
▁historically	-12441
▁reparations	-12442
rad	-12443
▁phasing	-12444
▁scand	-12445
▁mutandis	-12446
▁blan	-12447
▁equivalence	-12448
▁depreciation	-12449
itory	-12450
▁influx	-12451
▁scaling	-12452
▁static	-12453
▁dictators	-12454
▁nan	-12455
▁licensed	-12456
dt	-12457
▁mutatis	-12458
ndez	-12459
▁god	-12460
▁2030	-12461
▁kits	-12462
▁deepen	-12463
▁unforeseen	-12464
uru	-12465
▁galile	-12466
▁diseng	-12467
▁therapeutic	-12468
▁pound	-12469
▁annan	-12470
▁jurid	-12471
▁refined	-12472
▁compelling	-12473
▁contest	-12474
▁herself	-12475
▁newborn	-12476
▁homeland	-12477
▁unwilling	-12478
ussalam	-12479
▁intake	-12480
▁compensated	-12481
▁scrap	-12482
▁adjusting	-12483
▁perceptions	-12484
▁burma	-12485
▁nursing	-12486
▁everyday	-12487
▁trainees	-12488
▁bureaucratic	-12489
orer	-12490
▁upb	-12491
▁honoured	-12492
▁outermost	-12493
▁hurric	-12494
▁republics	-12495
▁bath	-12496
houses	-12497
zh	-12498
▁subcontrac	-12499
vić	-12500
ringing	-12501
▁flour	-12502
▁circuit	-12503
▁flammable	-12504
▁nurses	-12505
▁alcoholic	-12506
▁contraceptive	-12507
▁reveals	-12508
▁climatic	-12509
▁poorly	-12510
▁hydrocarbons	-12511
▁deceased	-12512
▁misunder	-12513
▁jab	-12514
▁violates	-12515
▁icsc	-12516
▁monusco	-12517
▁privatis	-12518
bc	-12519
isa	-12520
▁020	-12521
▁injustice	-12522
▁certifying	-12523
▁undes	-12524
▁stories	-12525
▁arsenals	-12526
▁warnings	-12527
erie	-12528
ilia	-12529
▁kor	-12530
▁murd	-12531
▁bread	-12532
▁prevalent	-12533
▁receptacles	-12534
uro	-12535
▁acclamation	-12536
▁rico	-12537
▁esp	-12538
▁ignition	-12539
▁whichever	-12540
▁lus	-12541
▁calibration	-12542
▁idb	-12543
ountry	-12544
▁chechn	-12545
▁respondent	-12546
▁accommodated	-12547
arization	-12548
oca	-12549
▁injection	-12550
▁belarusian	-12551
▁mentally	-12552
▁advertise	-12553
▁michael	-12554
mium	-12555
▁nav	-12556
▁bacter	-12557
▁corrig	-12558
child	-12559
▁globe	-12560
▁grenada	-12561
▁unsafe	-12562
▁invoices	-12563
▁circumstance	-12564
▁depar	-12565
▁stolen	-12566
▁sincerely	-12567
▁preconditions	-12568
▁ncb	-12569
▁upbringing	-12570
▁regen	-12571
osur	-12572
▁triennial	-12573
iment	-12574
ologists	-12575
▁abatement	-12576
97	-12577
▁slave	-12578
ín	-12579
field	-12580
▁unilaterally	-12581
▁concurrent	-12582
▁litigation	-12583
▁1950	-12584
oni	-12585
tened	-12586
▁naval	-12587
▁culturally	-12588
▁motivation	-12589
▁encompasses	-12590
▁underground	-12591
▁appropriated	-12592
eck	-12593
▁treating	-12594
▁martínez	-12595
▁worsening	-12596
▁invoke	-12597
▁chechnya	-12598
▁dal	-12599
▁tuvalu	-12600
▁denying	-12601
▁unomig	-12602
▁articulated	-12603
▁undof	-12604
▁coffee	-12605
▁coach	-12606
▁cattle	-12607
▁perfectly	-12608
▁acquit	-12609
agers	-12610
▁inhib	-12611
▁derivative	-12612
▁vib	-12613
▁altered	-12614
▁consuming	-12615
▁conditioning	-12616
▁cogn	-12617
▁junc	-12618
▁capitals	-12619
▁arabs	-12620
▁khal	-12621
▁factions	-12622
▁criminalization	-12623
▁205	-12624
▁decrees	-12625
▁kinsh	-12626
▁ballistic	-12627
▁ice	-12628
▁backgrounds	-12629
▁faculty	-12630
▁attachment	-12631
eness	-12632
▁deserved	-12633
▁striving	-12634
▁destroying	-12635
ghted	-12636
▁jail	-12637
notes	-12638
▁voiced	-12639
▁compounded	-12640
▁navig	-12641
▁unst	-12642
▁vitamin	-12643
▁cosme	-12644
▁kinshasa	-12645
ylene	-12646
▁antonio	-12647
▁experiments	-12648
▁poorer	-12649
▁stic	-12650
▁rivers	-12651
▁execute	-12652
▁graduates	-12653
▁bse	-12654
▁coton	-12655
kov	-12656
▁congratulated	-12657
onic	-12658
▁discourage	-12659
▁entrepreneurial	-12660
▁entailed	-12661
▁geo	-12662
▁democratically	-12663
▁tens	-12664
▁theatre	-12665
▁wrote	-12666
▁recreation	-12667
▁disparity	-12668
aro	-12669
▁fruits	-12670
▁cotonou	-12671
▁alliances	-12672
▁258	-12673
▁longit	-12674
▁unjust	-12675
▁warehouse	-12676
elt	-12677
▁cin	-12678
▁dissolution	-12679
heads	-12680
▁fortun	-12681
▁mercosur	-12682
▁bias	-12683
▁nice	-12684
▁arena	-12685
erestim	-12686
▁weighing	-12687
▁underestim	-12688
iliary	-12689
▁piv	-12690
▁pent	-12691
▁hamper	-12692
▁insists	-12693
▁potatoes	-12694
▁rendering	-12695
ür	-12696
▁lectures	-12697
▁intermodal	-12698
▁statelessness	-12699
▁unme	-12700
▁champ	-12701
▁condol	-12702
agog	-12703
▁positioning	-12704
▁galileo	-12705
▁outsourcing	-12706
▁domic	-12707
issance	-12708
▁ideals	-12709
▁organism	-12710
▁microcredit	-12711
▁maori	-12712
▁gate	-12713
▁situ	-12714
▁jane	-12715
▁quest	-12716
▁propri	-12717
▁abandonment	-12718
▁films	-12719
tisation	-12720
▁tcd	-12721
▁forcibly	-12722
irs	-12723
▁overla	-12724
▁dilution	-12725
▁celebration	-12726
▁repatriated	-12727
▁sponsorship	-12728
▁bombs	-12729
arn	-12730
allah	-12731
▁kimberley	-12732
▁179	-12733
▁overri	-12734
▁cylinders	-12735
▁frames	-12736
▁unduly	-12737
lem	-12738
gestion	-12739
▁constructively	-12740
▁lifetime	-12741
▁technique	-12742
▁ult	-12743
viral	-12744
▁overtime	-12745
▁conforming	-12746
▁amor	-12747
oric	-12748
ng	-12749
▁downward	-12750
▁asb	-12751
▁iw	-12752
ensible	-12753
▁modernisation	-12754
▁pione	-12755
▁newslet	-12756
oned	-12757
▁reimbursed	-12758
▁disagreement	-12759
▁commendable	-12760
san	-12761
olit	-12762
▁definitely	-12763
▁intangible	-12764
▁tap	-12765
▁roughly	-12766
▁analogue	-12767
iving	-12768
▁incon	-12769
▁dwellings	-12770
▁ombudsp	-12771
▁privilege	-12772
▁deduction	-12773
66	-12774
▁discharged	-12775
▁repository	-12776
▁sequence	-12777
▁frontiers	-12778
acies	-12779
▁trucks	-12780
▁rum	-12781
pati	-12782
▁tied	-12783
▁impressive	-12784
▁sheikh	-12785
bas	-12786
▁rejects	-12787
▁replying	-12788
▁oxy	-12789
▁chrom	-12790
▁grouped	-12791
▁philosophy	-12792
▁judged	-12793
▁exhibition	-12794
▁grenad	-12795
sein	-12796
▁marie	-12797
▁freshwater	-12798
arctic	-12799
▁withd	-12800
han	-12801
har	-12802
erations	-12803
▁withdrew	-12804
▁opposing	-12805
▁additions	-12806
▁adjournment	-12807
▁encompassing	-12808
▁aggravating	-12809
▁boarding	-12810
▁repetition	-12811
▁ccp	-12812
eded	-12813
▁quo	-12814
ogo	-12815
▁suitability	-12816
▁berm	-12817
▁lodging	-12818
▁1948	-12819
▁victor	-12820
natal	-12821
▁satisfying	-12822
▁realise	-12823
▁crescent	-12824
▁233	-12825
▁southeast	-12826
▁retroactive	-12827
▁mw	-12828
▁occupy	-12829
▁compiling	-12830
▁auxiliary	-12831
▁supervising	-12832
▁swiftly	-12833
▁precision	-12834
▁expeditious	-12835
▁ambition	-12836
▁broadcasts	-12837
▁objectivity	-12838
sil	-12839
▁flash	-12840
▁valley	-12841
▁widest	-12842
▁minimise	-12843
▁modality	-12844
▁darussalam	-12845
▁checkpoints	-12846
▁representations	-12847
ifer	-12848
▁inject	-12849
uity	-12850
▁reciprocity	-12851
ateness	-12852
▁beating	-12853
▁juridical	-12854
▁brain	-12855
▁repro	-12856
▁respir	-12857
uis	-12858
ician	-12859
▁offs	-12860
▁counted	-12861
▁contributor	-12862
▁tcdc	-12863
▁revis	-12864
▁introduces	-12865
▁unami	-12866
▁upr	-12867
▁boxes	-12868
▁antarctic	-12869
▁tight	-12870
▁communicating	-12871
▁bore	-12872
▁uncons	-12873
▁creativity	-12874
backs	-12875
▁interch	-12876
▁conflicting	-12877
▁1966	-12878
▁relying	-12879
▁425	-12880
▁marc	-12881
▁efficacy	-12882
▁intelligent	-12883
▁terrible	-12884
▁deficiency	-12885
▁undermines	-12886
▁warrants	-12887
estine	-12888
▁mayor	-12889
▁distill	-12890
▁vigorously	-12891
▁withdrawing	-12892
ofi	-12893
▁bicyc	-12894
map	-12895
▁bog	-12896
▁blow	-12897
▁settling	-12898
▁manuel	-12899
▁worthy	-12900
▁hip	-12901
▁vague	-12902
▁defe	-12903
▁ifad	-12904
▁comparing	-12905
▁jordanian	-12906
▁retal	-12907
▁continually	-12908
abouts	-12909
▁salts	-12910
▁dublin	-12911
▁comfort	-12912
▁gendarm	-12913
▁aif	-12914
▁deducted	-12915
▁venti	-12916
▁harves	-12917
▁prosperous	-12918
▁indefinite	-12919
▁181	-12920
▁unexplo	-12921
▁š	-12922
▁abund	-12923
▁sympathy	-12924
▁hes	-12925
▁refurb	-12926
▁extradite	-12927
▁subt	-12928
▁buen	-12929
▁warned	-12930
▁gamb	-12931
▁covenants	-12932
▁verdic	-12933
▁ecr	-12934
▁eecca	-12935
▁subdi	-12936
▁revolutionary	-12937
▁stagn	-12938
▁andean	-12939
▁coco	-12940
▁tehran	-12941
▁lord	-12942
▁develops	-12943
▁fullest	-12944
ask	-12945
▁approaching	-12946
42	-12947
▁surprising	-12948
ota	-12949
▁assa	-12950
▁horn	-12951
▁inevitable	-12952
▁examines	-12953
▁upgraded	-12954
▁regain	-12955
▁waterc	-12956
▁catalogue	-12957
▁hein	-12958
▁impeded	-12959
▁origins	-12960
▁striking	-12961
▁signalling	-12962
idae	-12963
▁screen	-12964
▁proving	-12965
hetamine	-12966
▁sharply	-12967
▁dj	-12968
berto	-12969
▁tireless	-12970
▁behavioural	-12971
▁construct	-12972
▁dental	-12973
▁treatments	-12974
▁cable	-12975
▁minds	-12976
▁spect	-12977
▁respiratory	-12978
lr	-12979
uries	-12980
▁probability	-12981
▁anten	-12982
▁hemis	-12983
▁forgot	-12984
▁condolences	-12985
ols	-12986
▁hen	-12987
▁identifier	-12988
guez	-12989
▁thirtieth	-12990
ih	-12991
▁nas	-12992
▁triangular	-12993
▁discretionary	-12994
én	-12995
▁slum	-12996
▁longitudinal	-12997
▁247	-12998
▁yel	-12999
▁lock	-13000
▁172	-13001
▁embryos	-13002
▁fraudulent	-13003
▁constrained	-13004
▁reversed	-13005
▁emit	-13006
▁destinations	-13007
▁lecture	-13008
▁proportions	-13009
▁hire	-13010
▁solitary	-13011
cat	-13012
▁grpe	-13013
▁arbitrarily	-13014
▁243	-13015
▁counting	-13016
▁taxpayers	-13017
▁illnesses	-13018
▁garcía	-13019
▁promin	-13020
▁unamsil	-13021
▁pier	-13022
▁rs	-13023
▁tic	-13024
▁disposition	-13025
▁chances	-13026
ws	-13027
▁appren	-13028
▁inconsistencies	-13029
vs	-13030
▁embark	-13031
▁counties	-13032
▁delicate	-13033
▁grenadines	-13034
▁disappointed	-13035
zi	-13036
▁cland	-13037
▁comparisons	-13038
▁percentages	-13039
▁intercountry	-13040
▁conceived	-13041
▁scarc	-13042
▁invaluable	-13043
oses	-13044
▁noon	-13045
▁embra	-13046
▁attracted	-13047
▁extensions	-13048
▁reprisals	-13049
▁decommission	-13050
uments	-13051
▁lusaka	-13052
▁relies	-13053
▁forcing	-13054
▁absorbed	-13055
▁thomas	-13056
▁believing	-13057
▁connecting	-13058
▁induce	-13059
▁homosexual	-13060
rone	-13061
▁reassess	-13062
▁clandestine	-13063
▁baby	-13064
▁rationalization	-13065
▁lake	-13066
▁ibrah	-13067
▁xenophobic	-13068
aki	-13069
▁impeding	-13070
▁dakar	-13071
▁unmee	-13072
▁diplomats	-13073
▁unlawfully	-13074
▁transporting	-13075
▁broadcasters	-13076
▁undercut	-13077
▁forefront	-13078
cw	-13079
hn	-13080
agena	-13081
▁disputed	-13082
▁heightened	-13083
erity	-13084
▁delighted	-13085
▁countervailing	-13086
idated	-13087
▁heroin	-13088
▁convert	-13089
▁payroll	-13090
▁212	-13091
▁cook	-13092
▁fren	-13093
▁carnet	-13094
▁furthering	-13095
ege	-13096
▁roman	-13097
▁rolled	-13098
▁enquired	-13099
▁subregions	-13100
antine	-13101
▁unfavour	-13102
▁cartagena	-13103
▁lra	-13104
▁corrigendum	-13105
odox	-13106
▁enriched	-13107
▁lowering	-13108
▁feat	-13109
▁latvian	-13110
77	-13111
ighter	-13112
▁linear	-13113
▁prede	-13114
▁facilitators	-13115
▁unpred	-13116
▁speeches	-13117
▁weakness	-13118
55	-13119
▁rebuild	-13120
gm	-13121
olo	-13122
itism	-13123
▁insc	-13124
▁hindered	-13125
▁unreasonable	-13126
▁robbery	-13127
▁concise	-13128
▁searches	-13129
▁diversified	-13130
▁183	-13131
▁appropriateness	-13132
▁outf	-13133
▁matching	-13134
eni	-13135
▁sharia	-13136
▁geological	-13137
▁subsidized	-13138
ipe	-13139
▁veterin	-13140
▁energies	-13141
▁intrins	-13142
▁teenage	-13143
▁hierarchy	-13144
▁gs	-13145
husi	-13146
children	-13147
▁patents	-13148
▁academics	-13149
▁enthusi	-13150
▁liquids	-13151
▁midterm	-13152
▁unfounded	-13153
▁mé	-13154
orient	-13155
▁characterised	-13156
▁anx	-13157
▁steril	-13158
abe	-13159
▁xiii	-13160
▁aires	-13161
isites	-13162
▁gendarmerie	-13163
▁redouble	-13164
▁lom	-13165
▁motions	-13166
▁caled	-13167
▁buenos	-13168
bm	-13169
▁haven	-13170
▁mohammed	-13171
▁europa	-13172
▁kurdish	-13173
▁insisted	-13174
▁subordinate	-13175
▁safely	-13176
▁slowly	-13177
▁jeopardize	-13178
▁inac	-13179
▁hired	-13180
▁wisdom	-13181
▁standpoint	-13182
▁unmit	-13183
▁knew	-13184
▁fortieth	-13185
▁educating	-13186
▁induced	-13187
▁aggregated	-13188
▁687	-13189
▁janeiro	-13190
▁registering	-13191
▁outlets	-13192
▁excludes	-13193
▁sensible	-13194
▁anywhere	-13195
▁triggered	-13196
abet	-13197
▁finger	-13198
▁illustrates	-13199
ecision	-13200
▁266	-13201
▁ari	-13202
▁oas	-13203
▁dag	-13204
▁fard	-13205
▁backing	-13206
▁activation	-13207
▁associates	-13208
▁nuts	-13209
▁atlas	-13210
71	-13211
▁mistake	-13212
▁bare	-13213
▁cisg	-13214
▁rebels	-13215
▁sporting	-13216
jö	-13217
▁optimum	-13218
encia	-13219
▁interchange	-13220
▁nt	-13221
zers	-13222
▁reminder	-13223
▁surprised	-13224
▁blocked	-13225
▁bridging	-13226
▁diminish	-13227
▁cel	-13228
▁wo	-13229
▁graduation	-13230
▁markings	-13231
▁bottlen	-13232
▁assertion	-13233
▁deviation	-13234
▁impediment	-13235
▁negligence	-13236
▁ldc	-13237
▁hardware	-13238
▁entertain	-13239
▁constraint	-13240
▁shan	-13241
▁strongest	-13242
▁builds	-13243
▁altogether	-13244
▁collaborated	-13245
▁seconds	-13246
▁pse	-13247
▁khan	-13248
▁stigma	-13249
▁guer	-13250
▁forgotten	-13251
▁centuries	-13252
▁whereabouts	-13253
▁defender	-13254
▁alloy	-13255
▁cpc	-13256
life	-13257
▁gis	-13258
▁filament	-13259
▁tunnels	-13260
▁incoming	-13261
▁attributes	-13262
▁identities	-13263
▁eva	-13264
▁prodi	-13265
tiff	-13266
▁goth	-13267
▁electro	-13268
▁compliments	-13269
@@@	-13270
▁cla	-13271
▁icts	-13272
▁@@@@@	-13273
▁grouping	-13274
▁unmiss	-13275
▁reassign	-13276
▁shifting	-13277
▁leakage	-13278
▁recap	-13279
▁plastics	-13280
ided	-13281
▁buses	-13282
▁referen	-13283
▁distributing	-13284
▁csd	-13285
▁roadmap	-13286
loqu	-13287
▁condom	-13288
▁deline	-13289
▁ballo	-13290
▁vigorous	-13291
68	-13292
ér	-13293
▁dream	-13294
▁diffusion	-13295
▁simplifying	-13296
▁conscientious	-13297
ester	-13298
▁adhered	-13299
▁responds	-13300
▁overlapping	-13301
▁abdel	-13302
▁overe	-13303
▁guarantor	-13304
49	-13305
estos	-13306
▁abn	-13307
erts	-13308
▁cheap	-13309
▁inacc	-13310
▁brind	-13311
▁mentioning	-13312
nial	-13313
▁minsk	-13314
▁gauge	-13315
▁plates	-13316
▁@@>@@	-13317
gener	-13318
▁commercially	-13319
▁survive	-13320
rame	-13321
▁hex	-13322
▁story	-13323
retro	-13324
▁kofi	-13325
▁ly	-13326
▁fardc	-13327
▁tonga	-13328
▁orthodox	-13329
▁standardised	-13330
▁unamb	-13331
▁practise	-13332
▁array	-13333
▁micronesia	-13334
▁alk	-13335
▁everybody	-13336
▁ward	-13337
▁excuse	-13338
▁brindisi	-13339
▁unexploded	-13340
▁alleges	-13341
atized	-13342
▁pedagog	-13343
▁disappointment	-13344
▁pedest	-13345
▁unso	-13346
▁unusual	-13347
▁prevailed	-13348
▁1234	-13349
▁revoked	-13350
▁descend	-13351
▁vegetation	-13352
▁interact	-13353
▁antiretro	-13354
▁ccw	-13355
tingu	-13356
▁phyt	-13357
▁advising	-13358
▁demilit	-13359
▁bru	-13360
▁ucits	-13361
▁plaintiff	-13362
▁paradig	-13363
▁guatemalan	-13364
▁stationary	-13365
▁esd	-13366
▁valve	-13367
▁tamp	-13368
02	-13369
▁entrance	-13370
▁unequivocal	-13371
▁oxygen	-13372
▁methane	-13373
▁authorizing	-13374
chron	-13375
▁evolve	-13376
▁reluctant	-13377
▁quarantine	-13378
akis	-13379
▁peas	-13380
▁ventures	-13381
▁intentional	-13382
▁gt	-13383
▁holiday	-13384
▁reasoning	-13385
▁subnational	-13386
▁resignation	-13387
▁deported	-13388
▁counterpart	-13389
power	-13390
▁sweet	-13391
▁hidden	-13392
▁metric	-13393
▁tissue	-13394
▁uno	-13395
▁gothenburg	-13396
▁massacre	-13397
▁crr	-13398
▁@@=@@	-13399
▁rememb	-13400
▁stepped	-13401
▁asbestos	-13402
▁unfavourable	-13403
▁fid	-13404
▁fmct	-13405
▁extingu	-13406
▁photographs	-13407
▁chose	-13408
▁complained	-13409
cri	-13410
75	-13411
▁undg	-13412
▁punitive	-13413
▁criminalize	-13414
▁dereg	-13415
▁255	-13416
arbon	-13417
rene	-13418
▁jha	-13419
▁hill	-13420
▁diversify	-13421
▁proclamation	-13422
▁gase	-13423
▁motorcyc	-13424
▁mp	-13425
▁incineration	-13426
▁assumes	-13427
▁scarcity	-13428
▁starts	-13429
▁bridges	-13430
▁harvesting	-13431
alc	-13432
▁vap	-13433
▁ombudsperson	-13434
tif	-13435
▁underlining	-13436
▁refine	-13437
▁trauma	-13438
▁enjoying	-13439
▁flaw	-13440
▁bever	-13441
▁confessions	-13442
▁gy	-13443
▁routinely	-13444
▁incommunic	-13445
▁tc	-13446
▁multiplied	-13447
▁unambig	-13448
▁frente	-13449
▁channelled	-13450
ram	-13451
istina	-13452
▁feels	-13453
▁analog	-13454
▁prioritized	-13455
▁gaseous	-13456
▁addic	-13457
▁delhi	-13458
▁equip	-13459
▁corpus	-13460
▁shoulder	-13461
▁forbidden	-13462
▁ét	-13463
▁vlad	-13464
▁incommunicado	-13465
▁008	-13466
▁discharging	-13467
▁designs	-13468
▁finalised	-13469
▁kir	-13470
43	-13471
▁§	-13472
▁miles	-13473
▁entrench	-13474
ider	-13475
▁periodical	-13476
▁conservative	-13477
▁kon	-13478
▁lac	-13479
▁mh	-13480
▁standby	-13481
rafts	-13482
▁negligible	-13483
▁roof	-13484
▁satur	-13485
holding	-13486
▁encounter	-13487
aux	-13488
▁191	-13489
▁cocoa	-13490
▁reminds	-13491
▁unavail	-13492
▁governorates	-13493
emn	-13494
▁173	-13495
ricted	-13496
▁hebron	-13497
zes	-13498
▁cassation	-13499
▁litem	-13500
▁pivotal	-13501
▁celebrate	-13502
91	-13503
sters	-13504
▁uncont	-13505
▁thanking	-13506
▁codecision	-13507
chen	-13508
▁privileged	-13509
▁disengagement	-13510
▁retired	-13511
▁extractive	-13512
▁selectivity	-13513
▁demonstrators	-13514
▁loaded	-13515
▁bidding	-13516
▁unregulated	-13517
▁interconnection	-13518
▁tube	-13519
▁landf	-13520
▁insurg	-13521
▁angolan	-13522
▁foreigner	-13523
▁accra	-13524
▁objectively	-13525
▁statisticians	-13526
▁obstruc	-13527
▁underway	-13528
▁battalion	-13529
▁bureaucracy	-13530
▁joseph	-13531
▁delimitation	-13532
▁assert	-13533
▁irrespon	-13534
▁irrele	-13535
▁nobody	-13536
▁frat	-13537
▁forfe	-13538
▁≤	-13539
▁ee	-13540
▁ethn	-13541
▁unreal	-13542
▁americans	-13543
illo	-13544
▁bam	-13545
▁realloc	-13546
▁credited	-13547
▁regionally	-13548
▁gatt	-13549
▁ninety	-13550
▁ammonia	-13551
▁diminished	-13552
▁sealed	-13553
▁pave	-13554
▁prostit	-13555
▁bombing	-13556
▁symptoms	-13557
pes	-13558
änd	-13559
▁polis	-13560
ck	-13561
▁cord	-13562
▁disbursement	-13563
41	-13564
▁ancest	-13565
actorily	-13566
▁construed	-13567
78	-13568
▁prescribes	-13569
▁171	-13570
▁nigerian	-13571
▁terminals	-13572
▁massacres	-13573
▁understandable	-13574
▁ti	-13575
▁ibrahim	-13576
▁peacemaking	-13577
▁professionalism	-13578
▁diar	-13579
▁graduate	-13580
▁harbour	-13581
▁insuffic	-13582
▁solvency	-13583
▁avenues	-13584
▁accessories	-13585
▁mf	-13586
▁241	-13587
▁noti	-13588
▁apprentices	-13589
▁batch	-13590
▁crac	-13591
▁assassination	-13592
▁metab	-13593
▁abuja	-13594
uits	-13595
▁boats	-13596
▁constituencies	-13597
▁canton	-13598
▁indemn	-13599
▁strengthens	-13600
db	-13601
owners	-13602
▁michel	-13603
▁ds	-13604
▁accr	-13605
▁flooding	-13606
▁gonzá	-13607
▁africans	-13608
65	-13609
kan	-13610
▁269	-13611
▁criminality	-13612
▁efficiencies	-13613
asy	-13614
▁193	-13615
▁compend	-13616
▁fragmented	-13617
▁marry	-13618
uto	-13619
▁complications	-13620
umps	-13621
▁smoke	-13622
▁1701	-13623
▁gay	-13624
▁plur	-13625
▁mounting	-13626
▁fraction	-13627
▁gmb	-13628
▁crash	-13629
▁hammar	-13630
▁itu	-13631
▁influencing	-13632
▁protections	-13633
hear	-13634
▁bund	-13635
▁unrestricted	-13636
war	-13637
▁eti	-13638
▁litre	-13639
▁counterfeiting	-13640
urbances	-13641
▁disturbances	-13642
▁249	-13643
▁xiv	-13644
▁intran	-13645
▁cantons	-13646
▁peruvian	-13647
▁refining	-13648
▁identifiable	-13649
▁satisfactorily	-13650
▁carto	-13651
▁epa	-13652
▁definitively	-13653
▁tp	-13654
anga	-13655
▁221	-13656
▁expires	-13657
▁distributors	-13658
▁restructured	-13659
logical	-13660
▁abidjan	-13661
▁boy	-13662
orship	-13663
▁ovine	-13664
▁closures	-13665
▁murdered	-13666
atics	-13667
▁bodily	-13668
▁philippine	-13669
▁moll	-13670
▁disco	-13671
05	-13672
ads	-13673
▁pard	-13674
▁median	-13675
▁connect	-13676
▁polisario	-13677
▁retrie	-13678
▁angu	-13679
▁santi	-13680
▁mortgage	-13681
▁unloading	-13682
▁undesirable	-13683
▁aerod	-13684
▁upstream	-13685
▁principality	-13686
79	-13687
▁poison	-13688
▁wheels	-13689
▁catering	-13690
▁gmbh	-13691
loaded	-13692
▁underscore	-13693
▁purchas	-13694
▁receipts	-13695
▁organising	-13696
▁privatisation	-13697
▁canal	-13698
▁disinf	-13699
▁columns	-13700
▁ingredient	-13701
▁logistic	-13702
▁iod	-13703
▁nominate	-13704
ando	-13705
▁239	-13706
▁deterrent	-13707
▁discount	-13708
▁resistant	-13709
person	-13710
▁bankruptcy	-13711
▁fertilis	-13712
▁promulgation	-13713
▁tends	-13714
▁cep	-13715
▁ipr	-13716
▁handicapped	-13717
▁acquisitions	-13718
▁232	-13719
▁308	-13720
▁overlo	-13721
▁extracted	-13722
▁seal	-13723
▁gonzález	-13724
▁’@@	-13725
▁alive	-13726
▁corrupt	-13727
▁nitrate	-13728
▁convincing	-13729
▁planting	-13730
▁duplicate	-13731
kin	-13732
▁238	-13733
▁icpd	-13734
▁centr	-13735
▁femin	-13736
▁unlim	-13737
▁multiface	-13738
rus	-13739
▁shed	-13740
▁envelop	-13741
▁abusive	-13742
▁artists	-13743
▁paternity	-13744
▁multifaceted	-13745
▁intensification	-13746
▁differentiation	-13747
▁mou	-13748
▁precursor	-13749
▁unlimited	-13750
▁203	-13751
▁constitutions	-13752
▁stone	-13753
▁2050	-13754
▁memorial	-13755
▁presiding	-13756
▁staffed	-13757
▁critically	-13758
strum	-13759
▁aeros	-13760
▁tough	-13761
▁sexuality	-13762
▁projection	-13763
▁shareholder	-13764
ás	-13765
▁caledonia	-13766
▁firing	-13767
▁compendium	-13768
▁oppon	-13769
▁awarding	-13770
▁recurring	-13771
▁automation	-13772
▁paediatric	-13773
▁hussein	-13774
▁jews	-13775
▁hypoth	-13776
▁discoun	-13777
▁dispose	-13778
▁223	-13779
▁andre	-13780
▁deplores	-13781
ecks	-13782
▁juan	-13783
▁adoptions	-13784
72	-13785
▁unmo	-13786
▁informs	-13787
▁contemplated	-13788
ako	-13789
▁reconna	-13790
▁infringed	-13791
▁kan	-13792
▁@@?@@	-13793
▁babies	-13794
▁constituency	-13795
▁ore	-13796
▁traum	-13797
▁brothers	-13798
▁outgoing	-13799
▁adam	-13800
▁nick	-13801
▁invalidity	-13802
▁empir	-13803
▁depletion	-13804
▁transforming	-13805
▁reconnaissance	-13806
▁prerequisites	-13807
▁275	-13808
lates	-13809
▁commencing	-13810
astrous	-13811
▁embedded	-13812
▁disastrous	-13813
▁ny	-13814
▁misc	-13815
▁cay	-13816
▁mistakes	-13817
lary	-13818
▁torque	-13819
▁oppression	-13820
▁•	-13821
▁incarc	-13822
▁lesson	-13823
▁summarizes	-13824
▁interruption	-13825
▁ratifications	-13826
▁inhumane	-13827
thes	-13828
▁iccpr	-13829
▁sunday	-13830
▁jac	-13831
simil	-13832
▁francs	-13833
▁achievable	-13834
rick	-13835
▁contradictory	-13836
▁pest	-13837
▁naturalization	-13838
▁tribes	-13839
▁collision	-13840
▁punishments	-13841
▁245	-13842
▁backst	-13843
▁ideology	-13844
▁antiretroviral	-13845
03	-13846
▁lp	-13847
▁distinguishing	-13848
▁span	-13849
tentions	-13850
▁prudential	-13851
▁hav	-13852
▁ipu	-13853
▁legislators	-13854
▁designations	-13855
bed	-13856
▁provoc	-13857
▁consignee	-13858
▁subsidised	-13859
owski	-13860
▁disorder	-13861
▁willi	-13862
▁metrop	-13863
▁proves	-13864
▁unused	-13865
▁midw	-13866
▁fluor	-13867
▁locked	-13868
▁contraception	-13869
▁assimil	-13870
▁ctc	-13871
▁1907	-13872
▁differs	-13873
▁mediator	-13874
fts	-13875
▁thro	-13876
▁cadmium	-13877
▁yellow	-13878
▁hcf	-13879
▁sd	-13880
▁overseeing	-13881
erers	-13882
▁blat	-13883
▁polling	-13884
▁coupling	-13885
▁wildlife	-13886
▁1963	-13887
▁soldier	-13888
▁forecasting	-13889
▁investigator	-13890
▁iec	-13891
▁charles	-13892
▁highway	-13893
▁este	-13894
▁fourthly	-13895
▁compromised	-13896
61	-13897
▁exhaustion	-13898
▁exploiting	-13899
▁windows	-13900
lations	-13901
▁asserts	-13902
▁moon	-13903
▁brigade	-13904
sting	-13905
elines	-13906
▁radiological	-13907
▁impasse	-13908
▁@@+	-13909
▁staying	-13910
▁computerized	-13911
▁231	-13912
▁550	-13913
▁walls	-13914
▁roaming	-13915
▁opted	-13916
▁enclosed	-13917
▁tru	-13918
▁seconded	-13919
▁prioritization	-13920
▁ré	-13921
▁weakened	-13922
▁lethal	-13923
▁civilization	-13924
ocu	-13925
▁pé	-13926
▁sizes	-13927
▁crossed	-13928
▁brokering	-13929
▁functionality	-13930
▁1964	-13931
▁favourably	-13932
▁kur	-13933
▁carcin	-13934
▁dissolved	-13935
▁interpreter	-13936
acional	-13937
▁engineers	-13938
▁mercenary	-13939
▁counterparties	-13940
▁disbursed	-13941
▁222	-13942
▁prone	-13943
▁kindly	-13944
iet	-13945
▁xv	-13946
▁bribery	-13947
ulous	-13948
▁ammonium	-13949
▁discover	-13950
▁weighting	-13951
▁safeguarded	-13952
▁posters	-13953
▁announcements	-13954
linder	-13955
▁650	-13956
▁escorted	-13957
▁sufficiency	-13958
▁reorient	-13959
▁synchron	-13960
▁hell	-13961
▁contends	-13962
▁nicosia	-13963
▁ascertained	-13964
▁sky	-13965
▁adoptive	-13966
▁revert	-13967
▁notifying	-13968
gery	-13969
▁goc	-13970
▁toys	-13971
▁encumbered	-13972
▁lg	-13973
wear	-13974
▁oct	-13975
▁spon	-13976
run	-13977
▁cylinder	-13978
▁jurisdictional	-13979
▁persisted	-13980
▁stockpile	-13981
fast	-13982
▁kamp	-13983
▁fuelled	-13984
▁audiences	-13985
▁ja	-13986
▁coating	-13987
▁rockets	-13988
▁anthropogenic	-13989
▁fauna	-13990
▁maltese	-13991
▁santiago	-13992
▁sister	-13993
ghts	-13994
▁geosp	-13995
▁testify	-13996
avier	-13997
▁angel	-13998
▁irrelevant	-13999
▁om	-14000
▁dark	-14001
▁tape	-14002
ecurity	-14003
▁clinic	-14004
had	-14005
▁intentionally	-14006
[...]
