<unk>	0
<s>	0
</s>	0
｟up｠	0
｟aup｠	0
@@	-0
▁@@	-1
up	-2
▁⦅	-3
on	-4
▁d	-5
es	-6
▁a	-7
ti	-8
▁t	-9
en	-10
▁l	-11
▁p	-12
▁c	-13
in	-14
er	-15
▁s	-16
▁th	-17
re	-18
tion	-19
an	-20
▁@@,	-21
▁o	-22
▁de	-23
▁the	-24
is	-25
ent	-26
it	-27
▁@@.	-28
▁e	-29
or	-30
al	-31
ur	-32
ation	-33
▁in	-34
▁m	-35
ar	-36
▁@@'	-37
▁@@'@@	-38
▁f	-39
ro	-40
qu	-41
▁of	-42
un	-43
at	-44
▁la	-45
ment	-46
▁an	-47
▁n	-48
om	-49
ed	-50
▁b	-51
▁r	-52
▁@@0	-53
ic	-54
le	-55
▁con	-56
▁to	-57
▁re	-58
▁w	-59
il	-60
▁des	-61
▁and	-62
▁et	-63
▁@@0@@	-64
1@@	-65
▁le	-66
2@@	-67
▁un	-68
▁en	-69
▁pro	-70
si	-71
▁les	-72
ve	-73
ra	-74
ce	-75
aup	-76
te	-77
▁com	-78
▁h	-79
us	-80
▁à	-81
▁qu	-82
▁g	-83
▁po	-84
▁é	-85
ing	-86
▁au	-87
▁par	-88
as	-89
ec	-90
ant	-91
ul	-92
ri	-93
▁@@)	-94
ir	-95
el	-96
(@@	-97
▁du	-98
és	-99
▁v	-100
▁1@@	-101
▁2@@	-102
me	-103
▁(@@	-104
▁on	-105
▁for	-106
▁@@-	-107
ta	-108
ci	-109
▁@@-@@	-110
▁@@9	-111
▁co	-112
ter	-113
ans	-114
▁ac	-115
pp	-116
▁@@1@@	-117
ations	-118
et	-119
▁@@/	-120
ement	-121
ol	-122
▁@@/@@	-123
▁ex	-124
▁@@9@@	-125
▁dé	-126
▁pr	-127
tr	-128
li	-129
ort	-130
▁i	-131
▁as	-132
ut	-133
▁comm	-134
op	-135
▁@@2@@	-136
sion	-137
mp	-138
▁no	-139
3@@	-140
ers	-141
ire	-142
ch	-143
▁or	-144
▁pour	-145
ig	-146
ess	-147
de	-148
mb	-149
ag	-150
ff	-151
▁dans	-152
▁be	-153
▁@@5	-154
tin	-155
ion	-156
▁so	-157
est	-158
se	-159
ér	-160
▁j	-161
di	-162
4@@	-163
ité	-164
▁ré	-165
tat	-166
tic	-167
ver	-168
▁que	-169
ab	-170
▁@@.@@	-171
▁su	-172
th	-173
que	-174
lo	-175
▁ch	-176
▁that	-177
au	-178
▁sur	-179
▁app	-180
du	-181
ac	-182
▁@@6	-183
▁ad	-184
ts	-185
▁inter	-186
té	-187
ational	-188
tions	-189
ly	-190
▁is	-191
▁@@;	-192
▁ma	-193
ure	-194
▁une	-195
▁@@8	-196
ith	-197
end	-198
▁@@7	-199
▁me	-200
ance	-201
for	-202
▁pl	-203
les	-204
tre	-205
its	-206
▁res	-207
ie	-208
▁ar	-209
lic	-210
▁with	-211
▁comp	-212
▁al	-213
urs	-214
id	-215
ate	-216
▁@@)@@	-217
ity	-218
▁wh	-219
▁@@3@@	-220
iv	-221
mes	-222
▁se	-223
▁mo	-224
ée	-225
▁@@5@@	-226
ati	-227
▁by	-228
ys	-229
ence	-230
▁@@4@@	-231
and	-232
min	-233
▁il	-234
▁imp	-235
ad	-236
▁sec	-237
res	-238
▁rep	-239
ting	-240
ées	-241
▁dis	-242
▁aux	-243
ission	-244
▁@@6@@	-245
tu	-246
um	-247
▁fa	-248
▁qui	-249
fic	-250
onn	-251
▁@@’	-252
▁tra	-253
our	-254
▁at	-255
ont	-256
▁acc	-257
form	-258
▁est	-259
oc	-260
cl	-261
▁cons	-262
▁ne	-263
▁@@’@@	-264
ven	-265
▁@@8@@	-266
ction	-267
ces	-268
▁@@7@@	-269
lement	-270
os	-271
▁intern	-272
ties	-273
der	-274
▁ag	-275
vel	-276
▁ra	-277
▁exp	-278
ud	-279
ist	-280
▁sh	-281
▁pa	-282
ques	-283
▁ce	-284
gan	-285
st	-286
▁ou	-287
ale	-288
ne	-289
ue	-290
▁ser	-291
▁organ	-292
▁stat	-293
ub	-294
▁sp	-295
▁rec	-296
▁per	-297
▁prog	-298
▁reg	-299
▁3@@	-300
ct	-301
▁@@:	-302
ies	-303
ere	-304
éc	-305
▁ob	-306
ain	-307
ires	-308
tive	-309
igh	-310
▁go	-311
▁eff	-312
cer	-313
ten	-314
▁international	-315
ord	-316
ures	-317
▁tr	-318
▁commission	-319
▁coun	-320
aux	-321
▁fin	-322
▁are	-323
▁ins	-324
én	-325
▁ass	-326
ision	-327
▁pe	-328
tri	-329
▁it	-330
▁artic	-331
va	-332
ap	-333
ves	-334
ère	-335
▁sa	-336
ard	-337
ram	-338
▁memb	-339
vi	-340
able	-341
all	-342
ants	-343
ons	-344
ary	-345
▁ent	-346
vern	-347
▁program	-348
im	-349
ments	-350
ution	-351
▁y	-352
uld	-353
ill	-354
tab	-355
cip	-356
▁inform	-357
cial	-358
ge	-359
▁pré	-360
▁nations	-361
aire	-362
▁dro	-363
▁commun	-364
lis	-365
og	-366
▁pers	-367
ré	-368
rom	-369
▁pas	-370
ph	-371
▁article	-372
tif	-373
aires	-374
▁proc	-375
▁état	-376
ient	-377
ités	-378
ich	-379
▁gro	-380
▁@@1	-381
▁its	-382
▁ha	-383
▁5	-384
▁eur	-385
▁concer	-386
▁ont	-387
iz	-388
ted	-389
ens	-390
▁mar	-391
▁am	-392
ated	-393
titu	-394
▁national	-395
ég	-396
▁rel	-397
ork	-398
▁was	-399
▁conf	-400
ond	-401
▁pre	-402
▁from	-403
ign	-404
vic	-405
▁été	-406
▁di	-407
ise	-408
▁sont	-409
ould	-410
▁trans	-411
am	-412
velop	-413
▁parti	-414
uv	-415
▁develop	-416
tain	-417
▁ses	-418
ux	-419
▁sup	-420
▁sub	-421
▁which	-422
▁resp	-423
▁do	-424
▁es	-425
con	-426
▁k	-427
▁4@@	-428
od	-429
ther	-430
▁rapp	-431
ésent	-432
▁ter	-433
▁this	-434
▁not	-435
▁min	-436
age	-437
ari	-438
▁op	-439
raph	-440
ited	-441
duc	-442
▁@@2	-443
▁li	-444
▁af	-445
ace	-446
▁prop	-447
ug	-448
▁str	-449
▁servic	-450
▁europ	-451
▁group	-452
vention	-453
ite	-454
▁prov	-455
▁organis	-456
▁5@@	-457
▁6	-458
"@@	-459
ès	-460
ult	-461
ique	-462
▁hum	-463
éri	-464
▁pays	-465
▁@@3	-466
▁mon	-467
ors	-468
▁man	-469
▁concern	-470
jec	-471
▁righ	-472
▁ab	-473
▁rés	-474
▁commit	-475
▁ti	-476
ème	-477
▁ê	-478
▁vi	-479
▁gen	-480
ial	-481
▁sys	-482
▁pri	-483
▁plus	-484
▁dire	-485
▁être	-486
ang	-487
▁@@4	-488
▁pub	-489
conom	-490
▁int	-491
par	-492
▁ind	-493
▁ave	-494
▁acti	-495
eral	-496
ech	-497
▁avec	-498
olution	-499
sib	-500
omm	-501
ements	-502
▁bas	-503
▁entre	-504
orts	-505
agraph	-506
▁supp	-507
▁he	-508
▁appro	-509
elle	-510
em	-511
gal	-512
iss	-513
▁united	-514
ous	-515
ales	-516
▁-	-517
jet	-518
▁paragraph	-519
▁rég	-520
▁gén	-521
▁av	-522
▁cet	-523
▁their	-524
▁all	-525
tres	-526
▁programme	-527
▁cent	-528
oir	-529
velo	-530
pr	-531
▁si	-532
velopp	-533
▁work	-534
▁consi	-535
▁human	-536
tor	-537
▁développ	-538
▁incl	-539
▁ques	-540
▁el	-541
▁adop	-542
▁6@@	-543
int	-544
▁has	-545
▁cas	-546
tee	-547
▁disp	-548
mo	-549
cision	-550
▁have	-551
▁ces	-552
▁requ	-553
ow	-554
▁7	-555
tru	-556
iti	-557
▁under	-558
ild	-559
▁part	-560
▁us	-561
ative	-562
▁droits	-563
▁conse	-564
▁dem	-565
▁personn	-566
ak	-567
▁accord	-568
▁non	-569
▁partic	-570
▁génér	-571
ulation	-572
▁particul	-573
ine	-574
und	-575
ents	-576
▁rights	-577
ier	-578
▁form	-579
semb	-580
▁states	-581
▁finan	-582
▁développement	-583
uti	-584
▁committee	-585
ore	-586
▁out	-587
▁convention	-588
▁information	-589
▁poli	-590
▁@@,@@	-591
▁general	-592
▁mes	-593
▁applic	-594
▁env	-595
osi	-596
▁development	-597
▁états	-598
▁been	-599
▁govern	-600
uation	-601
mber	-602
vail	-603
▁other	-604
echn	-605
▁techn	-606
▁import	-607
so	-608
▁inc	-609
▁services	-610
ues	-611
▁"@@	-612
trib	-613
▁spec	-614
▁9	-615
ia	-616
tablis	-617
▁présent	-618
lig	-619
▁offic	-620
ose	-621
ress	-622
▁autres	-623
▁conseil	-624
▁8	-625
▁produ	-626
▁coop	-627
▁prote	-628
ities	-629
▁leur	-630
▁pos	-631
▁cer	-632
▁also	-633
ins	-634
ric	-635
▁had	-636
▁ro	-637
▁aff	-638
ip	-639
els	-640
ms	-641
ait	-642
rit	-643
▁should	-644
iques	-645
cil	-646
▁fac	-647
▁ren	-648
èg	-649
ong	-650
tra	-651
▁ref	-652
▁comité	-653
▁emp	-654
enti	-655
▁report	-656
ien	-657
▁:	-658
▁particip	-659
▁diff	-660
▁session	-661
▁polic	-662
▁te	-663
▁recomm	-664
▁mil	-665
elles	-666
▁public	-667
▁cette	-668
ear	-669
▁7@@	-670
▁rapport	-671
▁cap	-672
low	-673
bre	-674
uvern	-675
▁enf	-676
▁prin	-677
▁bo	-678
▁hom	-679
▁pres	-680
tes	-681
▁will	-682
▁règ	-683
▁shall	-684
▁plan	-685
▁were	-686
▁son	-687
▁sit	-688
ises	-689
▁direc	-690
▁soci	-691
▁nu	-692
▁child	-693
teur	-694
▁princip	-695
▁contin	-696
▁sta	-697
▁parties	-698
ande	-699
ération	-700
▁nom	-701
▁effec	-702
▁disc	-703
▁council	-704
▁st	-705
ical	-706
▁car	-707
ément	-708
▁dur	-709
tiques	-710
▁inv	-711
▁unies	-712
▁gouvern	-713
are	-714
▁vis	-715
tries	-716
▁égal	-717
ute	-718
▁assemb	-719
ui	-720
▁membres	-721
▁includ	-722
▁viol	-723
ix	-724
▁activ	-725
ret	-726
olog	-727
tique	-728
ière	-729
▁we	-730
▁ann	-731
▁doc	-732
▁protection	-733
▁europe	-734
▁tout	-735
▁év	-736
▁donn	-737
▁institu	-738
rimin	-739
ay	-740
▁gr	-741
▁union	-742
ib	-743
▁9@@	-744
▁social	-745
▁countries	-746
fication	-747
▁envir	-748
▁such	-749
▁rép	-750
▁tak	-751
tis	-752
éd	-753
ust	-754
oun	-755
▁col	-756
▁projet	-757
▁spé	-758
ive	-759
atives	-760
▁cl	-761
▁8@@	-762
▁docu	-763
ugh	-764
▁there	-765
nex	-766
▁action	-767
ères	-768
▁organiz	-769
▁admin	-770
▁fem	-771
isation	-772
ources	-773
▁respec	-774
▁travail	-775
▁state	-776
out	-777
istr	-778
▁lo	-779
▁implement	-780
▁comme	-781
ille	-782
▁dev	-783
▁mesures	-784
▁process	-785
dition	-786
▁fait	-787
abil	-788
▁uti	-789
get	-790
cep	-791
▁elle	-792
▁promo	-793
▁government	-794
écur	-795
▁fond	-796
▁law	-797
▁ain	-798
erv	-799
▁contrib	-800
eration	-801
▁région	-802
▁ainsi	-803
▁auth	-804
▁annex	-805
▁can	-806
ty	-807
▁char	-808
ice	-809
iew	-810
▁certain	-811
▁él	-812
▁jus	-813
écurité	-814
▁question	-815
ell	-816
ren	-817
▁would	-818
ach	-819
cc	-820
ences	-821
▁support	-822
▁rev	-823
pec	-824
▁four	-825
▁iss	-826
ating	-827
mment	-828
▁sécurité	-829
ke	-830
▁syste	-831
▁objec	-832
▁dép	-833
▁indi	-834
omen	-835
▁up	-836
▁author	-837
▁nou	-838
▁programmes	-839
lec	-840
▁assist	-841
met	-842
▁member	-843
▁inf	-844
▁provid	-845
▁règlement	-846
▁autor	-847
▁cor	-848
▁new	-849
▁gu	-850
▁cour	-851
▁dom	-852
▁application	-853
ome	-854
▁met	-855
▁meas	-856
▁repr	-857
▁vo	-858
▁économ	-859
▁point	-860
▁jo	-861
ances	-862
▁may	-863
etw	-864
▁econom	-865
▁women	-866
▁propos	-867
▁1	-868
▁paragraphe	-869
gr	-870
▁droit	-871
▁main	-872
ariat	-873
▁enc	-874
▁secur	-875
her	-876
▁@@(@@	-877
▁éta	-878
▁possib	-879
▁constitu	-880
fi	-881
che	-882
▁europé	-883
▁year	-884
reat	-885
▁contre	-886
▁@@]	-887
[@@	-888
tablish	-889
▁establish	-890
▁including	-891
▁mat	-892
▁secret	-893
>@@	-894
▁gouvernement	-895
ile	-896
▁region	-897
enne	-898
lev	-899
▁pra	-900
▁obs	-901
clar	-902
▁add	-903
▁%	-904
▁secré	-905
▁ca	-906
ide	-907
▁ten	-908
▁leurs	-909
▁men	-910
▁bud	-911
▁tro	-912
ory	-913
▁security	-914
▁civ	-915
▁homme	-916
▁initi	-917
▁également	-918
▁[@@	-919
oci	-920
▁syst	-921
▁cad	-922
ese	-923
▁fol	-924
ante	-925
▁emplo	-926
▁femmes	-927
▁situation	-928
▁activités	-929
<@@	-930
▁deux	-931
ducation	-932
erg	-933
tention	-934
▁cré	-935
▁tous	-936
▁follow	-937
▁ii	-938
ais	-939
▁regard	-940
▁utilis	-941
mbre	-942
▁nombre	-943
▁loc	-944
▁général	-945
lique	-946
ament	-947
tical	-948
tamment	-949
▁conform	-950
▁consider	-951
▁suiv	-952
▁décision	-953
▁déf	-954
▁disposi	-955
man	-956
▁coord	-957
▁exa	-958
▁z	-959
cy	-960
▁sign	-961
tifs	-962
try	-963
▁représent	-964
▁mission	-965
▁cha	-966
ditions	-967
cid	-968
▁pop	-969
▁consid	-970
▁more	-971
▁enfants	-972
taire	-973
ussi	-974
▁exper	-975
▁groupe	-976
ivers	-977
rait	-978
sid	-979
▁ens	-980
▁agre	-981
▁european	-982
▁apr	-983
▁0	-984
▁eng	-985
▁efforts	-986
yp	-987
▁organisation	-988
eting	-989
▁prob	-990
go	-991
▁decision	-992
isl	-993
▁@@"	-994
▁any	-995
▁meeting	-996
▁fo	-997
▁inté	-998
▁need	-999
▁cadre	-1000
▁prév	-1001
▁march	-1002
▁sous	-1003
▁ph	-1004
▁fon	-1005
utions	-1006
▁sus	-1007
▁children	-1008
écess	-1009
▁level	-1010
pend	-1011
rough	-1012
▁0@@	-1013
abor	-1014
▁mise	-1015
▁ver	-1016
▁nécess	-1017
tière	-1018
▁resolution	-1019
▁conditions	-1020
▁into	-1021
▁nor	-1022
▁assistance	-1023
▁résolution	-1024
tro	-1025
▁concernant	-1026
een	-1027
ase	-1028
▁implementation	-1029
▁require	-1030
▁measures	-1031
aine	-1032
tice	-1033
act	-1034
▁notamment	-1035
▁system	-1036
▁special	-1037
érence	-1038
anti	-1039
▁where	-1040
▁betw	-1041
▁between	-1042
▁fam	-1043
▁economic	-1044
als	-1045
▁particular	-1046
▁fund	-1047
uvre	-1048
▁lors	-1049
▁dra	-1050
▁id	-1051
ural	-1052
ables	-1053
ific	-1054
▁capac	-1055
ris	-1056
▁provision	-1057
▁those	-1058
▁mê	-1059
▁ava	-1060
▁regulation	-1061
▁personnes	-1062
teurs	-1063
▁document	-1064
▁lib	-1065
▁they	-1066
▁ori	-1067
agement	-1068
tant	-1069
▁place	-1070
erence	-1071
▁fourn	-1072
iter	-1073
▁these	-1074
ft	-1075
mm	-1076
▁made	-1077
▁repres	-1078
▁ress	-1079
▁faire	-1080
ième	-1081
co	-1082
atif	-1083
▁budget	-1084
▁compte	-1085
▁one	-1086
endre	-1087
▁nive	-1088
▁tri	-1089
erc	-1090
use	-1091
ates	-1092
king	-1093
▁partie	-1094
▁dont	-1095
▁contr	-1096
▁oblig	-1097
vities	-1098
▁through	-1099
▁ju	-1100
▁activities	-1101
eld	-1102
ving	-1103
ôle	-1104
▁ris	-1105
▁transp	-1106
▁2	-1107
▁questions	-1108
▁eu	-1109
pri	-1110
▁high	-1111
enn	-1112
eng	-1113
▁concl	-1114
▁over	-1115
▁rem	-1116
▁equ	-1117
one	-1118
red	-1119
▁renfor	-1120
tent	-1121
anis	-1122
▁again	-1123
sions	-1124
tives	-1125
▁instru	-1126
tit	-1127
▁lim	-1128
ally	-1129
▁off	-1130
atég	-1131
▁peut	-1132
▁afin	-1133
▁discrimin	-1134
ility	-1135
ats	-1136
▁milli	-1137
▁ec	-1138
▁use	-1139
▁ils	-1140
▁ur	-1141
oire	-1142
▁continu	-1143
▁prem	-1144
▁bien	-1145
ree	-1146
▁environ	-1147
▁coordin	-1148
ages	-1149
ved	-1150
ks	-1151
▁fra	-1152
▁système	-1153
▁incre	-1154
alth	-1155
▁conformément	-1156
▁set	-1157
ll	-1158
▁sex	-1159
rie	-1160
▁produc	-1161
▁matière	-1162
ely	-1163
▁civil	-1164
aut	-1165
▁directive	-1166
▁country	-1167
▁recommend	-1168
▁represent	-1169
anc	-1170
▁occ	-1171
▁lég	-1172
▁déclar	-1173
▁aid	-1174
▁service	-1175
▁afric	-1176
▁fr	-1177
uis	-1178
▁réun	-1179
▁community	-1180
sive	-1181
tim	-1182
iod	-1183
▁dél	-1184
▁oper	-1185
▁effic	-1186
▁assur	-1187
▁internationale	-1188
▁nous	-1189
▁moy	-1190
▁@@"@@	-1191
▁but	-1192
▁toute	-1193
▁period	-1194
av	-1195
antes	-1196
▁sé	-1197
▁institutions	-1198
if	-1199
ards	-1200
▁examin	-1201
ange	-1202
▁présid	-1203
▁cours	-1204
▁ord	-1205
▁peop	-1206
▁même	-1207
▁ach	-1208
▁contra	-1209
ateg	-1210
▁qual	-1211
▁if	-1212
▁who	-1213
▁respect	-1214
wn	-1215
▁éch	-1216
fore	-1217
arm	-1218
▁ess	-1219
▁against	-1220
▁générale	-1221
▁health	-1222
▁jour	-1223
▁order	-1224
ass	-1225
▁loi	-1226
▁appropri	-1227
▁indic	-1228
▁demande	-1229
▁amend	-1230
▁cult	-1231
▁sol	-1232
▁ev	-1233
▁priv	-1234
▁territ	-1235
éli	-1236
▁prof	-1237
▁than	-1238
rab	-1239
▁fur	-1240
▁après	-1241
▁assembly	-1242
▁communic	-1243
tement	-1244
alis	-1245
▁dep	-1246
▁demand	-1247
ateurs	-1248
▁tw	-1249
ject	-1250
▁dat	-1251
▁mé	-1252
▁3	-1253
▁facil	-1254
mit	-1255
▁doit	-1256
▁informations	-1257
▁spécial	-1258
▁prior	-1259
▁coopération	-1260
lée	-1261
lob	-1262
termin	-1263
▁financial	-1264
▁cooperation	-1265
▁permet	-1266
▁respon	-1267
uvent	-1268
▁gar	-1269
▁mondi	-1270
▁@@>@@	-1271
▁ressources	-1272
ature	-1273
▁cri	-1274
▁peace	-1275
une	-1276
▁tot	-1277
ld	-1278
▁posi	-1279
ars	-1280
▁relev	-1281
▁ve	-1282
▁personnel	-1283
▁base	-1284
▁œ	-1285
▁péri	-1286
▁mais	-1287
▁mal	-1288
▁number	-1289
▁équ	-1290
ern	-1291
▁commer	-1292
ines	-1293
▁appli	-1294
▁well	-1295
▁ensure	-1296
▁financi	-1297
▁jur	-1298
▁fir	-1299
▁administr	-1300
estion	-1301
▁fonction	-1302
▁further	-1303
▁vol	-1304
▁toutes	-1305
▁how	-1306
rent	-1307
▁anal	-1308
ish	-1309
▁<@@	-1310
▁éval	-1311
▁provided	-1312
▁fe	-1313
▁inves	-1314
▁glob	-1315
▁population	-1316
▁bure	-1317
▁famil	-1318
▁associ	-1319
▁préc	-1320
ours	-1321
▁observ	-1322
▁within	-1323
▁prot	-1324
▁données	-1325
▁request	-1326
land	-1327
▁addition	-1328
▁office	-1329
▁justice	-1330
▁sc	-1331
eurs	-1332
▁sep	-1333
▁soit	-1334
▁discrimination	-1335
▁ci	-1336
▁violence	-1337
itation	-1338
▁following	-1339
▁assemblée	-1340
▁je	-1341
▁port	-1342
èmes	-1343
cent	-1344
▁recommand	-1345
ules	-1346
▁gestion	-1347
▁actu	-1348
▁cro	-1349
▁sel	-1350
▁niveau	-1351
ters	-1352
▁oct	-1353
▁politiques	-1354
▁réunion	-1355
▁communaut	-1356
▁possible	-1357
▁mand	-1358
▁adv	-1359
▁œuvre	-1360
▁entrepr	-1361
▁val	-1362
▁provi	-1363
▁dispositions	-1364
ets	-1365
▁environment	-1366
▁accoun	-1367
▁typ	-1368
ode	-1369
▁jud	-1370
leg	-1371
▁sans	-1372
▁wor	-1373
▁technolog	-1374
▁secrétaire	-1375
▁bel	-1376
▁repub	-1377
▁encour	-1378
mission	-1379
▁during	-1380
▁secretary	-1381
hip	-1382
▁participation	-1383
▁proced	-1384
▁organisations	-1385
▁modi	-1386
▁members	-1387
▁working	-1388
▁@@?	-1389
lear	-1390
▁arr	-1391
▁ful	-1392
▁aut	-1393
tric	-1394
▁provide	-1395
ual	-1396
▁draft	-1397
▁republic	-1398
ivent	-1399
▁legal	-1400
amen	-1401
aient	-1402
▁exerc	-1403
▁protoc	-1404
▁review	-1405
ian	-1406
▁aussi	-1407
▁regional	-1408
uvoir	-1409
▁consult	-1410
▁ég	-1411
tionn	-1412
▁temp	-1413
▁relevant	-1414
▁nouvel	-1415
▁vic	-1416
▁train	-1417
▁respons	-1418
▁était	-1419
▁management	-1420
iste	-1421
▁arm	-1422
▁européenne	-1423
▁sant	-1424
▁exéc	-1425
▁mod	-1426
ency	-1427
▁répub	-1428
▁only	-1429
▁time	-1430
oll	-1431
cri	-1432
▁spéci	-1433
▁def	-1434
▁rece	-1435
ones	-1436
duction	-1437
▁his	-1438
▁world	-1439
ef	-1440
▁note	-1441
ule	-1442
▁transport	-1443
▁employ	-1444
▁accordance	-1445
onc	-1446
▁pris	-1447
▁education	-1448
onnement	-1449
▁effective	-1450
▁police	-1451
▁long	-1452
▁conférence	-1453
▁république	-1454
▁améli	-1455
▁mul	-1456
▁politique	-1457
▁considér	-1458
▁some	-1459
▁inde	-1460
mple	-1461
▁amélior	-1462
▁paix	-1463
ety	-1464
▁sou	-1465
▁persons	-1466
lect	-1467
ru	-1468
▁first	-1469
▁économique	-1470
▁santé	-1471
▁resources	-1472
▁stand	-1473
led	-1474
islation	-1475
▁président	-1476
▁treat	-1477
▁comb	-1478
uses	-1479
igr	-1480
▁établis	-1481
cher	-1482
▁én	-1483
▁production	-1484
aines	-1485
▁must	-1486
▁conference	-1487
▁vue	-1488
▁important	-1489
▁total	-1490
▁people	-1491
▁policy	-1492
uer	-1493
▁end	-1494
▁examen	-1495
▁charg	-1496
▁two	-1497
vement	-1498
▁er	-1499
▁réf	-1500
limin	-1501
istra	-1502
▁étab	-1503
▁impro	-1504
▁cur	-1505
▁party	-1506
▁trib	-1507
▁administra	-1508
▁particulier	-1509
▁défin	-1510
▁jan	-1511
▁doll	-1512
▁stratég	-1513
▁regul	-1514
▁mark	-1515
▁avait	-1516
omp	-1517
quer	-1518
ition	-1519
oris	-1520
▁compé	-1521
osition	-1522
▁conn	-1523
▁explo	-1524
▁titre	-1525
▁indus	-1526
▁aide	-1527
ast	-1528
lem	-1529
▁fonds	-1530
tés	-1531
▁coordination	-1532
▁strateg	-1533
▁subst	-1534
▁inte	-1535
▁rais	-1536
▁4	-1537
▁leg	-1538
ocra	-1539
▁organizations	-1540
til	-1541
▁annexe	-1542
hic	-1543
▁avant	-1544
ilité	-1545
▁bi	-1546
▁br	-1547
entif	-1548
▁statis	-1549
▁intér	-1550
▁trois	-1551
▁date	-1552
ou	-1553
▁milit	-1554
▁environnement	-1555
▁imm	-1556
ight	-1557
oy	-1558
▁issues	-1559
▁minis	-1560
▁dollars	-1561
ner	-1562
▁could	-1563
▁nouve	-1564
▁global	-1565
▁present	-1566
cr	-1567
raient	-1568
xt	-1569
▁conclu	-1570
▁terr	-1571
▁bureau	-1572
ot	-1573
▁ban	-1574
▁intégr	-1575
▁ali	-1576
ession	-1577
cture	-1578
dies	-1579
▁compris	-1580
▁data	-1581
▁based	-1582
▁second	-1583
ici	-1584
▁sch	-1585
ov	-1586
▁octo	-1587
▁produits	-1588
▁lie	-1589
quent	-1590
seign	-1591
▁probl	-1592
▁autre	-1593
▁ans	-1594
ellement	-1595
▁address	-1596
▁doivent	-1597
▁nove	-1598
▁formation	-1599
old	-1600
ationaux	-1601
▁transf	-1602
▁direct	-1603
ctions	-1604
ecess	-1605
▁septe	-1606
▁code	-1607
▁crimin	-1608
▁force	-1609
▁aug	-1610
▁maj	-1611
▁right	-1612
▁élabor	-1613
été	-1614
▁act	-1615
▁years	-1616
▁view	-1617
▁dém	-1618
▁étu	-1619
gin	-1620
▁victi	-1621
▁adoption	-1622
rès	-1623
▁inst	-1624
▁humanit	-1625
▁refer	-1626
▁being	-1627
▁them	-1628
▁take	-1629
▁elles	-1630
▁specific	-1631
ever	-1632
▁prac	-1633
ai	-1634
ength	-1635
▁rappor	-1636
▁établiss	-1637
ince	-1638
▁période	-1639
▁areas	-1640
▁adopted	-1641
ized	-1642
▁où	-1643
▁centr	-1644
▁adopté	-1645
▁infra	-1646
▁peuvent	-1647
▁training	-1648
▁différ	-1649
▁inclu	-1650
tern	-1651
▁responsib	-1652
▁necess	-1653
▁tribun	-1654
▁trav	-1655
▁selon	-1656
▁affec	-1657
▁bu	-1658
▁cel	-1659
▁administration	-1660
▁see	-1661
▁importance	-1662
▁med	-1663
▁political	-1664
▁chang	-1665
▁comple	-1666
ss	-1667
▁moins	-1668
▁communauté	-1669
ffic	-1670
▁assess	-1671
▁procé	-1672
▁essenti	-1673
ente	-1674
▁ir	-1675
ful	-1676
▁six	-1677
▁centre	-1678
irm	-1679
▁concerne	-1680
ois	-1681
▁taken	-1682
▁gra	-1683
▁section	-1684
▁when	-1685
▁déb	-1686
▁agreement	-1687
ium	-1688
▁access	-1689
▁court	-1690
▁agric	-1691
▁local	-1692
ints	-1693
▁staff	-1694
ings	-1695
▁opp	-1696
▁organization	-1697
▁mont	-1698
▁esp	-1699
▁experts	-1700
▁related	-1701
aiss	-1702
▁vari	-1703
▁résul	-1704
▁case	-1705
▁stru	-1706
▁post	-1707
▁fé	-1708
$@@	-1709
▁fi	-1710
érie	-1711
▁sout	-1712
endant	-1713
entes	-1714
ole	-1715
▁provisions	-1716
▁authorities	-1717
▁mettre	-1718
az	-1719
▁relatives	-1720
lac	-1721
▁outre	-1722
ancement	-1723
▁continue	-1724
▁isra	-1725
dit	-1726
ind	-1727
▁mr	-1728
fe	-1729
▁autorités	-1730
▁sy	-1731
▁bes	-1732
▁contrôle	-1733
▁devrait	-1734
▁univers	-1735
▁dern	-1736
▁processus	-1737
orte	-1738
▁strength	-1739
▁exe	-1740
▁appui	-1741
▁und	-1742
tional	-1743
▁condu	-1744
▁conte	-1745
▁pass	-1746
▁increas	-1747
▁lar	-1748
▁discus	-1749
▁@@»	-1750
ced	-1751
▁trade	-1752
▁assurer	-1753
▁cir	-1754
▁sen	-1755
▁compl	-1756
▁égard	-1757
ender	-1758
atis	-1759
▁mis	-1760
▁sal	-1761
▁technical	-1762
▁perman	-1763
▁contro	-1764
▁ben	-1765
ital	-1766
▁lut	-1767
▁pur	-1768
▁fonctionn	-1769
▁however	-1770
▁intro	-1771
ied	-1772
ning	-1773
▁frame	-1774
▁deleg	-1775
▁nature	-1776
▁necessary	-1777
▁sci	-1778
▁achie	-1779
▁cli	-1780
▁beso	-1781
▁lieu	-1782
work	-1783
▁presid	-1784
▁pén	-1785
▁criminal	-1786
▁engag	-1787
▁promotion	-1788
reg	-1789
▁contain	-1790
▁fig	-1791
▁urg	-1792
▁current	-1793
vidu	-1794
▁individu	-1795
▁sustain	-1796
▁documents	-1797
alestin	-1798
ha	-1799
▁déce	-1800
▁palestin	-1801
cement	-1802
▁opér	-1803
él	-1804
▁diffic	-1805
ains	-1806
▁relative	-1807
▁submit	-1808
ber	-1809
▁objectifs	-1810
▁basis	-1811
▁résultat	-1812
▁dece	-1813
▁onu	-1814
▁estim	-1815
▁trait	-1816
▁délég	-1817
▁domaine	-1818
ization	-1819
▁articles	-1820
▁developing	-1821
▁sour	-1822
ry	-1823
▁avoir	-1824
abilité	-1825
truction	-1826
ites	-1827
▁coll	-1828
▁évaluation	-1829
mis	-1830
ep	-1831
▁occup	-1832
▁since	-1833
▁cal	-1834
▁framework	-1835
▁ordre	-1836
idi	-1837
qué	-1838
▁culture	-1839
▁divers	-1840
▁established	-1841
▁major	-1842
▁travaux	-1843
▁call	-1844
des	-1845
▁strengthen	-1846
▁décembre	-1847
▁div	-1848
▁accès	-1849
▁december	-1850
▁type	-1851
tig	-1852
rique	-1853
▁avail	-1854
▁mesure	-1855
istan	-1856
oles	-1857
▁sector	-1858
ateur	-1859
▁déclaration	-1860
▁bec	-1861
▁lui	-1862
▁rapporteur	-1863
ater	-1864
yant	-1865
▁objet	-1866
▁obligations	-1867
▁relatif	-1868
▁nationale	-1869
▁held	-1870
▁visant	-1871
▁giv	-1872
tation	-1873
▁auc	-1874
▁appropriate	-1875
▁exist	-1876
▁let	-1877
▁migr	-1878
tariat	-1879
▁secteur	-1880
▁attention	-1881
▁most	-1882
▁som	-1883
usi	-1884
▁éducation	-1885
▁thir	-1886
▁communication	-1887
▁her	-1888
▁item	-1889
▁progress	-1890
gn	-1891
venir	-1892
▁secrétariat	-1893
air	-1894
▁cin	-1895
«@@	-1896
▁sud	-1897
▁monit	-1898
▁capacity	-1899
▁asi	-1900
alisation	-1901
▁enqu	-1902
▁méc	-1903
▁both	-1904
▁requirements	-1905
su	-1906
▁parli	-1907
ared	-1908
dic	-1909
▁used	-1910
▁destin	-1911
▁certains	-1912
▁fix	-1913
▁integr	-1914
▁projets	-1915
xim	-1916
▁surve	-1917
▁each	-1918
▁pros	-1919
▁consul	-1920
▁bén	-1921
▁fut	-1922
▁hand	-1923
▁juridi	-1924
dure	-1925
▁ensemb	-1926
▁identif	-1927
▁cre	-1928
▁parlement	-1929
▁cases	-1930
▁liber	-1931
▁invol	-1932
xte	-1933
▁fre	-1934
ether	-1935
▁x	-1936
▁concerned	-1937
uel	-1938
▁conven	-1939
ality	-1940
▁market	-1941
part	-1942
▁while	-1943
▁secretariat	-1944
▁about	-1945
▁depuis	-1946
▁prendre	-1947
▁lab	-1948
▁procédure	-1949
▁atte	-1950
▁after	-1951
gh	-1952
very	-1953
▁—	-1954
▁ensemble	-1955
▁instruments	-1956
▁accep	-1957
▁parliament	-1958
▁soient	-1959
▁dés	-1960
▁agend	-1961
loc	-1962
iers	-1963
▁resul	-1964
▁renforcer	-1965
▁acqu	-1966
▁arab	-1967
▁enquê	-1968
orting	-1969
▁profession	-1970
▁pen	-1971
▁mécanis	-1972
▁air	-1973
▁forces	-1974
▁«@@	-1975
rim	-1976
▁guid	-1977
▁rapports	-1978
▁éc	-1979
▁pay	-1980
▁same	-1981
iser	-1982
▁ayant	-1983
▁relations	-1984
▁atta	-1985
▁ple	-1986
ability	-1987
▁armes	-1988
ods	-1989
▁affaires	-1990
▁chaque	-1991
▁$@@	-1992
now	-1993
▁impact	-1994
tiss	-1995
▁béné	-1996
▁minist	-1997
fied	-1998
▁reconn	-1999
▁agenda	-2000
▁control	-2001
▁stu	-2002
vent	-2003
▁marché	-2004
ograph	-2005
▁among	-2006
▁@@<	-2007
▁enti	-2008
▁person	-2009
▁procéd	-2010
▁without	-2011
▁société	-2012
voir	-2013
▁manière	-2014
▁chap	-2015
▁utilisation	-2016
ger	-2017
▁iii	-2018
▁account	-2019
▁monitor	-2020
▁subject	-2021
▁rules	-2022
▁export	-2023
▁internationales	-2024
▁tant	-2025
▁abs	-2026
▁tur	-2027
usieurs	-2028
▁plusieurs	-2029
▁express	-2030
▁build	-2031
▁ue	-2032
▁nég	-2033
ays	-2034
▁ret	-2035
▁>@@	-2036
▁poursu	-2037
▁cr	-2038
ogn	-2039
▁before	-2040
alog	-2041
▁referred	-2042
▁résultats	-2043
▁recogn	-2044
▁rap	-2045
▁déc	-2046
▁montant	-2047
ners	-2048
▁parten	-2049
▁interest	-2050
▁area	-2051
▁accomp	-2052
table	-2053
auv	-2054
▁vers	-2055
▁constitution	-2056
ières	-2057
olutions	-2058
▁available	-2059
▁étaient	-2060
▁issue	-2061
▁grand	-2062
▁présente	-2063
▁organismes	-2064
▁table	-2065
▁million	-2066
▁publi	-2067
▁groupes	-2068
▁ste	-2069
▁reports	-2070
▁extra	-2071
▁rôle	-2072
▁européen	-2073
▁tribunal	-2074
▁relig	-2075
▁therefore	-2076
▁abo	-2077
▁crit	-2078
▁official	-2079
▁ta	-2080
▁points	-2081
▁exercice	-2082
▁équip	-2083
▁fav	-2084
▁june	-2085
▁third	-2086
▁satis	-2087
▁circ	-2088
▁according	-2089
▁juin	-2090
▁encore	-2091
▁bénéfic	-2092
▁many	-2093
ok	-2094
▁vie	-2095
▁purp	-2096
ined	-2097
ps	-2098
▁transfer	-2099
▁minim	-2100
équ	-2101
▁field	-2102
▁@@<@@	-2103
tend	-2104
ool	-2105
▁uni	-2106
▁réalis	-2107
▁cos	-2108
cies	-2109
▁terroris	-2110
▁mech	-2111
era	-2112
ression	-2113
▁fact	-2114
▁clim	-2115
▁lang	-2116
▁actions	-2117
▁recommandations	-2118
▁gender	-2119
▁president	-2120
▁augment	-2121
▁dialog	-2122
▁aw	-2123
▁three	-2124
▁mob	-2125
▁soul	-2126
▁garanti	-2127
▁@@]@@	-2128
▁representative	-2129
atory	-2130
▁sera	-2131
▁initiatives	-2132
▁pendant	-2133
uly	-2134
▁clo	-2135
▁recommendations	-2136
▁authority	-2137
▁détermin	-2138
▁:@@	-2139
▁projec	-2140
▁année	-2141
enses	-2142
▁opérations	-2143
▁aur	-2144
▁position	-2145
▁camp	-2146
▁orient	-2147
▁administrative	-2148
▁collabor	-2149
clear	-2150
▁concerning	-2151
▁aspec	-2152
▁industri	-2153
▁contributions	-2154
▁role	-2155
▁partners	-2156
▁given	-2157
ible	-2158
ina	-2159
▁tou	-2160
êt	-2161
▁haut	-2162
▁lead	-2163
com	-2164
▁investig	-2165
▁–	-2166
▁perform	-2167
ches	-2168
▁enseign	-2169
▁tort	-2170
▁joint	-2171
quement	-2172
▁lutte	-2173
▁groups	-2174
ious	-2175
▁u	-2176
▁differ	-2177
▁make	-2178
▁amoun	-2179
▁school	-2180
▁wel	-2181
▁excl	-2182
▁satisf	-2183
ban	-2184
▁exécution	-2185
uver	-2186
édi	-2187
▁membre	-2188
▁collec	-2189
▁mechanis	-2190
▁@@>	-2191
▁list	-2192
clé	-2193
▁considered	-2194
▁aim	-2195
▁quat	-2196
▁eth	-2197
loy	-2198
▁méth	-2199
▁améliorer	-2200
▁nécessaires	-2201
▁afrique	-2202
▁dialogue	-2203
▁nuclear	-2204
▁suite	-2205
▁means	-2206
taires	-2207
▁our	-2208
▁sustainable	-2209
▁log	-2210
▁vale	-2211
▁entit	-2212
▁durable	-2213
▁products	-2214
ceed	-2215
▁représentant	-2216
▁anti	-2217
▁purs	-2218
issant	-2219
▁iv	-2220
▁devraient	-2221
▁liv	-2222
▁coû	-2223
▁conflic	-2224
▁cover	-2225
tien	-2226
▁traité	-2227
▁analys	-2228
▁pauv	-2229
ortun	-2230
ica	-2231
orter	-2232
▁minor	-2233
▁allow	-2234
ler	-2235
ised	-2236
▁recher	-2237
▁moyens	-2238
▁tenu	-2239
▁nuclé	-2240
▁underta	-2241
resp	-2242
▁treaty	-2243
▁invest	-2244
isting	-2245
▁encourag	-2246
▁active	-2247
▁nationales	-2248
▁pouvoir	-2249
▁donc	-2250
reté	-2251
▁tran	-2252
▁financement	-2253
▁procedure	-2254
ges	-2255
▁voir	-2256
tail	-2257
nes	-2258
cup	-2259
ories	-2260
ck	-2261
▁énerg	-2262
lection	-2263
▁nécessaire	-2264
▁technique	-2265
▁confl	-2266
▁établi	-2267
▁enfant	-2268
ls	-2269
▁cn	-2270
▁remp	-2271
▁policies	-2272
▁signific	-2273
▁initiative	-2274
▁harm	-2275
▁étant	-2276
▁said	-2277
▁problèmes	-2278
paration	-2279
▁required	-2280
▁fil	-2281
▁board	-2282
▁great	-2283
enting	-2284
▁situ	-2285
▁project	-2286
esse	-2287
▁sti	-2288
▁entreprises	-2289
▁étr	-2290
▁corresp	-2291
mi	-2292
tiv	-2293
▁étrang	-2294
▁ke	-2295
illet	-2296
quelle	-2297
▁laquelle	-2298
▁millions	-2299
▁ceux	-2300
▁include	-2301
▁dec	-2302
▁whether	-2303
▁correspond	-2304
▁approach	-2305
▁mainten	-2306
▁suff	-2307
▁missions	-2308
▁égalité	-2309
▁exig	-2310
▁care	-2311
▁depart	-2312
forme	-2313
▁plans	-2314
épend	-2315
▁foc	-2316
▁mondiale	-2317
▁première	-2318
▁torture	-2319
▁own	-2320
por	-2321
▁rév	-2322
▁consultations	-2323
▁origin	-2324
▁increase	-2325
▁anim	-2326
ack	-2327
action	-2328
▁determin	-2329
▁avaient	-2330
stru	-2331
▁normes	-2332
▁prises	-2333
▁russi	-2334
▁prim	-2335
▁fore	-2336
crip	-2337
▁land	-2338
▁infrastru	-2339
▁division	-2340
▁moyen	-2341
▁central	-2342
▁head	-2343
▁taux	-2344
‘@@	-2345
la	-2346
ergy	-2347
térie	-2348
fois	-2349
ime	-2350
▁final	-2351
▁proposed	-2352
▁identi	-2353
▁impos	-2354
▁bil	-2355
▁efficac	-2356
omb	-2357
▁common	-2358
érer	-2359
▁premier	-2360
arian	-2361
tification	-2362
▁protocol	-2363
▁society	-2364
art	-2365
▁exec	-2366
▁conc	-2367
▁emploi	-2368
▁additional	-2369
▁agricult	-2370
isant	-2371
gra	-2372
▁design	-2373
▁convi	-2374
▁legislation	-2375
▁opportun	-2376
▁centres	-2377
iller	-2378
▁july	-2379
▁fun	-2380
▁nouveau	-2381
ators	-2382
▁carri	-2383
▁violations	-2384
▁juillet	-2385
▁aus	-2386
▁techniques	-2387
▁deuxième	-2388
▁économiques	-2389
▁besoins	-2390
▁having	-2391
▁aliment	-2392
▁sociale	-2393
odi	-2394
ili	-2395
uge	-2396
▁certaines	-2397
▁meth	-2398
jo	-2399
▁distrib	-2400
▁effectu	-2401
▁cy	-2402
▁ira	-2403
▁cla	-2404
▁energy	-2405
▁élec	-2406
▁temps	-2407
▁pu	-2408
▁full	-2409
ize	-2410
▁commercial	-2411
▁receiv	-2412
▁declar	-2413
ception	-2414
▁permanent	-2415
▁chair	-2416
▁autorité	-2417
▁aspects	-2418
▁elec	-2419
tific	-2420
▁submitted	-2421
occup	-2422
éra	-2423
▁monitoring	-2424
▁adap	-2425
tenti	-2426
▁ministère	-2427
▁succ	-2428
▁crime	-2429
▁rati	-2430
▁capacités	-2431
gé	-2432
hen	-2433
▁africa	-2434
▁procédures	-2435
idence	-2436
▁needs	-2437
▁effet	-2438
▁intérie	-2439
▁création	-2440
alité	-2441
▁know	-2442
erial	-2443
▁promouvoir	-2444
▁progrès	-2445
▁formul	-2446
▁consideration	-2447
val	-2448
▁operations	-2449
tics	-2450
ification	-2451
▁dépenses	-2452
▁commerce	-2453
uve	-2454
▁incid	-2455
▁préoccup	-2456
▁renforcement	-2457
▁indépend	-2458
ître	-2459
▁weap	-2460
▁environmental	-2461
▁mars	-2462
▁does	-2463
▁domaines	-2464
▁future	-2465
▁principes	-2466
▁pursu	-2467
▁rest	-2468
▁forum	-2469
▁fins	-2470
oires	-2471
▁peup	-2472
▁inspec	-2473
▁appar	-2474
▁above	-2475
▁vé	-2476
cted	-2477
▁zones	-2478
▁sever	-2479
▁cee	-2480
▁fer	-2481
▁hel	-2482
uring	-2483
▁change	-2484
lir	-2485
▁représentants	-2486
▁transi	-2487
rer	-2488
▁popul	-2489
▁analy	-2490
▁sim	-2491
rier	-2492
▁qualité	-2493
▁fed	-2494
▁soum	-2495
▁particularly	-2496
encies	-2497
ué	-2498
▁large	-2499
▁financ	-2500
ade	-2501
▁élimin	-2502
▁maxim	-2503
▁contribution	-2504
▁clear	-2505
▁sm	-2506
▁bodies	-2507
▁plac	-2508
▁vig	-2509
▁législation	-2510
▁obten	-2511
▁consulta	-2512
istry	-2513
▁family	-2514
▁sujet	-2515
▁fl	-2516
ying	-2517
▁em	-2518
missions	-2519
▁lorsque	-2520
rée	-2521
vier	-2522
▁various	-2523
igne	-2524
▁benef	-2525
▁méd	-2526
▁unis	-2527
▁rédu	-2528
▁tar	-2529
▁années	-2530
▁standards	-2531
▁exploitation	-2532
▁stoc	-2533
▁potenti	-2534
▁restric	-2535
▁enter	-2536
▁developed	-2537
ough	-2538
▁mandat	-2539
▁‘@@	-2540
airs	-2541
çon	-2542
▁démocra	-2543
ked	-2544
êts	-2545
▁term	-2546
▁down	-2547
▁test	-2548
▁democra	-2549
▁procedures	-2550
▁what	-2551
▁nouvelles	-2552
ately	-2553
▁suppl	-2554
▁month	-2555
▁règles	-2556
▁stab	-2557
▁south	-2558
eur	-2559
▁savoir	-2560
▁appel	-2561
▁risk	-2562
▁projects	-2563
▁suivi	-2564
▁judici	-2565
▁material	-2566
▁enh	-2567
▁assessment	-2568
read	-2569
▁promote	-2570
▁nouvelle	-2571
▁clas	-2572
▁transpar	-2573
mement	-2574
▁recent	-2575
▁mois	-2576
tac	-2577
▁protocole	-2578
▁féd	-2579
▁traffic	-2580
▁caract	-2581
▁eval	-2582
▁meetings	-2583
éments	-2584
▁arrang	-2585
▁domes	-2586
▁victimes	-2587
▁envis	-2588
▁très	-2589
▁cat	-2590
ueur	-2591
▁souti	-2592
▁status	-2593
▁systems	-2594
▁water	-2595
▁vehic	-2596
▁install	-2597
▁monde	-2598
▁apply	-2599
▁african	-2600
érab	-2601
▁fois	-2602
▁particulière	-2603
▁jeun	-2604
▁bienn	-2605
ém	-2606
ah	-2607
▁octobre	-2608
▁building	-2609
▁mai	-2610
▁internationaux	-2611
ieux	-2612
▁delegation	-2613
▁october	-2614
▁décisions	-2615
▁objectif	-2616
▁vertu	-2617
▁applicable	-2618
▁ear	-2619
uary	-2620
▁noted	-2621
▁independ	-2622
▁facilit	-2623
▁janvier	-2624
▁january	-2625
▁guar	-2626
▁novembre	-2627
agn	-2628
▁november	-2629
▁military	-2630
iés	-2631
▁quel	-2632
▁vul	-2633
▁levels	-2634
quel	-2635
▁observations	-2636
wer	-2637
▁opération	-2638
▁bro	-2639
▁personne	-2640
▁septembre	-2641
▁pn	-2642
ture	-2643
▁appu	-2644
▁arg	-2645
▁pratiques	-2646
ister	-2647
▁september	-2648
▁mondial	-2649
▁matéri	-2650
▁structure	-2651
▁reform	-2652
▁prévention	-2653
▁resear	-2654
▁organes	-2655
▁establishment	-2656
▁toutefois	-2657
▁négoci	-2658
▁grow	-2659
▁compet	-2660
▁éléments	-2661
ator	-2662
▁foreign	-2663
▁façon	-2664
▁costs	-2665
▁exemple	-2666
▁figur	-2667
▁délégation	-2668
▁research	-2669
▁.	-2670
▁systèmes	-2671
ense	-2672
▁saf	-2673
▁private	-2674
verty	-2675
atique	-2676
▁food	-2677
▁poverty	-2678
▁statut	-2679
▁stud	-2680
▁harmon	-2681
▁relating	-2682
agne	-2683
▁obligation	-2684
▁due	-2685
▁affairs	-2686
▁rése	-2687
▁ethn	-2688
▁prés	-2689
▁proposition	-2690
▁remain	-2691
▁summ	-2692
▁humanitarian	-2693
▁véhic	-2694
▁participants	-2695
▁governments	-2696
▁representatives	-2697
▁my	-2698
fs	-2699
rog	-2700
▁bal	-2701
veur	-2702
▁nationaux	-2703
jud	-2704
▁association	-2705
▁chall	-2706
▁norm	-2707
▁stratégie	-2708
▁significant	-2709
order	-2710
▁declaration	-2711
lementing	-2712
▁bar	-2713
▁jusqu	-2714
▁hous	-2715
wards	-2716
▁hab	-2717
tières	-2718
▁principles	-2719
▁fondament	-2720
alf	-2721
▁séance	-2722
▁dang	-2723
iness	-2724
isse	-2725
lace	-2726
ril	-2727
▁lesqu	-2728
▁terme	-2729
▁territoire	-2730
▁maintien	-2731
▁improve	-2732
▁opin	-2733
▁upon	-2734
▁sug	-2735
ateral	-2736
▁élaboration	-2737
▁multi	-2738
▁serait	-2739
▁focus	-2740
▁ni	-2741
▁surveill	-2742
▁sw	-2743
▁ministry	-2744
▁faveur	-2745
▁grande	-2746
▁convient	-2747
istes	-2748
▁don	-2749
▁opinion	-2750
▁conflict	-2751
▁intention	-2752
utive	-2753
▁civile	-2754
▁â	-2755
▁calc	-2756
▁conten	-2757
▁mor	-2758
▁pauvreté	-2759
▁strategy	-2760
▁multil	-2761
▁dépar	-2762
▁pan	-2763
▁open	-2764
▁établissement	-2765
▁zone	-2766
▁aj	-2767
▁celles	-2768
▁recherche	-2769
▁fournir	-2770
▁interp	-2771
▁reas	-2772
▁investiss	-2773
▁ang	-2774
▁pourrait	-2775
▁refuge	-2776
▁@@—	-2777
▁proper	-2778
▁pat	-2779
▁supplément	-2780
▁collaboration	-2781
▁auto	-2782
▁deli	-2783
▁hos	-2784
▁dr	-2785
usion	-2786
alités	-2787
ibles	-2788
▁results	-2789
venant	-2790
▁avril	-2791
▁@@—@@	-2792
itiz	-2793
▁existing	-2794
▁different	-2795
▁quanti	-2796
ève	-2797
▁treatment	-2798
▁cela	-2799
▁deb	-2800
▁april	-2801
▁pertin	-2802
▁compétent	-2803
▁%@@	-2804
▁prix	-2805
▁journ	-2806
▁proposal	-2807
▁bus	-2808
▁ouver	-2809
▁sources	-2810
▁regarding	-2811
▁employment	-2812
alement	-2813
aff	-2814
▁iraq	-2815
▁communications	-2816
▁communau	-2817
▁seront	-2818
▁context	-2819
▁offici	-2820
▁she	-2821
▁whereas	-2822
inte	-2823
▁difficult	-2824
▁labour	-2825
▁ge	-2826
▁least	-2827
▁vigueur	-2828
▁free	-2829
▁safety	-2830
▁increased	-2831
▁taking	-2832
▁department	-2833
▁implementing	-2834
erve	-2835
▁traitement	-2836
▁fif	-2837
tron	-2838
▁way	-2839
▁avis	-2840
▁cust	-2841
▁paci	-2842
▁contrac	-2843
▁beca	-2844
ilisation	-2845
▁conclusions	-2846
ness	-2847
▁requested	-2848
liance	-2849
ices	-2850
▁agencies	-2851
▁israel	-2852
▁enreg	-2853
▁indig	-2854
▁surveillance	-2855
▁réfug	-2856
▁amer	-2857
▁low	-2858
▁agency	-2859
▁sensib	-2860
▁gouvernements	-2861
▁déj	-2862
▁celui	-2863
atiques	-2864
ody	-2865
▁help	-2866
▁celle	-2867
▁result	-2868
▁réglement	-2869
uelle	-2870
rehen	-2871
▁ill	-2872
▁prep	-2873
▁réunions	-2874
utes	-2875
▁élev	-2876
▁nouveaux	-2877
ège	-2878
▁modifi	-2879
▁reç	-2880
kistan	-2881
hold	-2882
▁freed	-2883
▁amount	-2884
▁déjà	-2885
ned	-2886
▁gaz	-2887
▁agreed	-2888
▁combat	-2889
▁technologies	-2890
▁towards	-2891
onom	-2892
▁san	-2893
▁enseignement	-2894
▁small	-2895
▁donné	-2896
▁mun	-2897
▁jug	-2898
fier	-2899
▁freedom	-2900
“@@	-2901
▁examiner	-2902
▁alloc	-2903
lected	-2904
▁comprehen	-2905
▁terms	-2906
▁texte	-2907
▁found	-2908
goti	-2909
▁proté	-2910
ennent	-2911
▁principe	-2912
illeurs	-2913
▁mill	-2914
▁face	-2915
▁efficace	-2916
▁condition	-2917
ctures	-2918
olid	-2919
▁catég	-2920
▁enquête	-2921
lish	-2922
▁@@»@@	-2923
issent	-2924
▁liste	-2925
▁advis	-2926
▁expos	-2927
▁domestic	-2928
▁famille	-2929
▁valeur	-2930
▁aup	-2931
▁age	-2932
▁conséqu	-2933
▁charge	-2934
▁nav	-2935
▁weapons	-2936
▁cinqu	-2937
▁claim	-2938
▁issu	-2939
▁actes	-2940
▁publique	-2941
▁dit	-2942
enous	-2943
cht	-2944
▁negoti	-2945
▁cultural	-2946
▁bur	-2947
▁compar	-2948
▁comprehensive	-2949
▁reporting	-2950
etwork	-2951
vious	-2952
▁eau	-2953
▁raison	-2954
▁several	-2955
▁network	-2956
▁continued	-2957
▁aucune	-2958
▁considérant	-2959
▁juridique	-2960
▁adress	-2961
éro	-2962
issance	-2963
▁prevention	-2964
▁spécif	-2965
▁sein	-2966
▁pursuant	-2967
▁,	-2968
▁indigenous	-2969
▁“@@	-2970
▁received	-2971
▁compan	-2972
▁citiz	-2973
duced	-2974
▁inn	-2975
rup	-2976
▁soutien	-2977
▁cop	-2978
▁@@”	-2979
▁absence	-2980
atoire	-2981
tition	-2982
▁minimum	-2983
▁decid	-2984
iture	-2985
▁del	-2986
érique	-2987
▁permettre	-2988
▁included	-2989
▁répond	-2990
isé	-2991
▁compos	-2992
▁technology	-2993
▁habit	-2994
▁analyse	-2995
tices	-2996
▁ital	-2997
▁tas	-2998
eping	-2999
onne	-3000
▁seu	-3001
▁show	-3002
anding	-3003
▁quality	-3004
▁tels	-3005
odes	-3006
▁autocht	-3007
iné	-3008
▁dispos	-3009
sign	-3010
▁soulign	-3011
ada	-3012
▁nat	-3013
▁nécessité	-3014
vers	-3015
▁unit	-3016
ennes	-3017
▁jeunes	-3018
▁cost	-3019
▁fis	-3020
▁consac	-3021
▁intérieur	-3022
ily	-3023
▁consomm	-3024
▁consolid	-3025
▁donner	-3026
pl	-3027
▁life	-3028
▁instrument	-3029
▁para	-3030
▁poursuiv	-3031
▁reven	-3032
erver	-3033
▁less	-3034
▁provides	-3035
▁prise	-3036
▁ven	-3037
▁clos	-3038
itre	-3039
▁certific	-3040
▁cit	-3041
▁carried	-3042
▁félic	-3043
▁responsabilité	-3044
atic	-3045
▁unders	-3046
▁occa	-3047
▁@@:@@	-3048
▁postes	-3049
itable	-3050
▁transition	-3051
aï	-3052
▁business	-3053
diction	-3054
▁emb	-3055
icef	-3056
▁making	-3057
lam	-3058
▁tax	-3059
▁infrastructure	-3060
▁@@°	-3061
▁handic	-3062
▁annual	-3063
▁aider	-3064
▁professionn	-3065
▁emerg	-3066
▁welcom	-3067
▁encourage	-3068
▁@@%	-3069
▁mécanismes	-3070
▁calcul	-3071
sible	-3072
▁substances	-3073
▁arrangements	-3074
ially	-3075
uan	-3076
▁réfugiés	-3077
uf	-3078
▁respective	-3079
▁basic	-3080
▁handicap	-3081
▁detail	-3082
▁contained	-3083
▁executive	-3084
▁audit	-3085
▁puis	-3086
▁beh	-3087
▁actuellement	-3088
▁simil	-3089
▁appliquer	-3090
be	-3091
▁intérêt	-3092
▁responsible	-3093
▁did	-3094
▁jap	-3095
▁régime	-3096
▁vu	-3097
▁compr	-3098
▁war	-3099
▁decisions	-3100
▁crimes	-3101
▁présenté	-3102
▁statement	-3103
ble	-3104
▁nucléaires	-3105
▁vote	-3106
▁garantir	-3107
▁because	-3108
▁volon	-3109
▁oe	-3110
▁constat	-3111
▁spéciale	-3112
▁forme	-3113
▁efficacité	-3114
▁reference	-3115
▁régions	-3116
▁département	-3117
▁liberté	-3118
▁performance	-3119
anda	-3120
lif	-3121
yer	-3122
ront	-3123
▁construction	-3124
▁providing	-3125
▁investment	-3126
▁espec	-3127
▁radi	-3128
▁accords	-3129
mar	-3130
▁expec	-3131
▁france	-3132
▁reported	-3133
▁dispon	-3134
▁net	-3135
▁chargé	-3136
▁énergie	-3137
▁previous	-3138
▁lin	-3139
aissance	-3140
▁target	-3141
▁capital	-3142
▁exemp	-3143
▁lorsqu	-3144
▁regular	-3145
▁especially	-3146
▁plein	-3147
▁tempor	-3148
▁auprès	-3149
▁guidel	-3150
▁législ	-3151
▁orig	-3152
▁hommes	-3153
▁répon	-3154
antage	-3155
▁réduction	-3156
tées	-3157
fficient	-3158
▁last	-3159
less	-3160
▁mention	-3161
▁sent	-3162
▁véri	-3163
▁prison	-3164
▁now	-3165
▁envisag	-3166
éré	-3167
stances	-3168
cle	-3169
▁funds	-3170
▁rate	-3171
▁tradition	-3172
▁situations	-3173
▁proceed	-3174
ana	-3175
▁décid	-3176
▁relatifs	-3177
▁recours	-3178
▁faut	-3179
▁chef	-3180
ensus	-3181
▁internal	-3182
▁autochtones	-3183
▁établir	-3184
centr	-3185
gré	-3186
▁victims	-3187
▁financière	-3188
▁practices	-3189
ipment	-3190
▁entra	-3191
▁serious	-3192
▁intergo	-3193
ling	-3194
▁partnership	-3195
▁unicef	-3196
▁record	-3197
▁réalisation	-3198
▁risques	-3199
▁minister	-3200
tage	-3201
▁very	-3202
bru	-3203
hib	-3204
▁afgh	-3205
▁demandé	-3206
vrier	-3207
▁risque	-3208
▁communi	-3209
▁intéress	-3210
▁février	-3211
▁prevent	-3212
▁bre	-3213
uted	-3214
▁responsibility	-3215
▁febru	-3216
▁parents	-3217
▁february	-3218
▁régional	-3219
▁effets	-3220
▁cause	-3221
ze	-3222
▁spe	-3223
▁comment	-3224
▁contract	-3225
▁expressed	-3226
▁measure	-3227
oses	-3228
▁regulations	-3229
eria	-3230
▁governmental	-3231
▁conta	-3232
▁indiqué	-3233
▁-@@	-3234
▁hy	-3235
other	-3236
▁mandate	-3237
tained	-3238
▁poll	-3239
▁rural	-3240
▁wp	-3241
▁prépar	-3242
▁pun	-3243
▁value	-3244
▁consist	-3245
ope	-3246
lements	-3247
▁advisory	-3248
▁confirm	-3249
issement	-3250
▁enfor	-3251
edi	-3252
▁troisième	-3253
▁travaille	-3254
▁fully	-3255
▁cub	-3256
▁rom	-3257
did	-3258
▁consultation	-3259
▁telles	-3260
▁mort	-3261
▁example	-3262
▁competent	-3263
lems	-3264
▁uk	-3265
▁inten	-3266
▁niveaux	-3267
▁origine	-3268
▁partenariat	-3269
▁différents	-3270
▁bank	-3271
▁problems	-3272
▁coordonn	-3273
▁devant	-3274
▁every	-3275
cide	-3276
▁candid	-3277
eal	-3278
day	-3279
▁produit	-3280
▁expéri	-3281
▁syn	-3282
▁den	-3283
▁aucun	-3284
urr	-3285
▁ép	-3286
ath	-3287
rain	-3288
▁prosec	-3289
▁activité	-3290
▁purpose	-3291
▁class	-3292
come	-3293
▁territory	-3294
▁na	-3295
▁incor	-3296
vait	-3297
▁armed	-3298
▁offer	-3299
▁exch	-3300
▁connec	-3301
▁planning	-3302
▁classi	-3303
▁even	-3304
▁dess	-3305
▁key	-3306
tral	-3307
ume	-3308
▁citoy	-3309
▁compens	-3310
▁sociaux	-3311
▁citizens	-3312
▁tre	-3313
fications	-3314
ready	-3315
▁already	-3316
▁financing	-3317
▁approved	-3318
▁works	-3319
▁disarm	-3320
▁arb	-3321
▁direction	-3322
▁hold	-3323
▁still	-3324
▁equipment	-3325
▁procure	-3326
ho	-3327
▁renseign	-3328
▁né	-3329
▁étude	-3330
▁eec	-3331
yl	-3332
▁thus	-3333
▁agreements	-3334
▁consultatif	-3335
▁grant	-3336
▁another	-3337
▁désar	-3338
▁underst	-3339
▁increasing	-3340
▁prévo	-3341
▁approuv	-3342
▁pap	-3343
▁guidelines	-3344
▁reach	-3345
ène	-3346
▁types	-3347
▁objectives	-3348
▁equality	-3349
▁expert	-3350
▁désarmement	-3351
▁portant	-3352
▁challeng	-3353
▁corre	-3354
▁afghan	-3355
▁entitled	-3356
▁resolutions	-3357
▁wish	-3358
▁financières	-3359
▁directives	-3360
▁établissements	-3361
▁mechanisms	-3362
▁ailleurs	-3363
▁ade	-3364
▁source	-3365
▁violation	-3366
▁slo	-3367
▁response	-3368
▁notes	-3369
▁réduire	-3370
▁individual	-3371
▁infl	-3372
▁disposition	-3373
abilities	-3374
▁disarmament	-3375
▁canada	-3376
▁strengthening	-3377
▁ic	-3378
ositions	-3379
dom	-3380
▁drug	-3381
▁faciliter	-3382
▁quatre	-3383
▁statistiques	-3384
ism	-3385
▁médi	-3386
▁sexual	-3387
▁agents	-3388
▁mas	-3389
éraux	-3390
▁elimin	-3391
▁trafficking	-3392
▁mieux	-3393
▁categ	-3394
▁langu	-3395
▁publics	-3396
ié	-3397
▁islam	-3398
▁occasion	-3399
ulg	-3400
ward	-3401
▁reduction	-3402
▁moment	-3403
▁natural	-3404
▁independent	-3405
▁solution	-3406
▁sanc	-3407
▁cru	-3408
▁problème	-3409
▁provis	-3410
lande	-3411
▁custom	-3412
▁behalf	-3413
ron	-3414
▁pratique	-3415
▁défense	-3416
▁excep	-3417
▁coûts	-3418
▁amb	-3419
▁notre	-3420
▁practice	-3421
▁conventions	-3422
isme	-3423
▁heures	-3424
▁compe	-3425
▁manif	-3426
▁rule	-3427
▁engagement	-3428
▁grâ	-3429
▁augmentation	-3430
▁capacité	-3431
▁gre	-3432
zer	-3433
▁adequ	-3434
▁référence	-3435
▁précéd	-3436
▁prolif	-3437
▁grâce	-3438
quées	-3439
time	-3440
▁seulement	-3441
▁subs	-3442
men	-3443
▁déli	-3444
indre	-3445
▁intend	-3446
▁sanctions	-3447
▁supérie	-3448
▁acts	-3449
▁constru	-3450
▁fonctionnaires	-3451
▁like	-3452
▁art	-3453
▁goals	-3454
▁mut	-3455
▁lack	-3456
▁commiss	-3457
▁compliance	-3458
▁conclud	-3459
▁five	-3460
▁day	-3461
▁num	-3462
▁régionales	-3463
▁retur	-3464
▁tenir	-3465
▁décidé	-3466
▁débat	-3467
▁belie	-3468
▁fonctions	-3469
titul	-3470
cé	-3471
▁communities	-3472
▁intitul	-3473
▁agriculture	-3474
▁mala	-3475
▁populations	-3476
▁real	-3477
xic	-3478
▁forms	-3479
▁workers	-3480
▁funding	-3481
▁lois	-3482
▁expl	-3483
▁body	-3484
▁achieve	-3485
▁success	-3486
▁créer	-3487
▁tiers	-3488
▁democratic	-3489
▁operation	-3490
▁mécanisme	-3491
▁mme	-3492
▁evaluation	-3493
▁reco	-3494
▁function	-3495
▁rac	-3496
▁pac	-3497
ka	-3498
ez	-3499
▁goods	-3500
▁innov	-3501
grad	-3502
▁red	-3503
▁ps	-3504
▁growth	-3505
▁rapid	-3506
itaires	-3507
iles	-3508
▁power	-3509
▁principle	-3510
▁aliné	-3511
▁exprim	-3512
laced	-3513
▁operational	-3514
▁line	-3515
▁find	-3516
▁deal	-3517
▁suivants	-3518
▁gé	-3519
ervation	-3520
▁standard	-3521
▁tel	-3522
ych	-3523
ût	-3524
▁tenue	-3525
▁sett	-3526
▁analysis	-3527
▁web	-3528
▁broad	-3529
isées	-3530
▁incorpor	-3531
ya	-3532
▁oeuvre	-3533
▁déten	-3534
▁arbit	-3535
▁equal	-3536
▁sessions	-3537
▁sugg	-3538
▁obstac	-3539
▁por	-3540
▁threat	-3541
▁defin	-3542
▁fonctionnement	-3543
▁élimination	-3544
ior	-3545
lier	-3546
▁far	-3547
of	-3548
▁permis	-3549
▁requests	-3550
▁hist	-3551
▁im	-3552
▁@@*	-3553
▁phase	-3554
jours	-3555
▁cinq	-3556
▁font	-3557
▁nombreux	-3558
▁institution	-3559
▁sexes	-3560
duce	-3561
▁tim	-3562
ival	-3563
uels	-3564
▁prohib	-3565
▁maximum	-3566
▁mer	-3567
▁nam	-3568
▁meille	-3569
▁roy	-3570
▁superv	-3571
▁undp	-3572
▁quar	-3573
▁laws	-3574
▁budgé	-3575
▁alors	-3576
▁cô	-3577
mn	-3578
ligh	-3579
▁conclusion	-3580
▁ordin	-3581
ological	-3582
cription	-3583
▁product	-3584
▁terrorism	-3585
ified	-3586
▁toujours	-3587
▁lic	-3588
▁iran	-3589
uss	-3590
▁austral	-3591
▁director	-3592
▁stock	-3593
ruption	-3594
▁intégration	-3595
▁involved	-3596
▁accro	-3597
▁soumis	-3598
▁pê	-3599
▁phy	-3600
▁ao	-3601
arg	-3602
▁former	-3603
▁tour	-3604
▁bet	-3605
▁addressed	-3606
tie	-3607
▁propor	-3608
ida	-3609
ète	-3610
▁read	-3611
▁formes	-3612
▁parmi	-3613
▁sing	-3614
amb	-3615
▁vac	-3616
▁priority	-3617
lies	-3618
▁discussion	-3619
▁consensus	-3620
▁income	-3621
▁good	-3622
▁peoples	-3623
▁challenges	-3624
▁nord	-3625
▁méthodes	-3626
▁humanitaire	-3627
▁press	-3628
▁soins	-3629
▁issued	-3630
▁opérationn	-3631
▁dav	-3632
▁attrib	-3633
▁distribution	-3634
▁sens	-3635
▁économie	-3636
atér	-3637
▁concep	-3638
▁illic	-3639
▁august	-3640
ases	-3641
▁réseau	-3642
▁ger	-3643
▁urgence	-3644
▁caus	-3645
mos	-3646
▁conjo	-3647
lles	-3648
▁pénale	-3649
▁rele	-3650
ôt	-3651
▁prévues	-3652
dam	-3653
▁nort	-3654
▁interm	-3655
▁relation	-3656
▁critères	-3657
▁ground	-3658
▁résolutions	-3659
▁directeur	-3660
▁garan	-3661
▁études	-3662
▁août	-3663
▁étudi	-3664
▁peti	-3665
eness	-3666
▁renseignements	-3667
▁continuer	-3668
▁contribuer	-3669
oi	-3670
▁positive	-3671
▁apport	-3672
▁peaceke	-3673
▁terror	-3674
▁light	-3675
▁commitment	-3676
▁ap	-3677
jour	-3678
▁présenter	-3679
▁perspec	-3680
ather	-3681
▁pnud	-3682
▁currently	-3683
▁adopter	-3684
tine	-3685
▁amérique	-3686
▁writ	-3687
▁sect	-3688
▁interven	-3689
▁terrorisme	-3690
▁extérie	-3691
▁calls	-3692
▁prepar	-3693
ugos	-3694
▁biens	-3695
▁accue	-3696
▁marchés	-3697
ken	-3698
▁contexte	-3699
▁existe	-3700
▁decided	-3701
ton	-3702
acy	-3703
▁chapitre	-3704
crib	-3705
▁série	-3706
▁réforme	-3707
▁toget	-3708
▁together	-3709
▁legisl	-3710
▁évent	-3711
▁conflit	-3712
▁sais	-3713
▁solid	-3714
▁months	-3715
▁tend	-3716
▁régul	-3717
▁coh	-3718
▁judic	-3719
atifs	-3720
▁bos	-3721
▁suffis	-3722
rir	-3723
▁los	-3724
▁investigation	-3725
urer	-3726
▁propositions	-3727
aring	-3728
▁strategic	-3729
▁financiers	-3730
▁needed	-3731
▁telle	-3732
round	-3733
▁committed	-3734
▁purposes	-3735
▁prepared	-3736
▁proposals	-3737
▁possibilité	-3738
▁limited	-3739
▁climate	-3740
▁tél	-3741
▁effect	-3742
▁refugees	-3743
▁site	-3744
▁amélioration	-3745
▁carry	-3746
▁initial	-3747
▁implemented	-3748
▁extend	-3749
▁youn	-3750
ane	-3751
▁conflits	-3752
▁prévu	-3753
▁subsi	-3754
▁réponse	-3755
▁détention	-3756
▁informed	-3757
▁alth	-3758
ops	-3759
▁complain	-3760
▁complex	-3761
▁durée	-3762
▁partenaires	-3763
dits	-3764
ledge	-3765
▁arri	-3766
▁text	-3767
▁better	-3768
▁dernier	-3769
▁entreprise	-3770
▁stress	-3771
▁written	-3772
▁study	-3773
formes	-3774
ental	-3775
▁pren	-3776
▁permettant	-3777
ii	-3778
▁although	-3779
▁objective	-3780
aître	-3781
▁(	-3782
uit	-3783
▁judiciaire	-3784
▁meet	-3785
▁croissance	-3786
▁conv	-3787
▁régionaux	-3788
iation	-3789
▁traite	-3790
▁bra	-3791
▁demandes	-3792
▁statistics	-3793
▁N	-3794
▁organized	-3795
▁peacekeeping	-3796
▁ms	-3797
▁appo	-3798
▁)	-3799
▁participer	-3800
ists	-3801
itions	-3802
side	-3803
▁industry	-3804
estations	-3805
▁attend	-3806
▁agissant	-3807
iement	-3808
▁contrô	-3809
anie	-3810
▁approche	-3811
▁supplémentaires	-3812
mettre	-3813
▁extern	-3814
ither	-3815
▁essential	-3816
▁juridiques	-3817
▁peuples	-3818
▁provisoire	-3819
icip	-3820
▁exchange	-3821
▁alinéa	-3822
▁altern	-3823
ail	-3824
étés	-3825
▁sau	-3826
istre	-3827
ump	-3828
▁partir	-3829
▁promoting	-3830
▁reli	-3831
▁adh	-3832
▁accus	-3833
▁municip	-3834
▁matters	-3835
▁notif	-3836
isés	-3837
▁cho	-3838
▁repro	-3839
▁mu	-3840
▁différentes	-3841
▁suivantes	-3842
▁communautés	-3843
▁solutions	-3844
▁ensuring	-3845
▁psych	-3846
▁pacif	-3847
▁might	-3848
▁prévoit	-3849
▁fall	-3850
lands	-3851
▁communautaire	-3852
▁internet	-3853
▁exécu	-3854
▁integrated	-3855
▁fron	-3856
▁expend	-3857
▁mobil	-3858
▁termes	-3859
▁estime	-3860
▁greater	-3861
▁faisant	-3862
▁applicables	-3863
▁privé	-3864
▁awar	-3865
▁safe	-3866
▁amended	-3867
▁awareness	-3868
▁lequel	-3869
▁ece	-3870
thers	-3871
▁fundament	-3872
▁strong	-3873
▁publication	-3874
▁ax	-3875
▁changes	-3876
▁véhicules	-3877
▁potential	-3878
▁lat	-3879
to	-3880
▁approval	-3881
▁veiller	-3882
titution	-3883
▁called	-3884
▁matériel	-3885
▁paragraphes	-3886
▁identification	-3887
▁king	-3888
▁religion	-3889
▁pourraient	-3890
io	-3891
▁pleinement	-3892
▁east	-3893
ciale	-3894
▁dipl	-3895
▁femme	-3896
pe	-3897
▁intervention	-3898
▁spécifiques	-3899
▁inspection	-3900
anges	-3901
▁best	-3902
▁travailleurs	-3903
▁commune	-3904
▁young	-3905
▁prend	-3906
bles	-3907
▁mechanism	-3908
elf	-3909
▁énonc	-3910
▁favoris	-3911
crite	-3912
▁suivant	-3913
pendant	-3914
line	-3915
▁volun	-3916
▁entrée	-3917
ination	-3918
▁mac	-3919
▁until	-3920
veness	-3921
▁protéger	-3922
ience	-3923
▁bosn	-3924
aume	-3925
isée	-3926
▁secteurs	-3927
▁tex	-3928
▁simp	-3929
▁similar	-3930
▁immigr	-3931
lin	-3932
▁touch	-3933
▁migrants	-3934
▁existence	-3935
▁besoin	-3936
tée	-3937
▁jam	-3938
▁method	-3939
▁instit	-3940
▁penal	-3941
▁davantage	-3942
▁rendre	-3943
ufact	-3944
▁fail	-3945
▁facilities	-3946
▁palestinian	-3947
▁put	-3948
▁justif	-3949
▁fau	-3950
▁changements	-3951
▁limit	-3952
affirm	-3953
▁résid	-3954
▁recommendation	-3955
▁expected	-3956
▁engagements	-3957
▁manufact	-3958
▁applied	-3959
▁statements	-3960
▁educ	-3961
centage	-3962
▁discussions	-3963
▁discuss	-3964
▁distin	-3965
▁délai	-3966
▁jours	-3967
▁cependant	-3968
▁déch	-3969
▁liées	-3970
▁auxqu	-3971
▁supported	-3972
▁négociations	-3973
▁stratégies	-3974
▁répar	-3975
▁recall	-3976
lector	-3977
▁detention	-3978
▁fab	-3979
▁space	-3980
▁suit	-3981
▁syri	-3982
▁scol	-3983
▁criteria	-3984
▁below	-3985
▁planification	-3986
▁steps	-3987
▁knowledge	-3988
▁pacte	-3989
▁recr	-3990
▁china	-3991
▁lettre	-3992
▁démocratique	-3993
▁souten	-3994
▁rend	-3995
▁matter	-3996
▁affected	-3997
▁medical	-3998
▁compét	-3999
▁maintain	-4000
▁fundamental	-4001
▁proch	-4002
▁aimed	-4003
▁comptes	-4004
▁facilitate	-4005
▁juris	-4006
▁enregistr	-4007
▁cris	-4008
▁play	-4009
ienne	-4010
▁tableau	-4011
▁informal	-4012
▁gir	-4013
▁judicial	-4014
▁eux	-4015
▁possibil	-4016
▁locales	-4017
aison	-4018
qués	-4019
▁trava	-4020
▁opportunities	-4021
▁cred	-4022
▁souvent	-4023
▁obtenir	-4024
▁alleg	-4025
▁somal	-4026
▁rappel	-4027
▁rw	-4028
▁cuba	-4029
▁élaborer	-4030
uc	-4031
▁aver	-4032
uration	-4033
iens	-4034
▁effort	-4035
▁overall	-4036
▁york	-4037
▁strategies	-4038
estation	-4039
▁remplac	-4040
▁hiv	-4041
▁responsables	-4042
▁émissions	-4043
▁recommended	-4044
mental	-4045
▁laun	-4046
▁équipe	-4047
▁living	-4048
endu	-4049
izing	-4050
▁corruption	-4051
▁russian	-4052
▁q	-4053
▁scienti	-4054
▁exigences	-4055
▁caractère	-4056
ested	-4057
▁recommandation	-4058
▁lit	-4059
lacement	-4060
▁adequate	-4061
▁able	-4062
▁publiques	-4063
▁using	-4064
▁principaux	-4065
judice	-4066
▁property	-4067
▁cann	-4068
▁regions	-4069
▁exten	-4070
▁german	-4071
▁ait	-4072
▁adoles	-4073
▁transform	-4074
▁problem	-4075
▁siège	-4076
▁conduct	-4077
▁road	-4078
▁asie	-4079
▁financier	-4080
▁der	-4081
▁letter	-4082
▁termin	-4083
▁tâ	-4084
af	-4085
▁self	-4086
▁déta	-4087
▁team	-4088
▁gene	-4089
▁destruction	-4090
▁offices	-4091
▁forward	-4092
onnes	-4093
ched	-4094
urrence	-4095
▁effects	-4096
▁evidence	-4097
▁dès	-4098
ador	-4099
▁circum	-4100
▁figurant	-4101
aries	-4102
▁unf	-4103
▁schools	-4104
▁examiné	-4105
▁instance	-4106
▁establishing	-4107
▁america	-4108
app	-4109
▁;	-4110
▁proposé	-4111
▁physi	-4112
▁stated	-4113
▁scientif	-4114
▁documentation	-4115
▁worksh	-4116
▁back	-4117
▁kingdom	-4118
▁register	-4119
lex	-4120
▁adj	-4121
▁acquis	-4122
▁vehicle	-4123
▁pil	-4124
▁higher	-4125
pa	-4126
▁royaume	-4127
quant	-4128
▁afghanistan	-4129
▁mentionn	-4130
▁militaires	-4131
▁souh	-4132
▁pakistan	-4133
gne	-4134
▁souhait	-4135
▁give	-4136
▁valid	-4137
rant	-4138
▁déterminer	-4139
▁legislative	-4140
▁transit	-4141
▁sk	-4142
▁sorte	-4143
▁journal	-4144
▁etc	-4145
tiveness	-4146
▁observer	-4147
▁exer	-4148
▁arrê	-4149
▁pêche	-4150
▁cross	-4151
▁integration	-4152
▁punish	-4153
ends	-4154
▁congo	-4155
▁dispose	-4156
▁citoyens	-4157
▁dim	-4158
▁leaders	-4159
ex	-4160
▁compon	-4161
▁sociales	-4162
▁limité	-4163
▁moder	-4164
ote	-4165
▁réserve	-4166
▁allem	-4167
▁inh	-4168
▁early	-4169
▁crisis	-4170
▁évolution	-4171
▁diverses	-4172
▁distric	-4173
▁nos	-4174
▁become	-4175
▁sem	-4176
▁reason	-4177
rés	-4178
▁échange	-4179
▁mic	-4180
▁euros	-4181
▁benefits	-4182
▁refus	-4183
▁bureaux	-4184
▁families	-4185
▁defined	-4186
▁éché	-4187
▁sche	-4188
▁locaux	-4189
▁border	-4190
over	-4191
itaire	-4192
▁contribute	-4193
▁interne	-4194
▁invite	-4195
▁took	-4196
▁paragraphs	-4197
▁expérience	-4198
▁yet	-4199
▁modè	-4200
▁propres	-4201
▁faits	-4202
▁cycle	-4203
▁matern	-4204
▁parts	-4205
tait	-4206
▁chine	-4207
▁satisfaction	-4208
raine	-4209
▁publish	-4210
▁associations	-4211
▁signal	-4212
▁wid	-4213
▁carb	-4214
▁doub	-4215
way	-4216
▁cooper	-4217
rées	-4218
▁empê	-4219
▁constitue	-4220
▁entry	-4221
titude	-4222
ased	-4223
▁condam	-4224
anced	-4225
▁primary	-4226
▁fédération	-4227
▁aurait	-4228
dra	-4229
▁visées	-4230
▁protect	-4231
▁lesquelles	-4232
▁concentr	-4233
▁disponibles	-4234
▁larg	-4235
▁aids	-4236
▁days	-4237
▁guer	-4238
▁manag	-4239
▁negotiations	-4240
orie	-4241
▁poursuivre	-4242
▁laid	-4243
▁répondre	-4244
▁ministre	-4245
ades	-4246
▁danger	-4247
▁expression	-4248
▁diri	-4249
▁introduction	-4250
▁ethnic	-4251
▁liés	-4252
▁russie	-4253
▁counter	-4254
▁propri	-4255
cribed	-4256
▁chapter	-4257
▁federation	-4258
▁difficultés	-4259
▁institutional	-4260
rième	-4261
▁poste	-4262
▁bring	-4263
▁inj	-4264
érences	-4265
▁restrictions	-4266
▁proceedings	-4267
▁ate	-4268
▁conting	-4269
▁next	-4270
▁covered	-4271
▁presented	-4272
▁contact	-4273
vaient	-4274
▁âge	-4275
▁intérêts	-4276
astro	-4277
▁bl	-4278
▁crise	-4279
▁short	-4280
▁sû	-4281
▁vulner	-4282
▁principal	-4283
▁dernières	-4284
▁remo	-4285
▁ukraine	-4286
▁scientific	-4287
▁serb	-4288
▁chac	-4289
▁périodi	-4290
▁preparation	-4291
▁fulf	-4292
▁chairman	-4293
hern	-4294
▁task	-4295
▁media	-4296
▁coup	-4297
tient	-4298
▁multip	-4299
▁reste	-4300
coup	-4301
outh	-4302
▁activity	-4303
▁centrale	-4304
▁undertaken	-4305
▁mêmes	-4306
▁upd	-4307
▁supply	-4308
▁arms	-4309
▁autom	-4310
▁auteur	-4311
▁enforcement	-4312
ède	-4313
▁quatrième	-4314
▁esc	-4315
▁autonom	-4316
▁viv	-4317
die	-4318
▁exclu	-4319
▁immedi	-4320
▁ul	-4321
▁modalités	-4322
quée	-4323
▁notification	-4324
▁mentioned	-4325
iency	-4326
▁identified	-4327
▁peu	-4328
▁radio	-4329
▁fourth	-4330
▁filles	-4331
▁insu	-4332
ël	-4333
▁apporter	-4334
▁mid	-4335
▁youth	-4336
▁volume	-4337
ering	-4338
▁past	-4339
▁subsidi	-4340
org	-4341
▁déclarations	-4342
▁connection	-4343
▁quant	-4344
▁maintenance	-4345
▁intended	-4346
▁diplom	-4347
▁figure	-4348
atoires	-4349
▁indemn	-4350
▁conducted	-4351
▁nig	-4352
▁agricultural	-4353
▁cannot	-4354
▁share	-4355
ologique	-4356
ît	-4357
▁vehicles	-4358
▁undertaking	-4359
▁mean	-4360
▁coût	-4361
▁sufficient	-4362
▁phys	-4363
▁banque	-4364
▁vih	-4365
▁officials	-4366
▁structures	-4367
▁applications	-4368
▁éco	-4369
quently	-4370
we	-4371
▁exercise	-4372
▁substanti	-4373
▁federal	-4374
▁experience	-4375
▁fran	-4376
umption	-4377
▁dén	-4378
▁decl	-4379
▁civils	-4380
▁délégations	-4381
▁industrie	-4382
▁influ	-4383
▁transports	-4384
▁créé	-4385
▁agence	-4386
▁commissioner	-4387
▁israël	-4388
▁economy	-4389
▁investissement	-4390
▁portug	-4391
upart	-4392
▁plupart	-4393
ising	-4394
ension	-4395
astroph	-4396
▁dimin	-4397
▁catastroph	-4398
▁contribu	-4399
ala	-4400
▁har	-4401
▁etats	-4402
▁concerns	-4403
▁reduce	-4404
put	-4405
▁trouver	-4406
▁restru	-4407
ma	-4408
▁hon	-4409
ev	-4410
▁girls	-4411
wing	-4412
▁plain	-4413
▁marchand	-4414
▁unc	-4415
▁methods	-4416
▁scope	-4417
atri	-4418
▁depend	-4419
▁drog	-4420
▁benefit	-4421
▁amendment	-4422
▁déploy	-4423
▁matières	-4424
▁indicated	-4425
▁vice	-4426
▁étro	-4427
▁frais	-4428
loyment	-4429
▁tit	-4430
ils	-4431
▁acte	-4432
▁voie	-4433
▁consci	-4434
▁défini	-4435
acter	-4436
▁finance	-4437
▁durant	-4438
▁seul	-4439
ablement	-4440
▁amendments	-4441
▁hui	-4442
▁acces	-4443
nérab	-4444
trait	-4445
ciliation	-4446
▁vulnérab	-4447
▁sida	-4448
▁death	-4449
nement	-4450
▁institut	-4451
ource	-4452
▁électron	-4453
▁ici	-4454
▁chem	-4455
▁encourager	-4456
▁connaiss	-4457
▁assurance	-4458
▁compensation	-4459
tences	-4460
▁tun	-4461
▁commen	-4462
▁materials	-4463
▁panel	-4464
▁processes	-4465
▁compétences	-4466
▁respond	-4467
▁croati	-4468
▁return	-4469
▁compétentes	-4470
▁fish	-4471
onstr	-4472
actions	-4473
▁external	-4474
▁circumstances	-4475
▁delegations	-4476
intes	-4477
▁installations	-4478
▁intermédi	-4479
▁individuals	-4480
yn	-4481
▁beau	-4482
▁granted	-4483
uelles	-4484
▁interests	-4485
▁introdu	-4486
▁separ	-4487
▁utiliser	-4488
▁−	-4489
▁event	-4490
▁complément	-4491
▁gener	-4492
he	-4493
▁guaran	-4494
▁aéri	-4495
▁catégorie	-4496
▁understanding	-4497
iale	-4498
▁nombreuses	-4499
▁provisional	-4500
▁té	-4501
▁manner	-4502
▁liqu	-4503
▁agit	-4504
ann	-4505
▁sociétés	-4506
▁directement	-4507
▁adoptée	-4508
▁merc	-4509
▁définition	-4510
▁course	-4511
▁régionale	-4512
utri	-4513
▁kos	-4514
ave	-4515
▁recommande	-4516
▁enhance	-4517
▁covenant	-4518
crit	-4519
▁entraî	-4520
▁transfert	-4521
▁immédi	-4522
▁often	-4523
▁deme	-4524
▁intel	-4525
going	-4526
▁science	-4527
▁caractér	-4528
more	-4529
▁indicateurs	-4530
▁responsabil	-4531
▁dam	-4532
▁migration	-4533
▁officers	-4534
▁claire	-4535
▁commissions	-4536
▁soud	-4537
▁sommet	-4538
▁inqu	-4539
cents	-4540
▁obstacles	-4541
▁others	-4542
▁colomb	-4543
▁educational	-4544
▁échelle	-4545
jan	-4546
by	-4547
▁revised	-4548
Os	-4549
▁beaucoup	-4550
▁courts	-4551
▁dû	-4552
▁lesquels	-4553
▁oj	-4554
▁institutionn	-4555
▁souligné	-4556
enth	-4557
▁éviter	-4558
▁guarantee	-4559
▁dated	-4560
▁couver	-4561
▁organe	-4562
▁sectors	-4563
▁possibilités	-4564
▁peine	-4565
▁bonne	-4566
▁capit	-4567
▁fondamentaux	-4568
▁mass	-4569
▁mariti	-4570
▁adopt	-4571
eth	-4572
▁modifications	-4573
▁commitments	-4574
▁libre	-4575
▁euro	-4576
▁concernés	-4577
▁chi	-4578
▁whose	-4579
▁poor	-4580
▁terres	-4581
▁forest	-4582
▁administratives	-4583
▁oc	-4584
isions	-4585
▁tool	-4586
▁house	-4587
▁substance	-4588
▁consommation	-4589
▁functions	-4590
▁atteindre	-4591
▁extr	-4592
▁led	-4593
▁menées	-4594
▁either	-4595
oid	-4596
▁avanc	-4597
▁posts	-4598
▁opportunity	-4599
▁nucléaire	-4600
▁pacifique	-4601
▁enterpr	-4602
▁furthermore	-4603
▁introduced	-4604
▁évaluer	-4605
▁propre	-4606
▁urban	-4607
▁unique	-4608
▁peuple	-4609
▁entités	-4610
▁ong	-4611
▁restruct	-4612
▁stake	-4613
▁investissements	-4614
▁companies	-4615
▁guerre	-4616
▁improving	-4617
▁detailed	-4618
▁fédér	-4619
▁acquit	-4620
▁ratification	-4621
▁multilateral	-4622
▁entities	-4623
ovo	-4624
▁lanc	-4625
▁biennium	-4626
▁disabilities	-4627
▁achieved	-4628
▁voul	-4629
▁subse	-4630
▁quo	-4631
▁disas	-4632
▁humaines	-4633
▁universal	-4634
▁chemical	-4635
▁présentation	-4636
▁tribunaux	-4637
pens	-4638
urance	-4639
▁then	-4640
▁détaill	-4641
▁enable	-4642
▁emergency	-4643
▁argen	-4644
inted	-4645
▁physical	-4646
▁credit	-4647
▁preuve	-4648
▁élarg	-4649
▁considérée	-4650
▁pénal	-4651
▁importante	-4652
▁dise	-4653
cepti	-4654
▁asia	-4655
▁désign	-4656
▁militaire	-4657
▁charter	-4658
▁loss	-4659
▁customs	-4660
ologiques	-4661
▁octro	-4662
▁modification	-4663
▁positions	-4664
▁price	-4665
atric	-4666
aign	-4667
▁character	-4668
▁indis	-4669
▁chim	-4670
ttes	-4671
▁conséquences	-4672
▁neg	-4673
▁resource	-4674
▁serv	-4675
▁début	-4676
▁rendu	-4677
▁marchandises	-4678
ury	-4679
▁speak	-4680
▁composition	-4681
▁bénéfici	-4682
▁follows	-4683
port	-4684
▁exception	-4685
▁logis	-4686
▁elements	-4687
moins	-4688
▁lear	-4689
▁dix	-4690
▁enquêtes	-4691
▁dessus	-4692
▁indicators	-4693
▁semb	-4694
▁throughout	-4695
▁trafic	-4696
▁recognized	-4697
▁eas	-4698
▁M	-4699
▁pouvoirs	-4700
▁souligne	-4701
quar	-4702
▁tari	-4703
▁visés	-4704
▁adoptées	-4705
▁movement	-4706
vice	-4707
▁montr	-4708
▁suscepti	-4709
▁interdiction	-4710
▁douan	-4711
▁travel	-4712
▁assets	-4713
ciation	-4714
aci	-4715
▁fifth	-4716
▁conséquence	-4717
▁seraient	-4718
oth	-4719
▁millén	-4720
▁crédit	-4721
▁accomplis	-4722
▁statistical	-4723
▁governance	-4724
▁auteurs	-4725
▁implic	-4726
▁collective	-4727
▁top	-4728
▁cinquième	-4729
▁belg	-4730
▁abuse	-4731
▁range	-4732
▁millénaire	-4733
criptions	-4734
▁stric	-4735
▁headquar	-4736
▁voy	-4737
ea	-4738
▁desp	-4739
▁pertinentes	-4740
▁summit	-4741
▁housing	-4742
▁raisons	-4743
▁kosovo	-4744
▁language	-4745
▁items	-4746
▁average	-4747
▁resid	-4748
▁facul	-4749
▁whole	-4750
▁rwanda	-4751
▁prévue	-4752
▁demonstr	-4753
▁prévenir	-4754
▁here	-4755
▁charte	-4756
▁graves	-4757
▁félicite	-4758
▁fabric	-4759
▁socio	-4760
▁exceed	-4761
▁model	-4762
▁biennal	-4763
▁professional	-4764
▁recon	-4765
ctive	-4766
▁hau	-4767
▁dernière	-4768
▁bon	-4769
▁sudan	-4770
ured	-4771
▁headquarters	-4772
èvement	-4773
▁interpré	-4774
▁outcome	-4775
▁accid	-4776
▁concurrence	-4777
wa	-4778
▁alimentaire	-4779
▁micro	-4780
▁directly	-4781
▁familles	-4782
▁dri	-4783
▁neu	-4784
▁considérab	-4785
▁geneva	-4786
▁consistent	-4787
▁gas	-4788
▁traités	-4789
▁condamn	-4790
▁mix	-4791
▁élevé	-4792
bo	-4793
▁conver	-4794
▁médic	-4795
▁exécutif	-4796
▁rates	-4797
▁institute	-4798
▁racial	-4799
▁écrite	-4800
▁destinés	-4801
▁stratégique	-4802
▁perp	-4803
▁complete	-4804
èces	-4805
▁comments	-4806
équent	-4807
▁single	-4808
▁recons	-4809
ential	-4810
▁fisc	-4811
▁eg	-4812
▁favor	-4813
▁proportion	-4814
▁causes	-4815
▁ligne	-4816
▁respecter	-4817
ésion	-4818
▁mines	-4819
ending	-4820
ués	-4821
▁priorités	-4822
▁autorisation	-4823
▁done	-4824
vernmental	-4825
tary	-4826
▁pou	-4827
▁consum	-4828
téri	-4829
▁étrangers	-4830
▁échéant	-4831
▁tan	-4832
▁utilisés	-4833
▁adaptation	-4834
▁accroître	-4835
▁cle	-4836
ennium	-4837
ican	-4838
▁intitulé	-4839
▁genève	-4840
▁payment	-4841
undi	-4842
zed	-4843
eux	-4844
▁guarante	-4845
▁ajout	-4846
▁déclaré	-4847
ians	-4848
ght	-4849
▁hyd	-4850
ua	-4851
▁élément	-4852
▁avoid	-4853
▁engage	-4854
ring	-4855
▁ving	-4856
▁command	-4857
▁teach	-4858
▁extent	-4859
lé	-4860
erves	-4861
▁conséquent	-4862
▁affirm	-4863
rid	-4864
uay	-4865
▁sites	-4866
illes	-4867
ew	-4868
▁pes	-4869
▁élections	-4870
▁poss	-4871
ually	-4872
▁millennium	-4873
▁participate	-4874
▁déco	-4875
▁aujour	-4876
▁consent	-4877
ducing	-4878
▁aujourd	-4879
▁efficiency	-4880
tém	-4881
▁regards	-4882
▁views	-4883
lle	-4884
▁diver	-4885
▁specified	-4886
▁supérieur	-4887
▁studies	-4888
▁religious	-4889
érés	-4890
▁reasons	-4891
▁wide	-4892
hasi	-4893
mun	-4894
▁registr	-4895
vision	-4896
▁déliv	-4897
▁clari	-4898
holders	-4899
mping	-4900
rage	-4901
▁humains	-4902
▁enj	-4903
▁balance	-4904
▁stip	-4905
ji	-4906
▁importants	-4907
▁paid	-4908
▁porte	-4909
▁azer	-4910
▁liquid	-4911
▁provin	-4912
▁bulg	-4913
▁mineurs	-4914
▁essentiel	-4915
▁enfin	-4916
tte	-4917
▁traitements	-4918
▁cc	-4919
erait	-4920
▁concluded	-4921
mitted	-4922
▁approuvé	-4923
gées	-4924
▁interd	-4925
▁developments	-4926
▁version	-4927
▁word	-4928
▁minorités	-4929
▁vous	-4930
▁includes	-4931
▁estimated	-4932
▁intensi	-4933
▁electron	-4934
▁actuelle	-4935
▁industrial	-4936
semin	-4937
uvernement	-4938
▁terrain	-4939
▁africaine	-4940
▁pollution	-4941
▁constituent	-4942
▁compati	-4943
▁consequ	-4944
sp	-4945
▁wee	-4946
▁garanties	-4947
▁azerb	-4948
▁stocks	-4949
quie	-4950
tén	-4951
▁japon	-4952
▁emphasi	-4953
▁duty	-4954
▁échanges	-4955
▁germany	-4956
▁alia	-4957
▁anci	-4958
▁japan	-4959
ung	-4960
▁despite	-4961
▁écoles	-4962
tream	-4963
▁periodic	-4964
▁dissemin	-4965
▁appre	-4966
▁sea	-4967
▁sensibilisation	-4968
▁lutter	-4969
▁alig	-4970
▁méthode	-4971
▁guidance	-4972
▁prices	-4973
▁soudan	-4974
rais	-4975
▁'	-4976
▁valeurs	-4977
▁recru	-4978
▁preven	-4979
▁company	-4980
bi	-4981
▁remains	-4982
▁dos	-4983
▁appuyer	-4984
▁designed	-4985
▁programm	-4986
▁jurid	-4987
▁conseils	-4988
▁territor	-4989
▁accent	-4990
▁israéli	-4991
▁pi	-4992
▁suivre	-4993
▁chiff	-4994
▁lan	-4995
tivité	-4996
tables	-4997
▁avenir	-4998
▁priorité	-4999
▁mm	-5000
▁elimination	-5001
▁apparten	-5002
▁modifier	-5003
▁animaux	-5004
▁close	-5005
▁priorities	-5006
▁applique	-5007
tad	-5008
▁dar	-5009
▁explic	-5010
▁recommandé	-5011
elling	-5012
▁hor	-5013
▁pension	-5014
gu	-5015
▁personal	-5016
ilities	-5017
tance	-5018
▁much	-5019
▁véhicule	-5020
▁S	-5021
▁confi	-5022
▁feu	-5023
▁pron	-5024
▁expenditure	-5025
▁critical	-5026
▁effectively	-5027
▁déplac	-5028
▁governing	-5029
▁comply	-5030
▁essai	-5031
▁espace	-5032
ee	-5033
amment	-5034
▁consolidation	-5035
ees	-5036
▁units	-5037
▁profit	-5038
▁effectiveness	-5039
▁asked	-5040
▁itself	-5041
▁him	-5042
▁outside	-5043
ored	-5044
▁ouv	-5045
hol	-5046
arily	-5047
▁intermédiaire	-5048
▁chin	-5049
▁déchets	-5050
▁ongoing	-5051
via	-5052
▁fourni	-5053
▁recommends	-5054
▁importantes	-5055
▁debt	-5056
‐@@	-5057
▁seek	-5058
▁rur	-5059
▁cong	-5060
fié	-5061
▁catégories	-5062
▁présence	-5063
▁systém	-5064
▁usage	-5065
▁elections	-5066
▁mus	-5067
ania	-5068
▁insta	-5069
▁concept	-5070
▁responsabilités	-5071
▁mexic	-5072
▁ille	-5073
eless	-5074
▁hours	-5075
▁organisé	-5076
▁appeal	-5077
▁inclusion	-5078
▁allemagne	-5079
▁procéder	-5080
▁observation	-5081
▁ai	-5082
▁unh	-5083
▁improved	-5084
ouvel	-5085
erci	-5086
▁bang	-5087
▁discip	-5088
▁efficient	-5089
▁infractions	-5090
▁reçu	-5091
▁vill	-5092
▁@@‐@@	-5093
▁conservation	-5094
▁occupation	-5095
▁rencon	-5096
▁mari	-5097
▁defence	-5098
▁exportation	-5099
uvant	-5100
liers	-5101
▁listed	-5102
▁angl	-5103
▁associated	-5104
▁demander	-5105
▁illegal	-5106
▁bir	-5107
▁mises	-5108
▁près	-5109
▁electronic	-5110
elves	-5111
▁suc	-5112
▁kore	-5113
▁indispens	-5114
▁jou	-5115
▁allocation	-5116
▁published	-5117
iop	-5118
▁successful	-5119
▁urgent	-5120
▁difficul	-5121
▁abord	-5122
▁spéciales	-5123
▁added	-5124
habil	-5125
▁juridic	-5126
▁voluntary	-5127
▁arbitr	-5128
nels	-5129
▁persist	-5130
▁illég	-5131
▁adolescents	-5132
▁connaissances	-5133
▁chec	-5134
▁renew	-5135
ési	-5136
▁pack	-5137
lor	-5138
▁orientation	-5139
▁arabe	-5140
▁donateurs	-5141
▁changement	-5142
▁gross	-5143
▁organisme	-5144
▁rapide	-5145
uations	-5146
▁confer	-5147
▁@@*@@	-5148
▁allég	-5149
▁israeli	-5150
▁supporting	-5151
tability	-5152
ressive	-5153
tual	-5154
▁médias	-5155
▁bis	-5156
▁campaign	-5157
▁affaire	-5158
▁insurance	-5159
▁anglais	-5160
▁informé	-5161
▁deliver	-5162
▁solidar	-5163
ête	-5164
▁vess	-5165
▁moreover	-5166
▁operating	-5167
▁perspective	-5168
▁favoriser	-5169
▁producteurs	-5170
▁conformité	-5171
▁emissions	-5172
aces	-5173
▁identify	-5174
▁margin	-5175
▁grandes	-5176
naire	-5177
▁os	-5178
▁exc	-5179
▁receive	-5180
▁reti	-5181
ged	-5182
▁fourniture	-5183
▁importations	-5184
▁begin	-5185
▁exclusive	-5186
▁waste	-5187
▁substan	-5188
▁sat	-5189
▁creation	-5190
▁dan	-5191
▁clairement	-5192
▁flow	-5193
aît	-5194
ignes	-5195
▁substantive	-5196
▁convic	-5197
▁principales	-5198
▁supplement	-5199
▁détenus	-5200
▁navig	-5201
▁slova	-5202
▁handicapées	-5203
▁content	-5204
▁fos	-5205
▁offre	-5206
▁récent	-5207
▁sexuelle	-5208
ology	-5209
▁efficaces	-5210
▁category	-5211
▁live	-5212
endra	-5213
▁classification	-5214
▁crédits	-5215
▁welcomed	-5216
GOs	-5217
▁faible	-5218
▁job	-5219
▁fair	-5220
▁@@$@@	-5221
▁confid	-5222
▁ambass	-5223
▁diffusion	-5224
▁stakeholders	-5225
▁mener	-5226
▁once	-5227
èce	-5228
▁tch	-5229
▁avons	-5230
▁réalisés	-5231
▁porter	-5232
▁att	-5233
▁district	-5234
▁susp	-5235
▁réglementation	-5236
▁sommes	-5237
▁facteurs	-5238
▁@@”@@	-5239
▁alternative	-5240
▁histor	-5241
▁infrastructures	-5242
▁scale	-5243
▁noté	-5244
▁accueil	-5245
▁paper	-5246
▁vente	-5247
region	-5248
mob	-5249
▁innovation	-5250
▁quelques	-5251
ètes	-5252
▁markets	-5253
▁competition	-5254
▁vulnerable	-5255
ulaires	-5256
stan	-5257
▁imports	-5258
cemment	-5259
▁récemment	-5260
▁autant	-5261
ordin	-5262
▁régulière	-5263
▁fondée	-5264
orm	-5265
▁renouvel	-5266
étique	-5267
▁options	-5268
▁circulation	-5269
▁replaced	-5270
▁mess	-5271
▁faculta	-5272
▁practical	-5273
▁enjoy	-5274
aw	-5275
▁civilian	-5276
▁NGOs	-5277
▁participé	-5278
▁bol	-5279
rought	-5280
▁amendement	-5281
▁réaliser	-5282
▁conférences	-5283
▁unhcr	-5284
lav	-5285
▁mag	-5286
▁stabilité	-5287
arus	-5288
▁colon	-5289
▁humanitaires	-5290
▁gouvernance	-5291
▁volonté	-5292
kes	-5293
▁télé	-5294
▁infraction	-5295
▁events	-5296
▁vir	-5297
los	-5298
▁welcomes	-5299
▁budgetary	-5300
▁definition	-5301
irme	-5302
▁urb	-5303
▁unité	-5304
▁brought	-5305
▁tenant	-5306
▁grave	-5307
▁charges	-5308
▁argu	-5309
▁vise	-5310
▁north	-5311
▁indire	-5312
▁responsable	-5313
aise	-5314
erra	-5315
▁consumption	-5316
▁étrangères	-5317
▁inférie	-5318
▁cher	-5319
▁éliminer	-5320
▁circon	-5321
▁determined	-5322
▁caractéris	-5323
adic	-5324
▁reiter	-5325
▁envoy	-5326
▁annexes	-5327
▁compétence	-5328
▁décide	-5329
▁généraux	-5330
▁modern	-5331
▁transparence	-5332
utés	-5333
▁signed	-5334
▁fas	-5335
ular	-5336
▁relationship	-5337
▁procurement	-5338
▁described	-5339
mor	-5340
▁bat	-5341
▁déplo	-5342
▁stability	-5343
pers	-5344
▁interventions	-5345
▁stage	-5346
▁adéqu	-5347
▁tradu	-5348
akh	-5349
▁pé	-5350
▁temporary	-5351
▁importation	-5352
usse	-5353
▁enregistre	-5354
▁réseaux	-5355
▁approxim	-5356
▁propose	-5357
▁compétente	-5358
▁skill	-5359
▁org	-5360
▁parce	-5361
▁puissent	-5362
▁highligh	-5363
ox	-5364
▁logement	-5365
alities	-5366
▁prolifération	-5367
▁vérification	-5368
▁modèle	-5369
▁claims	-5370
▁sexe	-5371
▁factors	-5372
▁concernées	-5373
▁decre	-5374
▁raciale	-5375
▁ouverture	-5376
▁dispositif	-5377
uide	-5378
▁territoires	-5379
ilipp	-5380
▁registration	-5381
▁hoc	-5382
▁calend	-5383
âti	-5384
ably	-5385
▁philipp	-5386
ynam	-5387
▁prie	-5388
▁couv	-5389
▁corpor	-5390
ême	-5391
ara	-5392
▁values	-5393
▁transn	-5394
▁puisse	-5395
▁vit	-5396
▁lignes	-5397
▁create	-5398
▁géograph	-5399
uite	-5400
▁indiquer	-5401
▁portugal	-5402
▁completed	-5403
ways	-5404
▁clearly	-5405
mps	-5406
▁unes	-5407
▁acteurs	-5408
éric	-5409
▁contrat	-5410
▁liaison	-5411
▁star	-5412
▁dangere	-5413
▁transmission	-5414
▁chargée	-5415
▁never	-5416
▁thems	-5417
▁themselves	-5418
▁assign	-5419
▁surv	-5420
▁paiement	-5421
▁optional	-5422
▁recovery	-5423
▁resulting	-5424
▁prom	-5425
▁maritime	-5426
▁prescriptions	-5427
▁core	-5428
▁vingt	-5429
▁sierra	-5430
▁adjust	-5431
▁lower	-5432
▁alban	-5433
▁dign	-5434
▁agent	-5435
▁climatiques	-5436
▁fré	-5437
▁plén	-5438
▁hcr	-5439
▁transactions	-5440
▁guide	-5441
▁tes	-5442
▁gaza	-5443
▁rather	-5444
▁enfance	-5445
▁infec	-5446
▁annuel	-5447
▁constitutional	-5448
▁fifty	-5449
oph	-5450
▁soix	-5451
▁î	-5452
▁majority	-5453
mon	-5454
▁incidence	-5455
▁setting	-5456
érant	-5457
▁concr	-5458
▁chefs	-5459
▁tard	-5460
▁flo	-5461
▁palestine	-5462
nel	-5463
ivalent	-5464
▁proliferation	-5465
▁achieving	-5466
cra	-5467
▁arch	-5468
▁armés	-5469
▁affectation	-5470
has	-5471
▁naturelles	-5472
▁dossi	-5473
▁numéro	-5474
▁importe	-5475
itures	-5476
cell	-5477
▁communautaires	-5478
▁favour	-5479
▁delivery	-5480
▁préjudice	-5481
▁audi	-5482
▁rapidement	-5483
▁immigration	-5484
ieuses	-5485
▁examine	-5486
▁extension	-5487
▁préparation	-5488
▁compter	-5489
tt	-5490
▁territories	-5491
onde	-5492
▁peaceful	-5493
ancing	-5494
▁culturels	-5495
▁geograph	-5496
know	-5497
▁unep	-5498
▁concre	-5499
▁cinquante	-5500
▁accounts	-5501
▁grands	-5502
▁hong	-5503
▁compren	-5504
▁indique	-5505
▁chimiques	-5506
▁tâches	-5507
habilitation	-5508
ries	-5509
ob	-5510
▁considers	-5511
▁globale	-5512
ically	-5513
▁démar	-5514
▁description	-5515
▁prosecut	-5516
▁safegu	-5517
▁home	-5518
▁labor	-5519
▁budgétaires	-5520
▁considère	-5521
▁aient	-5522
▁invited	-5523
▁avantages	-5524
ij	-5525
▁dynam	-5526
▁insuff	-5527
▁hu	-5528
▁da	-5529
▁'@@	-5530
▁cess	-5531
▁bey	-5532
▁succès	-5533
▁chacun	-5534
▁devait	-5535
▁formulation	-5536
..	-5537
▁india	-5538
▁faites	-5539
▁norv	-5540
▁hô	-5541
▁manque	-5542
▁parvenir	-5543
▁name	-5544
▁bor	-5545
▁cam	-5546
▁please	-5547
aties	-5548
tees	-5549
▁commis	-5550
▁recens	-5551
▁processing	-5552
▁fri	-5553
▁jurisdiction	-5554
▁publications	-5555
▁bene	-5556
▁outil	-5557
cing	-5558
▁nutri	-5559
▁placed	-5560
▁recue	-5561
▁island	-5562
▁immédiat	-5563
▁treaties	-5564
▁addressing	-5565
▁subpar	-5566
▁exclusion	-5567
▁vér	-5568
▁offences	-5569
▁recognition	-5570
tième	-5571
lectoral	-5572
aria	-5573
▁transparency	-5574
▁juge	-5575
▁possibility	-5576
ick	-5577
▁around	-5578
▁définir	-5579
▁today	-5580
ids	-5581
▁majorité	-5582
▁west	-5583
▁determination	-5584
▁préal	-5585
▁scheme	-5586
▁travaill	-5587
▁regulatory	-5588
▁officer	-5589
▁multilatér	-5590
▁room	-5591
▁déployés	-5592
▁provenant	-5593
▁you	-5594
▁vii	-5595
▁auxquels	-5596
▁involving	-5597
▁développer	-5598
▁fournisse	-5599
▁continuing	-5600
▁subparagraph	-5601
▁ways	-5602
▁mach	-5603
ics	-5604
▁withdra	-5605
▁ordonn	-5606
▁fisher	-5607
▁appear	-5608
▁extre	-5609
▁collecte	-5610
ides	-5611
▁gh	-5612
▁settlement	-5613
▁transnational	-5614
▁incidences	-5615
▁instamment	-5616
▁commerciales	-5617
▁yo	-5618
▁délais	-5619
gment	-5620
▁faite	-5621
▁requires	-5622
▁invité	-5623
▁struct	-5624
▁publié	-5625
▁obtain	-5626
▁appoint	-5627
▁sémin	-5628
▁immun	-5629
▁reten	-5630
usement	-5631
▁series	-5632
▁trial	-5633
▁dépos	-5634
▁concerné	-5635
▁sr	-5636
▁reduced	-5637
▁garantie	-5638
▁technologie	-5639
▁attach	-5640
▁risks	-5641
▁containing	-5642
▁collection	-5643
▁indépendance	-5644
▁takes	-5645
▁produced	-5646
▁retour	-5647
▁leban	-5648
▁bénéficier	-5649
▁sched	-5650
▁reconstruction	-5651
itim	-5652
▁debate	-5653
▁entend	-5654
▁maur	-5655
ola	-5656
▁burundi	-5657
▁aura	-5658
▁extraordin	-5659
▁continues	-5660
▁côte	-5661
▁farm	-5662
▁gree	-5663
▁lac	-5664
▁prostitution	-5665
rief	-5666
kely	-5667
▁bilateral	-5668
sibles	-5669
nu	-5670
▁formal	-5671
▁fores	-5672
▁textes	-5673
▁alimentaires	-5674
▁regime	-5675
▁traditional	-5676
▁judges	-5677
▁libertés	-5678
▁préf	-5679
▁portée	-5680
▁summary	-5681
ourg	-5682
▁just	-5683
▁organisée	-5684
▁spati	-5685
▁accompagn	-5686
▁contracts	-5687
▁habitat	-5688
▁regret	-5689
ologie	-5690
▁ide	-5691
ulaire	-5692
nent	-5693
▁décenn	-5694
▁invent	-5695
▁tunis	-5696
▁conforme	-5697
▁appare	-5698
▁souha	-5699
▁optim	-5700
▁expul	-5701
ired	-5702
▁domin	-5703
▁route	-5704
▁permanente	-5705
▁étranger	-5706
lit	-5707
▁visée	-5708
▁exercer	-5709
▁accorder	-5710
▁survey	-5711
imb	-5712
▁instruction	-5713
▁revenu	-5714
▁reached	-5715
oud	-5716
ommun	-5717
▁corée	-5718
▁minorities	-5719
▁animal	-5720
▁essais	-5721
▁installation	-5722
▁experien	-5723
ulated	-5724
▁dépass	-5725
▁cell	-5726
▁tal	-5727
oration	-5728
▁improvement	-5729
▁sah	-5730
▁utile	-5731
▁om	-5732
▁constitutionn	-5733
▁korea	-5734
▁modifié	-5735
▁vulnérables	-5736
bes	-5737
èrent	-5738
▁semin	-5739
▁inhum	-5740
▁alimentation	-5741
▁trust	-5742
fare	-5743
▁estimé	-5744
tise	-5745
mpt	-5746
▁submission	-5747
face	-5748
▁supprim	-5749
ugosla	-5750
ieu	-5751
▁marri	-5752
▁ky	-5753
▁maladies	-5754
▁agricoles	-5755
▁goal	-5756
▁ken	-5757
lion	-5758
▁heure	-5759
▁subregion	-5760
pir	-5761
osys	-5762
▁réd	-5763
▁appropriées	-5764
ross	-5765
ugoslav	-5766
bation	-5767
▁american	-5768
▁quelle	-5769
▁specialized	-5770
▁displaced	-5771
▁negative	-5772
▁grounds	-5773
▁boliv	-5774
▁palestinien	-5775
uellement	-5776
▁décl	-5777
▁principalement	-5778
arch	-5779
most	-5780
▁resol	-5781
▁spons	-5782
▁fao	-5783
dle	-5784
▁comprend	-5785
▁eradic	-5786
▁emplois	-5787
▁limites	-5788
istance	-5789
cours	-5790
▁unesco	-5791
▁aides	-5792
▁donne	-5793
▁contrats	-5794
drait	-5795
▁générales	-5796
▁connex	-5797
lation	-5798
▁soutenir	-5799
▁draf	-5800
enary	-5801
▁recently	-5802
▁chez	-5803
clam	-5804
▁statistique	-5805
▁circonstances	-5806
▁révision	-5807
▁nationalité	-5808
▁réaffirm	-5809
▁flex	-5810
antill	-5811
▁bord	-5812
▁destinées	-5813
rench	-5814
alem	-5815
▁fishing	-5816
gration	-5817
ding	-5818
▁oil	-5819
▁etat	-5820
ene	-5821
zation	-5822
▁expli	-5823
▁independence	-5824
▁accordingly	-5825
▁approf	-5826
▁leone	-5827
▁professionnelle	-5828
▁règlements	-5829
▁reconnaissance	-5830
▁)@@	-5831
▁progressive	-5832
▁échantill	-5833
▁débats	-5834
▁conduite	-5835
▁suisse	-5836
▁utilisé	-5837
▁dégrad	-5838
▁élè	-5839
érance	-5840
▁recettes	-5841
▁later	-5842
dite	-5843
▁beyond	-5844
▁subjec	-5845
▁adressée	-5846
▁pal	-5847
▁diffus	-5848
▁considéré	-5849
▁chyp	-5850
▁quelles	-5851
▁bri	-5852
▁langue	-5853
▁kaz	-5854
▁envisager	-5855
▁encouraged	-5856
wers	-5857
illed	-5858
▁duties	-5859
▁longer	-5860
▁fulfil	-5861
pes	-5862
▁investigations	-5863
▁conç	-5864
▁propriété	-5865
▁nether	-5866
▁compared	-5867
▁jouer	-5868
▁near	-5869
▁producers	-5870
arti	-5871
çant	-5872
▁ire	-5873
▁categories	-5874
▁netherlands	-5875
▁effor	-5876
▁plant	-5877
▁tient	-5878
énie	-5879
▁unctad	-5880
▁turk	-5881
urred	-5882
▁french	-5883
▁répartition	-5884
▁tonnes	-5885
▁sixième	-5886
▁drogues	-5887
▁islamic	-5888
▁moyenne	-5889
▁agré	-5890
▁few	-5891
▁amending	-5892
▁italy	-5893
▁chargés	-5894
▁braz	-5895
▁suspec	-5896
viation	-5897
▁presence	-5898
▁step	-5899
▁alleged	-5900
▁pacific	-5901
▁appré	-5902
▁implications	-5903
▁malgré	-5904
▁enregistrement	-5905
▁adhésion	-5906
itant	-5907
▁timor	-5908
▁imposed	-5909
▁signature	-5910
▁ireland	-5911
nelles	-5912
▁brief	-5913
▁contenant	-5914
▁across	-5915
▁faudrait	-5916
▁fuel	-5917
▁dirige	-5918
▁punishment	-5919
ught	-5920
▁forêts	-5921
isations	-5922
▁physique	-5923
▁discussed	-5924
▁pref	-5925
▁acquisition	-5926
▁serve	-5927
▁quelque	-5928
▁prol	-5929
▁eston	-5930
▁rémun	-5931
▁supervision	-5932
▁ministres	-5933
isent	-5934
key	-5935
▁intellec	-5936
▁confiance	-5937
▁satell	-5938
▁raised	-5939
▁empow	-5940
▁langues	-5941
▁move	-5942
▁sixth	-5943
▁électronique	-5944
atéraux	-5945
▁pourcentage	-5946
▁brut	-5947
▁pauvres	-5948
nelle	-5949
atem	-5950
▁mou	-5951
▁espr	-5952
▁relief	-5953
▁souff	-5954
▁frontières	-5955
▁juges	-5956
▁stor	-5957
▁partenariats	-5958
▁traiter	-5959
▁guatem	-5960
▁facultatif	-5961
▁remar	-5962
gés	-5963
▁considération	-5964
▁deep	-5965
▁welfare	-5966
▁advice	-5967
ares	-5968
▁camb	-5969
▁empêcher	-5970
bbe	-5971
▁éth	-5972
▁unités	-5973
▁démocratie	-5974
▁liens	-5975
▁extended	-5976
▁determine	-5977
anch	-5978
▁chois	-5979
▁utilisées	-5980
▁students	-5981
▁menace	-5982
▁consequences	-5983
▁destination	-5984
▁jord	-5985
▁mexico	-5986
▁lu	-5987
tendu	-5988
▁essentiellement	-5989
iche	-5990
▁budgets	-5991
itement	-5992
▁amendements	-5993
▁préoccupation	-5994
eté	-5995
▁swit	-5996
etr	-5997
▁rehabilitation	-5998
▁proven	-5999
èque	-6000
▁connaissance	-6001
▁remed	-6002
▁registered	-6003
▁link	-6004
▁rurales	-6005
▁procès	-6006
▁stri	-6007
▁dumping	-6008
▁trop	-6009
▁difficile	-6010
▁darf	-6011
mark	-6012
▁latin	-6013
▁connaître	-6014
enty	-6015
▁ratif	-6016
▁instructions	-6017
▁diversité	-6018
▁refugee	-6019
▁populaire	-6020
▁accél	-6021
▁economies	-6022
▁useful	-6023
uté	-6024
▁kg	-6025
_@@	-6026
▁généralement	-6027
▁uniquement	-6028
▁plenary	-6029
▁swed	-6030
ood	-6031
wise	-6032
▁functioning	-6033
▁middle	-6034
▁datée	-6035
crits	-6036
▁passé	-6037
▁franç	-6038
▁crucial	-6039
ki	-6040
contre	-6041
▁voud	-6042
▁turkey	-6043
▁expir	-6044
▁esprit	-6045
▁democracy	-6046
tically	-6047
▁university	-6048
▁maintenir	-6049
▁criminalité	-6050
▁hosp	-6051
▁meaning	-6052
kh	-6053
▁terrorist	-6054
mosph	-6055
lées	-6056
▁.@@	-6057
▁salle	-6058
▁donnée	-6059
mples	-6060
▁ressor	-6061
▁catastrophes	-6062
▁encontre	-6063
▁green	-6064
▁impli	-6065
▁remained	-6066
▁kind	-6067
tements	-6068
▁twenty	-6069
▁times	-6070
▁prolong	-6071
▁thereof	-6072
▁milieu	-6073
▁requirement	-6074
▁contraire	-6075
ered	-6076
▁humaine	-6077
▁irlande	-6078
▁rejet	-6079
▁workshop	-6080
▁conferences	-6081
▁birth	-6082
▁acknow	-6083
▁delay	-6084
▁advoc	-6085
▁known	-6086
abled	-6087
▁drugs	-6088
▁meilleure	-6089
▁planned	-6090
▁holding	-6091
usalem	-6092
▁allant	-6093
▁actuel	-6094
▁insuffis	-6095
▁totale	-6096
▁competi	-6097
▁indispensable	-6098
▁assum	-6099
▁created	-6100
▁auraient	-6101
▁atmosph	-6102
▁cari	-6103
▁dette	-6104
▁ministers	-6105
▁difficulties	-6106
▁contrôles	-6107
▁disaster	-6108
▁mains	-6109
▁indicate	-6110
den	-6111
▁ultérie	-6112
▁interprétation	-6113
▁champ	-6114
▁dispositifs	-6115
▁appliquent	-6116
▁maintenant	-6117
▁approbation	-6118
▁embar	-6119
éria	-6120
▁contracting	-6121
▁seule	-6122
▁expertise	-6123
andu	-6124
▁dispens	-6125
▁découl	-6126
▁prévus	-6127
pal	-6128
▁dési	-6129
▁école	-6130
▁benefic	-6131
▁kh	-6132
▁brés	-6133
▁petits	-6134
andis	-6135
▁front	-6136
▁separate	-6137
▁billion	-6138
▁italie	-6139
▁round	-6140
▁tasks	-6141
▁commissaire	-6142
▁temporaire	-6143
▁contient	-6144
▁homolog	-6145
▁brazil	-6146
▁communes	-6147
▁egyp	-6148
mine	-6149
▁sections	-6150
▁certification	-6151
▁spain	-6152
▁conflicts	-6153
▁*	-6154
▁réex	-6155
▁shown	-6156
▁philippines	-6157
adi	-6158
active	-6159
▁normal	-6160
▁specifically	-6161
▁ajus	-6162
▁abol	-6163
▁visit	-6164
bu	-6165
▁sharing	-6166
▁reflected	-6167
ylum	-6168
▁préoccupations	-6169
▁officiel	-6170
▁déro	-6171
▁kenya	-6172
▁commissariat	-6173
▁xx	-6174
▁female	-6175
ously	-6176
▁asylum	-6177
▁cnu	-6178
▁incomb	-6179
▁allo	-6180
▁likely	-6181
▁ivoire	-6182
▁rail	-6183
▁oppos	-6184
▁generally	-6185
▁cont	-6186
▁tests	-6187
ova	-6188
▁tent	-6189
▁formulées	-6190
▁secondary	-6191
▁freedoms	-6192
▁offence	-6193
▁partnerships	-6194
▁incomp	-6195
▁marine	-6196
▁explain	-6197
▁asile	-6198
▁remb	-6199
▁skills	-6200
▁actual	-6201
▁acquitter	-6202
▁vacc	-6203
▁senior	-6204
inal	-6205
▁along	-6206
▁navires	-6207
▁renv	-6208
▁intégrée	-6209
▁languages	-6210
▁brésil	-6211
▁medium	-6212
▁eaux	-6213
▁complaints	-6214
▁campagne	-6215
▁northern	-6216
▁appartenant	-6217
▁mau	-6218
▁emphas	-6219
▁transformation	-6220
▁incidents	-6221
▁animals	-6222
▁codes	-6223
ancy	-6224
▁uns	-6225
▁bia	-6226
▁hydro	-6227
▁soixante	-6228
▁lux	-6229
▁conformity	-6230
▁lancé	-6231
ye	-6232
opho	-6233
▁datab	-6234
▁involvement	-6235
▁effectifs	-6236
▁run	-6237
▁draw	-6238
uter	-6239
▁soon	-6240
▁suggested	-6241
▁@@_@@	-6242
▁choix	-6243
onses	-6244
anmoins	-6245
▁sûreté	-6246
▁néanmoins	-6247
arge	-6248
▁turquie	-6249
▁étudier	-6250
▁couns	-6251
▁plat	-6252
▁représente	-6253
▁conduc	-6254
iner	-6255
▁sold	-6256
▁périodique	-6257
ds	-6258
▁sentence	-6259
▁nic	-6260
▁correspondant	-6261
▁preparatory	-6262
▁abus	-6263
èlement	-6264
car	-6265
cting	-6266
▁scientifiques	-6267
▁attén	-6268
▁entité	-6269
▁agg	-6270
▁classe	-6271
▁sor	-6272
éb	-6273
emb	-6274
▁ther	-6275
fin	-6276
▁myan	-6277
▁réponses	-6278
▁province	-6279
▁admis	-6280
ètres	-6281
▁feed	-6282
▁unless	-6283
▁régulièrement	-6284
▁myanmar	-6285
craft	-6286
▁allowed	-6287
view	-6288
▁kazakh	-6289
▁rencontr	-6290
▁occupied	-6291
▁armée	-6292
▁présentés	-6293
▁cp	-6294
▁préoccupé	-6295
▁complète	-6296
▁prenantes	-6297
▁territorial	-6298
▁start	-6299
▁remerci	-6300
ama	-6301
▁expan	-6302
▁reducing	-6303
▁enterprises	-6304
▁bangl	-6305
▁actifs	-6306
▁mauva	-6307
acities	-6308
▁guatemala	-6309
▁payments	-6310
ound	-6311
▁tir	-6312
▁spécifique	-6313
▁travers	-6314
▁chie	-6315
sif	-6316
▁ém	-6317
▁hol	-6318
▁endors	-6319
imes	-6320
▁household	-6321
érées	-6322
▁percentage	-6323
▁accession	-6324
▁bosnia	-6325
▁haz	-6326
▁cnuced	-6327
standing	-6328
▁organiser	-6329
▁susceptibles	-6330
▁prepare	-6331
▁entity	-6332
itness	-6333
▁défis	-6334
▁capacities	-6335
▁volontaires	-6336
bbean	-6337
▁biais	-6338
▁pressure	-6339
▁caribbean	-6340
▁actors	-6341
▁équitable	-6342
▁financer	-6343
▁contingents	-6344
▁aéro	-6345
▁impun	-6346
▁particuliers	-6347
▁dimension	-6348
▁election	-6349
▁mén	-6350
▁immédiatement	-6351
▁growing	-6352
▁imparti	-6353
▁component	-6354
▁gap	-6355
cession	-6356
crire	-6357
▁écrit	-6358
inée	-6359
▁combating	-6360
▁évén	-6361
▁expansion	-6362
tir	-6363
▁liban	-6364
▁approximately	-6365
▁rembours	-6366
▁caused	-6367
▁rappelle	-6368
▁adjo	-6369
▁entire	-6370
▁figurent	-6371
▁navigation	-6372
▁opposition	-6373
▁eastern	-6374
▁thème	-6375
▁dérog	-6376
ey	-6377
▁pages	-6378
▁option	-6379
▁absol	-6380
▁mouvement	-6381
ert	-6382
▁race	-6383
▁leave	-6384
▁prié	-6385
▁prestations	-6386
▁réformes	-6387
▁caraï	-6388
▁recruit	-6389
▁ced	-6390
▁exces	-6391
▁extradition	-6392
▁avancés	-6393
▁kil	-6394
ductive	-6395
▁rein	-6396
▁comptab	-6397
▁séances	-6398
erie	-6399
▁précis	-6400
▁raising	-6401
quoi	-6402
▁détail	-6403
tout	-6404
▁mode	-6405
▁pourquoi	-6406
▁surtout	-6407
entale	-6408
▁conception	-6409
enge	-6410
▁sauf	-6411
▁accountability	-6412
▁rub	-6413
▁fais	-6414
▁salv	-6415
▁islamique	-6416
▁committees	-6417
pped	-6418
▁bloc	-6419
▁mine	-6420
▁réc	-6421
▁users	-6422
xique	-6423
ciaux	-6424
▁budgétaire	-6425
▁influence	-6426
ja	-6427
adesh	-6428
yers	-6429
▁obligatoire	-6430
▁constitute	-6431
▁come	-6432
▁australia	-6433
▁cab	-6434
▁eigh	-6435
ude	-6436
▁bangladesh	-6437
ague	-6438
▁half	-6439
▁camps	-6440
▁procureur	-6441
ibilité	-6442
▁reflect	-6443
▁recrute	-6444
▁aband	-6445
▁ensuite	-6446
▁urges	-6447
▁ship	-6448
▁degrad	-6449
▁contac	-6450
▁followed	-6451
▁combus	-6452
sight	-6453
▁rang	-6454
▁expand	-6455
▁élèves	-6456
▁tools	-6457
▁focused	-6458
▁là	-6459
▁internes	-6460
▁reconnu	-6461
▁stressed	-6462
▁exige	-6463
▁sépar	-6464
▁établie	-6465
▁distinction	-6466
▁échel	-6467
▁derniers	-6468
uler	-6469
ommunic	-6470
▁voyage	-6471
▁réserves	-6472
▁maladie	-6473
▁ine	-6474
▁mutual	-6475
▁espagne	-6476
▁pouvant	-6477
atures	-6478
ertion	-6479
▁bosnie	-6480
▁reaffirm	-6481
▁lieux	-6482
vices	-6483
▁networks	-6484
▁ww	-6485
▁examination	-6486
▁engine	-6487
▁week	-6488
▁entered	-6489
▁approvision	-6490
vere	-6491
▁norway	-6492
▁abouti	-6493
▁octroi	-6494
urg	-6495
▁limite	-6496
▁evalu	-6497
iquement	-6498
▁instances	-6499
▁dépend	-6500
▁excell	-6501
▁caraïbes	-6502
▁closely	-6503
▁brit	-6504
▁components	-6505
▁mold	-6506
▁perspectives	-6507
▁juven	-6508
▁conformes	-6509
▁obtained	-6510
▁activement	-6511
▁approaches	-6512
▁prati	-6513
▁interpret	-6514
▁améric	-6515
▁peines	-6516
▁vision	-6517
▁menée	-6518
▁=	-6519
▁aircraft	-6520
▁judiciaires	-6521
▁constit	-6522
▁challenge	-6523
▁except	-6524
▁déplacées	-6525
▁atelier	-6526
▁sensi	-6527
▁largement	-6528
▁accepted	-6529
vant	-6530
▁prévoir	-6531
ran	-6532
vième	-6533
▁violences	-6534
▁elig	-6535
▁continuent	-6536
▁accounting	-6537
▁consommateurs	-6538
▁launched	-6539
▁nation	-6540
vereign	-6541
▁mad	-6542
▁sovereign	-6543
▁sin	-6544
anish	-6545
▁wat	-6546
▁abst	-6547
▁souver	-6548
▁purch	-6549
▁limitée	-6550
itenti	-6551
▁partage	-6552
▁bâti	-6553
▁arabes	-6554
▁dispar	-6555
▁visé	-6556
▁agricole	-6557
asi	-6558
▁septième	-6559
Cs	-6560
▁membership	-6561
▁mainly	-6562
▁austri	-6563
▁amounts	-6564
▁protected	-6565
▁terre	-6566
▁leadership	-6567
▁intol	-6568
▁scientifique	-6569
▁mettant	-6570
rc	-6571
▁prenant	-6572
aisse	-6573
▁damage	-6574
▁verification	-6575
▁prime	-6576
▁fire	-6577
▁palestiniens	-6578
▁présidence	-6579
▁attent	-6580
▁certificat	-6581
▁deven	-6582
▁page	-6583
trices	-6584
▁sain	-6585
▁sri	-6586
arie	-6587
▁fournis	-6588
▁wes	-6589
▁soup	-6590
▁nomm	-6591
▁owing	-6592
▁honour	-6593
▁luxemb	-6594
▁administratif	-6595
▁platform	-6596
▁iso	-6597
▁illicit	-6598
▁spéciaux	-6599
▁hors	-6600
▁enhanced	-6601
▁contenu	-6602
▁aware	-6603
▁ordinaire	-6604
mbers	-6605
▁namely	-6606
▁witness	-6607
▁plaintes	-6608
▁engager	-6609
▁appe	-6610
▁adult	-6611
lines	-6612
▁unfpa	-6613
ovine	-6614
▁candidats	-6615
▁indones	-6616
▁immediate	-6617
▁supplémentaire	-6618
▁fabrication	-6619
▁host	-6620
asse	-6621
▁electric	-6622
▁entière	-6623
mentionn	-6624
▁spir	-6625
▁powers	-6626
▁viet	-6627
▁toxic	-6628
▁permettra	-6629
▁présentées	-6630
▁éduc	-6631
▁voc	-6632
zég	-6633
▁susmentionn	-6634
ophob	-6635
zégovine	-6636
▁presse	-6637
rég	-6638
▁mi	-6639
▁sevent	-6640
▁ouvert	-6641
▁suffisamment	-6642
▁évaluations	-6643
▁européennes	-6644
▁élect	-6645
▁kazakhstan	-6646
▁costa	-6647
▁plut	-6648
cks	-6649
onési	-6650
▁efficacement	-6651
mobil	-6652
▁decade	-6653
▁hop	-6654
▁certificate	-6655
▁participating	-6656
ening	-6657
ortement	-6658
▁visite	-6659
▁résult	-6660
▁signé	-6661
▁complement	-6662
▁lum	-6663
▁indonési	-6664
ify	-6665
▁accordée	-6666
▁cut	-6667
itième	-6668
▁augmenté	-6669
sc	-6670
▁législatives	-6671
▁permettent	-6672
▁manifestations	-6673
ifi	-6674
▁affect	-6675
▁macro	-6676
▁respectivement	-6677
▁exportations	-6678
▁workshops	-6679
▁pertinents	-6680
▁suivante	-6681
▁cra	-6682
▁comprendre	-6683
ions	-6684
▁unece	-6685
▁sélection	-6686
▁intégrer	-6687
ertification	-6688
▁though	-6689
▁plénière	-6690
▁phén	-6691
▁identité	-6692
▁urug	-6693
▁élaboré	-6694
né	-6695
roup	-6696
▁ministerial	-6697
▁records	-6698
sifs	-6699
▁uruguay	-6700
▁western	-6701
▁beginning	-6702
▁familiale	-6703
▁P	-6704
▁mexique	-6705
▁équipements	-6706
▁chief	-6707
▁atteint	-6708
▁findings	-6709
▁prisons	-6710
ighb	-6711
▁ét	-6712
▁limits	-6713
▁www	-6714
▁poly	-6715
▁montre	-6716
▁neighb	-6717
▁intégré	-6718
▁side	-6719
▁indépendant	-6720
▁venez	-6721
▁abro	-6722
▁omb	-6723
▁cd	-6724
▁syrian	-6725
▁achievement	-6726
▁accr	-6727
▁fight	-6728
ibility	-6729
▁places	-6730
▁salvador	-6731
▁soumettre	-6732
▁intitulée	-6733
▁autr	-6734
▁annivers	-6735
▁double	-6736
▁bul	-6737
▁oversight	-6738
▁fournies	-6739
▁roum	-6740
▁énoncées	-6741
tina	-6742
▁garde	-6743
▁station	-6744
▁destiné	-6745
▁australie	-6746
▁recrutement	-6747
▁vues	-6748
▁unemp	-6749
▁auquel	-6750
▁conj	-6751
▁islands	-6752
▁ateliers	-6753
▁avoc	-6754
▁targets	-6755
▁bénéficiaires	-6756
per	-6757
▁rede	-6758
▁sale	-6759
tection	-6760
▁témo	-6761
▁chairpers	-6762
▁cultures	-6763
▁revenus	-6764
fy	-6765
▁fnu	-6766
▁crises	-6767
▁immediately	-6768
▁enhancing	-6769
▁lumière	-6770
▁venezuel	-6771
▁questionnaire	-6772
▁simpli	-6773
▁location	-6774
▁souhaite	-6775
▁switzer	-6776
▁switzerland	-6777
▁foster	-6778
▁remédi	-6779
▁cz	-6780
umes	-6781
▁prosecutor	-6782
▁recour	-6783
▁confidenti	-6784
▁connexes	-6785
▁undertake	-6786
▁utili	-6787
▁guarantees	-6788
▁va	-6789
tur	-6790
▁bah	-6791
lined	-6792
▁respectively	-6793
▁assessments	-6794
▁concentration	-6795
▁prec	-6796
▁occid	-6797
▁electoral	-6798
▁bases	-6799
▁établies	-6800
▁encourages	-6801
▁neuvième	-6802
▁fondamentales	-6803
▁norvège	-6804
gov	-6805
▁écl	-6806
pping	-6807
ché	-6808
▁georg	-6809
▁poursuite	-6810
▁recevoir	-6811
▁ombud	-6812
▁announ	-6813
▁inscrit	-6814
▁domm	-6815
▁cul	-6816
▁approfon	-6817
▁surface	-6818
▁transitional	-6819
▁weapon	-6820
▁observateurs	-6821
▁handicapés	-6822
▁subsequent	-6823
▁ep	-6824
lying	-6825
▁relève	-6826
▁aggra	-6827
▁égyp	-6828
▁îles	-6829
▁harmonisation	-6830
▁coordinated	-6831
▁unil	-6832
▁deg	-6833
▁orientations	-6834
▁fisheries	-6835
▁minority	-6836
▁corps	-6837
▁interc	-6838
▁développés	-6839
▁paris	-6840
▁prospec	-6841
▁reviewed	-6842
▁auxquelles	-6843
ocide	-6844
▁parall	-6845
▁espèces	-6846
▁elabor	-6847
▁acknowled	-6848
▁appreciation	-6849
ductions	-6850
▁pouvait	-6851
▁quarante	-6852
▁décret	-6853
ènes	-6854
▁strengthened	-6855
enna	-6856
ainc	-6857
▁existants	-6858
▁perpetr	-6859
▁finally	-6860
▁forced	-6861
▁terroristes	-6862
Ps	-6863
morandu	-6864
▁flux	-6865
▁herze	-6866
▁interim	-6867
▁timely	-6868
▁legitim	-6869
govina	-6870
▁indiv	-6871
▁atteinte	-6872
▁entrepris	-6873
lied	-6874
tivity	-6875
▁vois	-6876
▁failure	-6877
▁stations	-6878
tisation	-6879
▁herzegovina	-6880
▁advance	-6881
▁âgées	-6882
iennes	-6883
▁chô	-6884
▁ku	-6885
▁effectivement	-6886
▁haute	-6887
▁webs	-6888
inqu	-6889
ca	-6890
▁unid	-6891
▁exclud	-6892
▁décrit	-6893
▁comporte	-6894
▁ability	-6895
▁noting	-6896
▁victim	-6897
▁recruitment	-6898
▁characteris	-6899
▁cadres	-6900
▁congr	-6901
▁informer	-6902
▁leading	-6903
▁humain	-6904
▁donors	-6905
▁tandis	-6906
rement	-6907
uées	-6908
▁speed	-6909
▁details	-6910
▁concrete	-6911
▁estimates	-6912
▁appointed	-6913
dp	-6914
▁addi	-6915
wh	-6916
▁mainstream	-6917
▁facilitation	-6918
▁reproductive	-6919
▁luxembourg	-6920
▁medic	-6921
zième	-6922
▁sil	-6923
▁assistant	-6924
▁aqu	-6925
▁geographical	-6926
▁owners	-6927
▁essentiels	-6928
▁directeurs	-6929
▁exha	-6930
▁finland	-6931
▁transparent	-6932
▁classes	-6933
▁mind	-6934
▁viii	-6935
usted	-6936
▁entretien	-6937
▁huitième	-6938
▁permit	-6939
▁contains	-6940
▁parle	-6941
▁contributing	-6942
▁précédent	-6943
▁cash	-6944
▁vienne	-6945
▁règle	-6946
▁linked	-6947
▁deployment	-6948
andes	-6949
izes	-6950
▁milliards	-6951
rison	-6952
▁illicite	-6953
▁output	-6954
▁invo	-6955
▁reflec	-6956
▁sound	-6957
▁spirit	-6958
▁miss	-6959
▁supports	-6960
▁montants	-6961
▁represented	-6962
▁semble	-6963
organ	-6964
économ	-6965
ormais	-6966
▁believe	-6967
▁nationality	-6968
▁désormais	-6969
light	-6970
▁sixty	-6971
▁vienna	-6972
▁withdraw	-6973
▁phénom	-6974
▁pati	-6975
▁énergétique	-6976
▁présentée	-6977
▁herzégovine	-6978
▁privés	-6979
▁substantial	-6980
▁sept	-6981
ouse	-6982
▁sales	-6983
▁carrying	-6984
▁ib	-6985
▁ministéri	-6986
▁antérie	-6987
▁modifiant	-6988
▁always	-6989
▁plutôt	-6990
▁rational	-6991
▁dealing	-6992
lan	-6993
▁norme	-6994
▁servir	-6995
▁depri	-6996
▁isol	-6997
▁fémin	-6998
çons	-6999
▁reconnaiss	-7000
▁argentine	-7001
▁continué	-7002
▁considering	-7003
lled	-7004
▁économies	-7005
▁forth	-7006
▁your	-7007
endum	-7008
▁licence	-7009
▁envisage	-7010
▁angola	-7011
▁rent	-7012
teenth	-7013
▁ras	-7014
▁equivalent	-7015
▁venezuela	-7016
▁marke	-7017
▁dûment	-7018
▁strict	-7019
▁drawn	-7020
ark	-7021
▁standing	-7022
▁armées	-7023
▁pertes	-7024
▁entrepren	-7025
▁remaining	-7026
ventions	-7027
▁reforms	-7028
▁quantité	-7029
mic	-7030
▁input	-7031
▁imprison	-7032
▁impose	-7033
▁cypr	-7034
▁diversity	-7035
▁raisonn	-7036
▁subregional	-7037
▁inters	-7038
▁answer	-7039
▁investments	-7040
▁belong	-7041
▁guine	-7042
▁cooperate	-7043
▁arrêt	-7044
▁km	-7045
▁words	-7046
▁money	-7047
▁indication	-7048
▁reserv	-7049
▁énum	-7050
▁dirigeants	-7051
▁miti	-7052
▁juste	-7053
▁rappelant	-7054
▁ressortiss	-7055
▁cyprus	-7056
▁shared	-7057
▁fixed	-7058
▁détermination	-7059
▁maroc	-7060
▁transmit	-7061
da	-7062
▁travailler	-7063
▁voix	-7064
▁pens	-7065
▁interdit	-7066
▁remédier	-7067
▁interested	-7068
▁dispari	-7069
▁seven	-7070
▁original	-7071
▁decide	-7072
▁négociation	-7073
▁accompan	-7074
▁latine	-7075
▁coher	-7076
fa	-7077
▁keeping	-7078
▁lanka	-7079
▁diseases	-7080
▁elected	-7081
agers	-7082
▁disapp	-7083
oncer	-7084
build	-7085
▁vital	-7086
▁biodi	-7087
▁participant	-7088
▁huit	-7089
ataires	-7090
▁retard	-7091
tiennent	-7092
▁requis	-7093
▁actively	-7094
▁ouest	-7095
▁super	-7096
▁delà	-7097
▁jamais	-7098
▁alg	-7099
▁acting	-7100
▁convainc	-7101
▁sweden	-7102
▁nin	-7103
▁pénitenti	-7104
sibility	-7105
▁aviation	-7106
▁spécialisées	-7107
cas	-7108
▁opérationnelles	-7109
lant	-7110
▁facility	-7111
isc	-7112
▁benefici	-7113
▁biodivers	-7114
illing	-7115
▁demeure	-7116
▁gran	-7117
▁êtres	-7118
▁vessels	-7119
▁assure	-7120
▁accidents	-7121
▁suspend	-7122
▁étroite	-7123
▁devaient	-7124
▁stim	-7125
ulture	-7126
▁deriv	-7127
▁corr	-7128
▁presentation	-7129
▁moroc	-7130
▁repe	-7131
▁confidence	-7132
▁forte	-7133
▁pétro	-7134
▁concluding	-7135
▁release	-7136
▁rig	-7137
▁oh	-7138
▁réin	-7139
▁prochaine	-7140
▁fnuap	-7141
▁opening	-7142
hood	-7143
▁intérim	-7144
▁distance	-7145
▁motiv	-7146
▁contribué	-7147
▁chances	-7148
ral	-7149
▁primaire	-7150
▁representation	-7151
▁hope	-7152
tier	-7153
▁emphasis	-7154
▁prisoners	-7155
oncé	-7156
▁appliquées	-7157
▁industries	-7158
▁egypt	-7159
▁modifiée	-7160
▁concrètes	-7161
▁flag	-7162
▁southern	-7163
▁effectuer	-7164
▁inclure	-7165
▁provenance	-7166
▁old	-7167
▁arrest	-7168
▁parole	-7169
▁africains	-7170
▁allocated	-7171
uille	-7172
▁impac	-7173
▁vas	-7174
▁city	-7175
▁decree	-7176
▁participated	-7177
ira	-7178
▁recorded	-7179
▁mobile	-7180
▁contacts	-7181
▁forty	-7182
▁secours	-7183
yan	-7184
▁pression	-7185
enders	-7186
▁achev	-7187
▁modes	-7188
▁dég	-7189
▁démon	-7190
▁stratégiques	-7191
▁préciser	-7192
+@@	-7193
▁européens	-7194
▁routi	-7195
▁exac	-7196
▁ol	-7197
▁réaff	-7198
▁honn	-7199
▁size	-7200
▁effectué	-7201
▁consultative	-7202
▁resulted	-7203
▁conscience	-7204
▁inég	-7205
▁species	-7206
nés	-7207
▁significantly	-7208
▁privées	-7209
▁authorized	-7210
▁fixé	-7211
▁représentation	-7212
▁nar	-7213
▁déploiement	-7214
▁racism	-7215
▁interpretation	-7216
▁poursuites	-7217
ager	-7218
▁prêts	-7219
▁donor	-7220
▁rich	-7221
emed	-7222
▁invitation	-7223
▁award	-7224
▁cau	-7225
▁mitig	-7226
▁tanz	-7227
ïti	-7228
▁fields	-7229
▁structural	-7230
▁@@%@@	-7231
▁guinea	-7232
▁courses	-7233
▁promulg	-7234
▁seventh	-7235
▁dead	-7236
erse	-7237
▁outils	-7238
▁premières	-7239
ground	-7240
▁ombuds	-7241
▁designated	-7242
▁ethniques	-7243
▁scolaire	-7244
▁croatia	-7245
▁calendrier	-7246
oto	-7247
▁partis	-7248
▁géographique	-7249
▁décennie	-7250
▁délib	-7251
▁coopérer	-7252
▁absten	-7253
▁retra	-7254
▁certif	-7255
▁residence	-7256
▁prosecution	-7257
▁marketing	-7258
▁tendant	-7259
▁consumer	-7260
▁accessible	-7261
cs	-7262
▁racisme	-7263
▁reinte	-7264
▁confirmed	-7265
▁ajou	-7266
▁repos	-7267
▁obtenus	-7268
▁gradu	-7269
▁coal	-7270
▁identifier	-7271
▁via	-7272
chr	-7273
▁moldova	-7274
▁appuy	-7275
▁parent	-7276
▁indonesia	-7277
▁énoncés	-7278
▁disability	-7279
▁utilisateurs	-7280
ensions	-7281
▁reinfor	-7282
▁factor	-7283
bud	-7284
▁effectif	-7285
▁otherwise	-7286
▁analyses	-7287
▁provinces	-7288
▁définies	-7289
▁heads	-7290
▁dissemination	-7291
▁raise	-7292
▁ri	-7293
▁adjoint	-7294
▁rica	-7295
▁achat	-7296
▁pror	-7297
iliser	-7298
▁registre	-7299
ero	-7300
▁foundation	-7301
▁engaged	-7302
▁tub	-7303
▁supre	-7304
▁acade	-7305
▁manuel	-7306
▁concours	-7307
▁kar	-7308
▁paras	-7309
▁résoud	-7310
▁rio	-7311
▁extraordinaire	-7312
taient	-7313
▁prohibition	-7314
▁tirer	-7315
▁lebanon	-7316
▁identity	-7317
▁haiti	-7318
▁corresponding	-7319
▁appuie	-7320
▁comités	-7321
▁fournisseurs	-7322
▁quantités	-7323
▁bill	-7324
▁poland	-7325
▁appropriée	-7326
rig	-7327
uves	-7328
▁appr	-7329
▁highest	-7330
▁prelimin	-7331
▁creating	-7332
▁agree	-7333
▁updated	-7334
érée	-7335
▁migrant	-7336
▁pnue	-7337
▁climat	-7338
`@@	-7339
▁exprimé	-7340
▁preventing	-7341
▁placement	-7342
▁gain	-7343
▁communiquer	-7344
ham	-7345
titudes	-7346
▁existantes	-7347
▁marriage	-7348
ste	-7349
▁testing	-7350
▁diminution	-7351
▁complet	-7352
▁selected	-7353
▁completion	-7354
▁latter	-7355
▁constituer	-7356
▁suède	-7357
▁fournit	-7358
▁recalling	-7359
▁mortalité	-7360
▁constate	-7361
▁lien	-7362
▁civilians	-7363
▁attacks	-7364
▁dele	-7365
▁learning	-7366
▁résum	-7367
▁opinions	-7368
▁intégrité	-7369
▁prefer	-7370
▁somalia	-7371
▁employees	-7372
▁inspections	-7373
logne	-7374
▁familial	-7375
tan	-7376
▁preliminary	-7377
▁prochain	-7378
▁résoudre	-7379
▁ajouter	-7380
▁magistr	-7381
▁augmenter	-7382
▁availability	-7383
▁passeng	-7384
▁element	-7385
▁prévisions	-7386
▁czech	-7387
iting	-7388
▁ip	-7389
nograph	-7390
▁devi	-7391
▁transmis	-7392
▁increasingly	-7393
▁commerciaux	-7394
▁extérieur	-7395
▁restructuring	-7396
▁convenu	-7397
▁prejudice	-7398
▁secure	-7399
▁autorisé	-7400
uits	-7401
▁offered	-7402
▁munitions	-7403
▁indirect	-7404
uré	-7405
▁param	-7406
▁van	-7407
▁élector	-7408
▁urged	-7409
▁indeed	-7410
▁ber	-7411
▁alco	-7412
▁authorisation	-7413
▁hung	-7414
▁too	-7415
▁trends	-7416
▁austria	-7417
▁ign	-7418
▁illus	-7419
▁simple	-7420
iment	-7421
▁venti	-7422
▁che	-7423
▁montré	-7424
▁subsequently	-7425
étaire	-7426
ugoslavie	-7427
▁disease	-7428
▁ratified	-7429
▁entendu	-7430
▁supr	-7431
▁grat	-7432
▁prévoy	-7433
judic	-7434
owe	-7435
▁characteristics	-7436
▁exploit	-7437
▁hyp	-7438
▁réserv	-7439
▁phra	-7440
sement	-7441
building	-7442
▁lis	-7443
▁enl	-7444
▁clients	-7445
▁observed	-7446
▁supreme	-7447
▁emball	-7448
▁constaté	-7449
enci	-7450
▁firm	-7451
▁consacré	-7452
▁université	-7453
arag	-7454
▁croatie	-7455
▁aims	-7456
▁turn	-7457
▁stipul	-7458
▁nai	-7459
inding	-7460
▁équipes	-7461
▁procédé	-7462
▁offrir	-7463
▁valoir	-7464
▁mariage	-7465
▁petites	-7466
▁noter	-7467
▁chypre	-7468
▁yugosla	-7469
▁comprom	-7470
▁frontière	-7471
▁supérieure	-7472
▁évo	-7473
ni	-7474
ramme	-7475
▁juridiction	-7476
éder	-7477
▁forc	-7478
uled	-7479
▁shi	-7480
▁yugoslavia	-7481
▁légiti	-7482
▁représentent	-7483
▁privée	-7484
▁ling	-7485
▁crc	-7486
▁obstacle	-7487
▁candidates	-7488
▁subventions	-7489
▁régler	-7490
▁azerbai	-7491
▁établissant	-7492
▁observers	-7493
▁database	-7494
▁tâche	-7495
▁considerable	-7496
▁combattre	-7497
▁applying	-7498
▁yougoslavie	-7499
▁locale	-7500
▁résultant	-7501
▁précise	-7502
▁préalable	-7503
▁présentant	-7504
▁keep	-7505
▁belarus	-7506
▁incorporated	-7507
▁compétents	-7508
▁dangerous	-7509
▁directrices	-7510
▁coordonner	-7511
▁cib	-7512
▁fédéral	-7513
cider	-7514
▁adoptés	-7515
▁suspension	-7516
▁lith	-7517
wide	-7518
▁guinée	-7519
▁pourra	-7520
▁storage	-7521
▁définis	-7522
▁bless	-7523
▁expulsion	-7524
▁integrity	-7525
▁verb	-7526
▁plur	-7527
naires	-7528
▁reconnaît	-7529
▁construc	-7530
▁beha	-7531
▁detain	-7532
uée	-7533
▁ilo	-7534
▁combined	-7535
▁horiz	-7536
▁rapportant	-7537
▁ration	-7538
▁nationals	-7539
▁préven	-7540
▁rise	-7541
▁regroup	-7542
▁notion	-7543
▁mobilisation	-7544
▁spécifi	-7545
▁operators	-7546
▁tol	-7547
▁numer	-7548
▁penalty	-7549
▁emphasized	-7550
fec	-7551
morandum	-7552
▁statute	-7553
▁ache	-7554
▁pologne	-7555
uls	-7556
ijing	-7557
tricité	-7558
▁reço	-7559
▁restructuration	-7560
▁hazard	-7561
robi	-7562
chement	-7563
▁mental	-7564
▁événements	-7565
▁azerbaijan	-7566
▁chiffres	-7567
▁passage	-7568
loyed	-7569
endi	-7570
aliser	-7571
▁commencé	-7572
▁ladite	-7573
▁meilleures	-7574
▁administrations	-7575
▁beijing	-7576
▁suprême	-7577
▁applicant	-7578
▁seen	-7579
endrait	-7580
▁villes	-7581
▁C	-7582
..@@	-7583
▁inclusive	-7584
▁ethnique	-7585
▁romania	-7586
▁dimensions	-7587
theless	-7588
▁nevertheless	-7589
▁exposé	-7590
▁closed	-7591
▁satellite	-7592
▁nairobi	-7593
▁quot	-7594
▁chambre	-7595
▁contributed	-7596
▁limitation	-7597
▁constructive	-7598
▁profond	-7599
▁complémentaires	-7600
▁amen	-7601
▁declared	-7602
▁déclare	-7603
▁stable	-7604
▁nicarag	-7605
ématique	-7606
▁poids	-7607
▁universelle	-7608
▁plate	-7609
▁uniform	-7610
▁arising	-7611
▁allégations	-7612
▁ninth	-7613
▁honneur	-7614
▁fondé	-7615
ened	-7616
▁threats	-7617
▁ombudsman	-7618
▁approprié	-7619
▁devra	-7620
cd	-7621
▁almost	-7622
▁neighbour	-7623
▁accomm	-7624
▁emission	-7625
▁quand	-7626
▁trouve	-7627
▁maintained	-7628
▁motifs	-7629
▁chairperson	-7630
▁analog	-7631
▁géorg	-7632
uty	-7633
tle	-7634
▁finances	-7635
▁durables	-7636
▁empower	-7637
aïd	-7638
ging	-7639
▁départ	-7640
▁departments	-7641
quet	-7642
zone	-7643
▁susc	-7644
▁unif	-7645
▁électricité	-7646
èse	-7647
umul	-7648
▁ville	-7649
let	-7650
ilib	-7651
▁habitants	-7652
▁moteur	-7653
▁coverage	-7654
▁reconciliation	-7655
▁répression	-7656
agnes	-7657
▁utilisée	-7658
▁contamin	-7659
▁parta	-7660
▁comportement	-7661
▁couvrir	-7662
▁azerbaïd	-7663
illir	-7664
rol	-7665
▁rapatri	-7666
▁eight	-7667
▁controls	-7668
▁professionnels	-7669
▁organizational	-7670
▁accommod	-7671
estre	-7672
▁why	-7673
▁campagnes	-7674
▁deter	-7675
▁judge	-7676
▁mandates	-7677
▁vivant	-7678
▁médicaux	-7679
▁oce	-7680
▁saving	-7681
▁ing	-7682
abling	-7683
▁pornograph	-7684
▁souverain	-7685
ón	-7686
▁autriche	-7687
▁dil	-7688
iri	-7689
▁requises	-7690
▁acceptable	-7691
▁réparation	-7692
▁communs	-7693
na	-7694
▁previously	-7695
▁effectuées	-7696
▁révisé	-7697
▁régissant	-7698
▁effectués	-7699
▁indications	-7700
▁reintegration	-7701
mage	-7702
▁mali	-7703
▁highly	-7704
▁inscription	-7705
▁dou	-7706
▁ample	-7707
▁imprisonment	-7708
▁consiste	-7709
▁notified	-7710
▁undertakings	-7711
▁roma	-7712
▁syndic	-7713
▁liability	-7714
▁kowe	-7715
▁zeal	-7716
aged	-7717
▁funded	-7718
▁heav	-7719
▁roumanie	-7720
▁consign	-7721
▁mortality	-7722
▁eighth	-7723
▁migrations	-7724
▁juvenile	-7725
icaments	-7726
▁arme	-7727
▁particulières	-7728
▁pleine	-7729
▁limiter	-7730
▁nomin	-7731
▁médec	-7732
▁behavi	-7733
▁prioritaires	-7734
▁bonnes	-7735
▁teachers	-7736
▁file	-7737
▁physiques	-7738
▁secondaire	-7739
▁indonésie	-7740
▁deliber	-7741
▁synerg	-7742
▁ia	-7743
▁settlements	-7744
▁chômage	-7745
▁format	-7746
▁eradication	-7747
▁lives	-7748
▁assessed	-7749
▁ended	-7750
▁zealand	-7751
▁disposer	-7752
▁ethiop	-7753
▁privil	-7754
▁authorised	-7755
▁réclam	-7756
▁eliminate	-7757
▁abor	-7758
▁médicaments	-7759
▁massive	-7760
▁derog	-7761
▁ressort	-7762
▁préparatoire	-7763
▁produce	-7764
▁eligible	-7765
▁menaces	-7766
▁patri	-7767
▁tchèque	-7768
▁initiated	-7769
▁deputy	-7770
▁visits	-7771
▁communiqué	-7772
▁belgium	-7773
▁disch	-7774
èges	-7775
▁victime	-7776
ifications	-7777
▁quotas	-7778
urant	-7779
▁exports	-7780
▁earlier	-7781
▁biological	-7782
idus	-7783
▁idée	-7784
▁whom	-7785
▁réception	-7786
▁indépendants	-7787
▁découlant	-7788
▁bound	-7789
cier	-7790
▁welcome	-7791
▁lour	-7792
▁venir	-7793
▁individus	-7794
▁compil	-7795
rop	-7796
▁prélimin	-7797
iring	-7798
▁diversi	-7799
▁intéressés	-7800
▁decides	-7801
▁maximale	-7802
▁synth	-7803
▁impacts	-7804
▁targeted	-7805
▁indépendante	-7806
▁admission	-7807
▁prennent	-7808
▁agir	-7809
▁fel	-7810
▁tariff	-7811
▁constra	-7812
▁asian	-7813
▁barri	-7814
▁website	-7815
▁armen	-7816
▁message	-7817
▁located	-7818
▁employed	-7819
▁dessous	-7820
▁baisse	-7821
gi	-7822
▁emerging	-7823
▁présidente	-7824
▁subc	-7825
isté	-7826
▁annuelle	-7827
once	-7828
▁jer	-7829
▁differences	-7830
▁votre	-7831
▁haïti	-7832
▁nutrition	-7833
▁stockage	-7834
▁background	-7835
▁stages	-7836
▁uses	-7837
▁accused	-7838
▁équipement	-7839
▁longue	-7840
▁organisées	-7841
▁extrê	-7842
▁sought	-7843
▁engagé	-7844
▁subsidiary	-7845
▁speaking	-7846
▁makes	-7847
▁sanction	-7848
▁disciplin	-7849
▁aspect	-7850
▁vérifier	-7851
▁joh	-7852
▁décider	-7853
ony	-7854
étiques	-7855
▁trading	-7856
▁jeunesse	-7857
▁parliamentary	-7858
itié	-7859
▁veill	-7860
▁mur	-7861
▁numbers	-7862
▁rejec	-7863
▁rome	-7864
▁reprise	-7865
▁reçues	-7866
▁pointed	-7867
▁mauvais	-7868
▁pregn	-7869
udence	-7870
▁passer	-7871
gar	-7872
▁principale	-7873
▁highlighted	-7874
▁figures	-7875
▁greece	-7876
▁htt	-7877
▁somalie	-7878
▁oral	-7879
▁dig	-7880
▁officielles	-7881
▁espagn	-7882
cts	-7883
▁village	-7884
▁indemnisation	-7885
intement	-7886
▁allegations	-7887
▁las	-7888
▁accident	-7889
▁auront	-7890
ommunications	-7891
▁binding	-7892
▁enseignants	-7893
▁conjointement	-7894
▁pose	-7895
▁établit	-7896
▁I	-7897
sives	-7898
▁égypte	-7899
▁soumises	-7900
▁cohérence	-7901
▁citer	-7902
▁renforc	-7903
▁résol	-7904
▁humanité	-7905
▁continent	-7906
vée	-7907
▁nine	-7908
▁disabled	-7909
urement	-7910
▁achats	-7911
▁phrase	-7912
etary	-7913
▁pensions	-7914
▁latest	-7915
▁argentina	-7916
▁nomination	-7917
▁enabling	-7918
▁fallait	-7919
▁break	-7920
▁thematic	-7921
▁récon	-7922
▁internationally	-7923
▁ed	-7924
▁coordinator	-7925
▁coordinating	-7926
▁trente	-7927
cipient	-7928
▁thereby	-7929
comes	-7930
▁remplacement	-7931
▁solidarity	-7932
▁licences	-7933
rance	-7934
tuelle	-7935
oty	-7936
▁iraqu	-7937
▁ghana	-7938
▁logistique	-7939
▁élevés	-7940
▁outcomes	-7941
▁preventive	-7942
▁belgique	-7943
▁applies	-7944
institu	-7945
▁dossier	-7946
tisse	-7947
▁constant	-7948
gol	-7949
▁pilot	-7950
▁slovak	-7951
▁compatible	-7952
▁depos	-7953
▁stade	-7954
▁minors	-7955
lés	-7956
▁colombia	-7957
ba	-7958
▁dates	-7959
▁régimes	-7960
▁spécialistes	-7961
▁fiscal	-7962
▁adjustment	-7963
▁hospital	-7964
▁fixés	-7965
▁acce	-7966
▁alger	-7967
▁relever	-7968
▁incompati	-7969
▁anticip	-7970
▁drafting	-7971
▁reasonable	-7972
▁consequently	-7973
atiquement	-7974
prog	-7975
eland	-7976
▁linguis	-7977
▁fonctionnaire	-7978
▁degré	-7979
▁becom	-7980
▁morocco	-7981
▁démontr	-7982
▁retrait	-7983
▁affecting	-7984
ario	-7985
▁pièces	-7986
▁periods	-7987
▁empris	-7988
ali	-7989
▁remplacer	-7990
▁schemes	-7991
▁finales	-7992
▁clin	-7993
▁bénéficient	-7994
▁embargo	-7995
▁tenues	-7996
▁favorable	-7997
▁giving	-7998
bon	-7999
ilibre	-8000
▁enterprise	-8001
▁technological	-8002
▁seeking	-8003
▁tourism	-8004
▁plainte	-8005
za	-8006
▁prorog	-8007
cles	-8008
▁disclos	-8009
▁éman	-8010
▁aérien	-8011
▁receiving	-8012
réhen	-8013
▁dangereuses	-8014
▁rester	-8015
▁denmark	-8016
▁ozone	-8017
▁solidarité	-8018
▁homologation	-8019
▁chamber	-8020
▁sugges	-8021
▁pied	-8022
▁grèce	-8023
▁judiciary	-8024
taux	-8025
▁employés	-8026
tiers	-8027
▁degree	-8028
▁contingent	-8029
▁unp	-8030
▁°	-8031
▁clean	-8032
▁considérés	-8033
▁singap	-8034
thing	-8035
▁endorsed	-8036
oub	-8037
▁flows	-8038
▁sole	-8039
pt	-8040
▁outer	-8041
jikistan	-8042
▁unemployment	-8043
▁échelon	-8044
▁append	-8045
▁impossible	-8046
▁minutes	-8047
▁mondialisation	-8048
▁title	-8049
▁finlande	-8050
▁inquié	-8051
▁compéti	-8052
▁saint	-8053
ko	-8054
▁mouve	-8055
▁weak	-8056
▁mouvements	-8057
▁qat	-8058
▁excessive	-8059
▁jordan	-8060
▁enr	-8061
▁séjour	-8062
▁formuler	-8063
▁appointment	-8064
▁adresse	-8065
▁encouraging	-8066
▁sort	-8067
▁continuera	-8068
▁provo	-8069
▁cohér	-8070
▁actif	-8071
▁pending	-8072
▁puissance	-8073
▁oit	-8074
▁capable	-8075
▁resident	-8076
▁supplies	-8077
▁examined	-8078
▁insulaires	-8079
▁employer	-8080
▁discriminatory	-8081
▁deh	-8082
▁ambassade	-8083
▁responses	-8084
▁sl	-8085
iée	-8086
▁ohchr	-8087
▁consultants	-8088
▁pénales	-8089
▁revision	-8090
▁franc	-8091
▁liberia	-8092
▁aliments	-8093
▁scolaires	-8094
▁azerbaïdjan	-8095
▁organs	-8096
▁protecting	-8097
▁devices	-8098
▁prohibited	-8099
▁numerous	-8100
▁ox	-8101
▁notice	-8102
▁exemption	-8103
▁dérogation	-8104
▁coast	-8105
▁denrées	-8106
▁ampleur	-8107
▁décès	-8108
▁covering	-8109
▁banques	-8110
▁universel	-8111
▁strongly	-8112
arc	-8113
▁tendance	-8114
▁ministères	-8115
▁faced	-8116
▁norms	-8117
enced	-8118
▁°@@	-8119
▁obtenu	-8120
▁suppression	-8121
▁look	-8122
oman	-8123
▁interinstitu	-8124
stein	-8125
▁nul	-8126
zing	-8127
▁osce	-8128
▁chaî	-8129
▁interf	-8130
▁launch	-8131
iées	-8132
▁spanish	-8133
▁transaction	-8134
▁electricity	-8135
▁capitaux	-8136
▁exceptionn	-8137
▁ferro	-8138
▁satisfaire	-8139
alisés	-8140
▁utiles	-8141
▁http	-8142
▁vocational	-8143
▁bél	-8144
▁associés	-8145
▁methodology	-8146
▁guaranteed	-8147
▁souci	-8148
▁chemicals	-8149
▁satisfais	-8150
▁preced	-8151
▁conjointe	-8152
▁prê	-8153
▁diagn	-8154
▁tenus	-8155
▁stra	-8156
▁supervis	-8157
▁remplacé	-8158
▁consacrée	-8159
tal	-8160
▁sauve	-8161
ios	-8162
temps	-8163
▁bilatér	-8164
▁sustainability	-8165
▁colombie	-8166
emark	-8167
▁primarily	-8168
▁interrog	-8169
▁left	-8170
▁toler	-8171
▁appelle	-8172
▁nigeria	-8173
▁souligner	-8174
▁explan	-8175
▁restriction	-8176
▁espère	-8177
▁réconciliation	-8178
▁chile	-8179
rs	-8180
▁behaviour	-8181
▁potentiel	-8182
▁téléc	-8183
▁danemark	-8184
▁absor	-8185
▁vra	-8186
ieuse	-8187
▁disting	-8188
▁granting	-8189
▁decrease	-8190
▁correc	-8191
▁auditors	-8192
▁path	-8193
▁rémunération	-8194
tieth	-8195
▁perte	-8196
▁ownership	-8197
▁apporté	-8198
▁quels	-8199
▁préparer	-8200
▁minus	-8201
▁accrue	-8202
▁nicaragua	-8203
▁stresses	-8204
▁visites	-8205
▁journée	-8206
▁certificats	-8207
▁tendances	-8208
certain	-8209
▁mandats	-8210
érations	-8211
coming	-8212
▁weight	-8213
▁cis	-8214
▁motor	-8215
▁assigned	-8216
▁ug	-8217
▁ressortissants	-8218
▁électroniques	-8219
▁arrangement	-8220
▁daily	-8221
▁informatique	-8222
▁incident	-8223
▁preparing	-8224
▁advantage	-8225
▁competence	-8226
▁unops	-8227
▁participent	-8228
▁cedaw	-8229
▁index	-8230
▁conde	-8231
▁conseiller	-8232
ands	-8233
▁accroissement	-8234
▁fédérale	-8235
▁futures	-8236
▁réins	-8237
▁disposent	-8238
iements	-8239
▁naissance	-8240
▁étendu	-8241
▁passe	-8242
▁facilitating	-8243
▁alliance	-8244
▁unido	-8245
▁/	-8246
▁présidents	-8247
▁essentielles	-8248
▁zimb	-8249
▁volontaire	-8250
▁doute	-8251
bilité	-8252
▁unr	-8253
▁portent	-8254
▁bulgaria	-8255
▁voies	-8256
▁duration	-8257
▁bomb	-8258
▁zimbab	-8259
▁meilleur	-8260
▁porté	-8261
▁éthiop	-8262
▁dp	-8263
set	-8264
otes	-8265
▁sciences	-8266
▁dispute	-8267
▁dommages	-8268
▁gl	-8269
onia	-8270
▁concernée	-8271
▁saisie	-8272
▁élection	-8273
▁georgia	-8274
ugg	-8275
▁banks	-8276
▁lessons	-8277
▁biologique	-8278
utable	-8279
anche	-8280
▁appeals	-8281
▁intéressées	-8282
▁exposés	-8283
▁phot	-8284
▁symb	-8285
▁diagnos	-8286
▁experiences	-8287
ports	-8288
▁récente	-8289
▁believes	-8290
▁maintaining	-8291
▁teneur	-8292
▁dj	-8293
▁atom	-8294
▁transmitted	-8295
ector	-8296
▁lithuan	-8297
▁arbitra	-8298
▁imposition	-8299
▁subprog	-8300
▁extensive	-8301
▁custody	-8302
▁devons	-8303
▁carbon	-8304
▁municipal	-8305
▁appropriés	-8306
ect	-8307
▁fit	-8308
▁defic	-8309
▁possibles	-8310
▁préserver	-8311
issons	-8312
▁mixte	-8313
▁phénomène	-8314
▁improvements	-8315
▁quit	-8316
mits	-8317
▁selection	-8318
▁innovative	-8319
tenstein	-8320
▁modèles	-8321
▁concernent	-8322
▁disponible	-8323
▁expiration	-8324
▁attached	-8325
▁gérer	-8326
▁drogue	-8327
▁cabin	-8328
▁ngo	-8329
▁commerciale	-8330
▁shows	-8331
▁attra	-8332
▁dénomm	-8333
▁enregistré	-8334
▁quantities	-8335
▁informel	-8336
▁zamb	-8337
bs	-8338
ercus	-8339
▁liech	-8340
▁cs	-8341
▁systematic	-8342
arité	-8343
ished	-8344
▁sembl	-8345
▁breach	-8346
▁requérant	-8347
▁ix	-8348
▁calculated	-8349
▁liechtenstein	-8350
▁prestation	-8351
▁directe	-8352
▁regularly	-8353
▁séminaire	-8354
▁parfois	-8355
▁productive	-8356
▁pet	-8357
▁chinese	-8358
▁pla	-8359
▁considérées	-8360
▁commises	-8361
▁safeguards	-8362
▁identifying	-8363
▁length	-8364
▁jerusalem	-8365
ula	-8366
▁catastrophe	-8367
▁législatif	-8368
▁safeguard	-8369
▁examples	-8370
▁faci	-8371
▁unan	-8372
▁koweï	-8373
▁rassemb	-8374
law	-8375
▁accélérer	-8376
atom	-8377
▁equitable	-8378
▁burden	-8379
▁diplomatic	-8380
▁restent	-8381
oring	-8382
atically	-8383
▁défic	-8384
▁fixées	-8385
▁hal	-8386
▁peacebuilding	-8387
▁reb	-8388
aging	-8389
▁demeur	-8390
▁combin	-8391
▁atti	-8392
▁intra	-8393
▁equity	-8394
▁périodiques	-8395
▁compagn	-8396
▁L	-8397
judici	-8398
▁qualifications	-8399
▁manifes	-8400
▁protocoles	-8401
dule	-8402
▁expressément	-8403
▁dehors	-8404
▁tourisme	-8405
▁curric	-8406
▁semaine	-8407
▁load	-8408
▁duquel	-8409
▁recalled	-8410
▁jobs	-8411
▁accur	-8412
▁iaea	-8413
orth	-8414
▁liée	-8415
▁avantage	-8416
▁rad	-8417
ardi	-8418
▁salari	-8419
itée	-8420
▁english	-8421
▁bulgarie	-8422
▁témoins	-8423
▁pattern	-8424
▁chacune	-8425
▁étroitement	-8426
▁dépit	-8427
▁devoir	-8428
▁conviction	-8429
tations	-8430
▁desqu	-8431
▁chargées	-8432
ighting	-8433
▁thaï	-8434
▁civiles	-8435
ycl	-8436
tably	-8437
▁manufacturer	-8438
▁banc	-8439
ison	-8440
▁qualifi	-8441
▁défaut	-8442
▁outstanding	-8443
▁restre	-8444
▁plants	-8445
▁originaires	-8446
èvent	-8447
▁expenses	-8448
▁réad	-8449
▁rapporte	-8450
▁recueil	-8451
▁bearing	-8452
▁disposal	-8453
▁empowerment	-8454
▁moitié	-8455
▁retro	-8456
▁compréhen	-8457
▁thèmes	-8458
▁sanitaires	-8459
▁expenditures	-8460
▁maî	-8461
ligence	-8462
▁effectuée	-8463
▁couverture	-8464
▁@@[@@	-8465
▁conclure	-8466
▁announced	-8467
▁treated	-8468
▁ecu	-8469
▁ministries	-8470
bility	-8471
▁protocols	-8472
▁réaffirme	-8473
▁preparations	-8474
▁saisi	-8475
▁owned	-8476
▁delivered	-8477
▁operator	-8478
▁zimbabwe	-8479
▁attemp	-8480
▁équival	-8481
▁aie	-8482
▁masse	-8483
▁opérationnel	-8484
▁officielle	-8485
▁manifest	-8486
▁pouvaient	-8487
▁moz	-8488
▁@@...@@	-8489
uk	-8490
▁rien	-8491
▁visent	-8492
▁wto	-8493
▁jointly	-8494
▁clause	-8495
▁simult	-8496
▁hôp	-8497
▁internally	-8498
oure	-8499
▁sloven	-8500
▁subjected	-8501
▁consentement	-8502
▁recognizing	-8503
▁premiers	-8504
▁hungary	-8505
▁spread	-8506
▁appliqué	-8507
▁inscrire	-8508
▁entier	-8509
uth	-8510
▁menac	-8511
▁performed	-8512
▁autorisés	-8513
▁transmet	-8514
▁fournissent	-8515
▁villages	-8516
▁touchant	-8517
▁inférieur	-8518
ercussions	-8519
▁ratio	-8520
▁originating	-8521
▁extrabud	-8522
▁seminar	-8523
▁paiements	-8524
▁fondées	-8525
▁@@;@@	-8526
▁observateur	-8527
▁rubrique	-8528
▁corp	-8529
entiss	-8530
▁honor	-8531
with	-8532
▁volunte	-8533
▁inequ	-8534
gée	-8535
▁arrêté	-8536
itent	-8537
▁étape	-8538
▁legally	-8539
▁legitimate	-8540
▁compuls	-8541
▁coordonnateur	-8542
▁susceptible	-8543
▁viable	-8544
▁pollu	-8545
▁contrôler	-8546
▁laiss	-8547
▁qatar	-8548
▁devront	-8549
▁monetary	-8550
▁disasters	-8551
▁dignité	-8552
▁laying	-8553
▁religieuses	-8554
▁facing	-8555
▁districts	-8556
▁envisaged	-8557
▁update	-8558
▁exposure	-8559
▁doha	-8560
tagne	-8561
▁ferrovi	-8562
▁supprimer	-8563
▁reconnaître	-8564
▁étudiants	-8565
▁visa	-8566
▁matériels	-8567
▁conversion	-8568
issau	-8569
▁kyoto	-8570
▁jeu	-8571
▁suggestions	-8572
▁army	-8573
▁scheduled	-8574
▁complé	-8575
▁émission	-8576
▁accepté	-8577
▁determining	-8578
▁appelé	-8579
▁ordonnance	-8580
▁transferred	-8581
▁contraign	-8582
▁eurostat	-8583
▁souveraineté	-8584
▁extrêmement	-8585
itées	-8586
▁deemed	-8587
▁demandeur	-8588
▁crp	-8589
▁mother	-8590
▁serbia	-8591
head	-8592
▁explained	-8593
tered	-8594
▁définitive	-8595
▁omc	-8596
▁exposition	-8597
▁teams	-8598
▁propag	-8599
▁défav	-8600
riques	-8601
▁seem	-8602
▁lines	-8603
▁coordinate	-8604
fp	-8605
rets	-8606
▁combusti	-8607
▁unable	-8608
hr	-8609
▁trouvent	-8610
vité	-8611
▁kuw	-8612
▁gains	-8613
▁sensibiliser	-8614
▁provincial	-8615
▁initiale	-8616
▁eea	-8617
▁interaction	-8618
▁acceler	-8619
▁kilom	-8620
ologies	-8621
▁occurred	-8622
ives	-8623
▁check	-8624
▁quantity	-8625
▁permettrait	-8626
▁démarche	-8627
▁détaillées	-8628
▁kuwait	-8629
▁euratom	-8630
▁pharm	-8631
▁confront	-8632
▁financed	-8633
▁fal	-8634
▁tiendra	-8635
▁logements	-8636
▁dotés	-8637
▁explique	-8638
demment	-8639
▁mozamb	-8640
▁tob	-8641
▁culturel	-8642
▁temper	-8643
▁sén	-8644
▁culturelles	-8645
▁assain	-8646
▁petit	-8647
▁rappelé	-8648
▁compulsory	-8649
▁mère	-8650
▁sovereignty	-8651
fiants	-8652
▁accept	-8653
▁enseignements	-8654
▁culturelle	-8655
▁ende	-8656
▁hongrie	-8657
▁peru	-8658
▁taxes	-8659
▁exh	-8660
▁jurispr	-8661
▁complaint	-8662
▁slov	-8663
ago	-8664
▁contrary	-8665
▁sollic	-8666
▁injury	-8667
▁judg	-8668
▁bilan	-8669
▁écosys	-8670
unction	-8671
▁comport	-8672
▁vivent	-8673
▁frameworks	-8674
▁libération	-8675
inage	-8676
▁devenir	-8677
▁actuelles	-8678
▁adapter	-8679
ulf	-8680
unes	-8681
phab	-8682
▁indiquant	-8683
▁tempér	-8684
▁mobiliser	-8685
▁revenue	-8686
▁recycl	-8687
▁dignity	-8688
▁séminaires	-8689
▁mainstreaming	-8690
▁systématique	-8691
▁appliquée	-8692
▁reservations	-8693
▁utilisant	-8694
▁produire	-8695
endix	-8696
▁advancement	-8697
▁detained	-8698
▁réinsertion	-8699
▁history	-8700
▁appendix	-8701
▁cod	-8702
▁producer	-8703
▁mongol	-8704
▁exprimer	-8705
▁incap	-8706
▁autoriser	-8707
▁touchés	-8708
▁relativement	-8709
▁afford	-8710
▁tarif	-8711
▁transfron	-8712
▁tic	-8713
▁attack	-8714
▁neuf	-8715
▁océ	-8716
▁différences	-8717
▁entr	-8718
▁réalisé	-8719
▁execution	-8720
▁équilibre	-8721
▁losses	-8722
▁forests	-8723
▁distinct	-8724
ôts	-8725
ape	-8726
▁adultes	-8727
▁semaines	-8728
▁failed	-8729
▁cec	-8730
▁hypoth	-8731
▁T	-8732
▁campaigns	-8733
▁illustr	-8734
▁onudi	-8735
▁ba	-8736
taining	-8737
▁accordé	-8738
▁correct	-8739
▁administrateur	-8740
osyste	-8741
▁recognize	-8742
oted	-8743
▁overs	-8744
chant	-8745
irms	-8746
▁sensitive	-8747
élande	-8748
▁links	-8749
▁bissau	-8750
▁chau	-8751
▁téléph	-8752
▁administer	-8753
▁extrem	-8754
▁quota	-8755
▁bov	-8756
▁aiea	-8757
▁subcomm	-8758
▁ecosyste	-8759
▁az	-8760
▁abandon	-8761
▁conserv	-8762
sia	-8763
▁redress	-8764
▁introduce	-8765
lated	-8766
▁hond	-8767
▁sport	-8768
▁emprisonnement	-8769
▁transferts	-8770
étr	-8771
▁inval	-8772
▁puisque	-8773
ept	-8774
kina	-8775
▁insufficient	-8776
▁proposer	-8777
▁demandeurs	-8778
▁présentent	-8779
▁sectori	-8780
▁garantiss	-8781
ata	-8782
▁chili	-8783
▁sanitaire	-8784
▁fruit	-8785
▁communiquées	-8786
▁wished	-8787
▁topic	-8788
▁mondiaux	-8789
tead	-8790
odé	-8791
▁résidence	-8792
▁oec	-8793
▁lituan	-8794
▁hoped	-8795
▁pill	-8796
▁diam	-8797
▁assainissement	-8798
ash	-8799
iro	-8800
▁démograph	-8801
▁cesse	-8802
▁répondu	-8803
▁heard	-8804
▁repeal	-8805
▁jurisprudence	-8806
tue	-8807
▁airport	-8808
▁segment	-8809
▁évidence	-8810
▁consolidated	-8811
▁entreprendre	-8812
▁apparent	-8813
án	-8814
▁formule	-8815
▁reprises	-8816
▁hondur	-8817
▁pourront	-8818
ématiques	-8819
▁chann	-8820
▁dossiers	-8821
▁instead	-8822
▁consumers	-8823
▁globalization	-8824
▁exporting	-8825
▁renvoy	-8826
▁soldats	-8827
▁ménages	-8828
▁@@&	-8829
▁oug	-8830
ubles	-8831
ots	-8832
itage	-8833
▁sets	-8834
▁croiss	-8835
▁thirty	-8836
▁instaurer	-8837
▁saur	-8838
▁worldwide	-8839
▁regis	-8840
▁involve	-8841
▁ports	-8842
▁oms	-8843
▁différends	-8844
▁géorgie	-8845
▁subvention	-8846
▁canadi	-8847
▁routes	-8848
▁exemples	-8849
▁tables	-8850
amin	-8851
▁fort	-8852
rew	-8853
▁renewable	-8854
▁phen	-8855
▁constitutes	-8856
▁amén	-8857
▁namib	-8858
▁limitations	-8859
▁parag	-8860
▁unod	-8861
▁asset	-8862
▁jugement	-8863
▁convo	-8864
▁incombe	-8865
▁inade	-8866
▁liter	-8867
▁réalisées	-8868
▁abd	-8869
▁égale	-8870
▁voudrais	-8871
▁pursue	-8872
▁bélarus	-8873
▁issus	-8874
geant	-8875
esp	-8876
▁inférieure	-8877
▁administratifs	-8878
▁maje	-8879
▁signif	-8880
▁kept	-8881
▁inqui	-8882
▁xii	-8883
tidi	-8884
▁inadequ	-8885
▁genre	-8886
▁bruss	-8887
▁say	-8888
▁join	-8889
▁loans	-8890
iry	-8891
▁partner	-8892
▁brux	-8893
▁correction	-8894
▁replace	-8895
▁sports	-8896
▁util	-8897
▁@@+@@	-8898
oks	-8899
▁journalis	-8900
vation	-8901
▁rapporteurs	-8902
▁aspir	-8903
▁appreci	-8904
▁unrwa	-8905
▁gather	-8906
▁operate	-8907
▁attended	-8908
▁detainees	-8909
▁sexuelles	-8910
▁inflation	-8911
▁recherches	-8912
▁orientale	-8913
▁attaques	-8914
▁dudit	-8915
▁recouvre	-8916
▁engagées	-8917
édo	-8918
▁savings	-8919
▁expresses	-8920
▁sectoral	-8921
▁consacrés	-8922
▁valu	-8923
▁bois	-8924
▁heading	-8925
▁sanitation	-8926
ores	-8927
▁armenia	-8928
▁créés	-8929
▁forums	-8930
▁insol	-8931
▁officiels	-8932
▁intens	-8933
▁quantita	-8934
▁curren	-8935
▁ah	-8936
▁serbie	-8937
▁commence	-8938
atrice	-8939
▁objection	-8940
ror	-8941
▁maîtr	-8942
▁@@&@@	-8943
▁opened	-8944
▁quotidi	-8945
▁refl	-8946
▁existant	-8947
▁roms	-8948
▁barb	-8949
▁brussels	-8950
▁inscrits	-8951
▁nl	-8952
▁mondiales	-8953
▁quarter	-8954
▁premises	-8955
row	-8956
▁disappear	-8957
▁hard	-8958
▁seminars	-8959
▁investisse	-8960
▁koweït	-8961
▁congress	-8962
▁iceland	-8963
▁proposées	-8964
▁arrested	-8965
▁basel	-8966
▁malay	-8967
▁eee	-8968
▁malais	-8969
▁darfur	-8970
▁centra	-8971
▁prêt	-8972
▁bruxelles	-8973
▁intim	-8974
▁enregistrés	-8975
▁mené	-8976
▁ethiopia	-8977
▁demonstrated	-8978
▁burkina	-8979
▁hausse	-8980
▁acceptance	-8981
▁remboursement	-8982
▁paraguay	-8983
▁unodc	-8984
▁user	-8985
▁résumé	-8986
▁theme	-8987
▁@@$	-8988
▁fondamental	-8989
▁faso	-8990
▁assurances	-8991
▁programmation	-8992
▁voisins	-8993
▁foot	-8994
▁marginal	-8995
acc	-8996
▁marin	-8997
▁vessel	-8998
▁cessation	-8999
tici	-9000
mil	-9001
▁bate	-9002
▁turkish	-9003
▁apportées	-9004
▁seuls	-9005
ame	-9006
▁H	-9007
▁widely	-9008
▁estimations	-9009
▁focal	-9010
▁accéder	-9011
▁entrepreneurs	-9012
▁domic	-9013
▁marge	-9014
▁liberty	-9015
▁permanents	-9016
▁révél	-9017
▁ausp	-9018
▁fixe	-9019
▁armé	-9020
▁fixer	-9021
▁maternelle	-9022
▁lithuania	-9023
▁artis	-9024
▁patients	-9025
istence	-9026
fully	-9027
▁gab	-9028
▁disputes	-9029
▁generation	-9030
▁thail	-9031
▁constitué	-9032
tory	-9033
▁thailand	-9034
elled	-9035
▁older	-9036
▁stabil	-9037
▁possession	-9038
▁trend	-9039
ument	-9040
▁fournie	-9041
▁affér	-9042
▁reply	-9043
▁aér	-9044
▁contemp	-9045
ena	-9046
▁sustained	-9047
èle	-9048
▁realization	-9049
▁tensions	-9050
aises	-9051
▁confirmé	-9052
▁bilatéraux	-9053
▁aler	-9054
▁pic	-9055
▁adopting	-9056
▁allocations	-9057
▁stup	-9058
▁somme	-9059
▁algeria	-9060
▁nit	-9061
▁counsel	-9062
▁accepter	-9063
tivités	-9064
▁concepts	-9065
antième	-9066
▁repatri	-9067
▁cruel	-9068
olon	-9069
▁ppe	-9070
▁multiples	-9071
▁extérieurs	-9072
esses	-9073
▁constraints	-9074
▁réadap	-9075
▁examinées	-9076
▁programming	-9077
▁perpetrators	-9078
▁auspices	-9079
▁imposées	-9080
ciers	-9081
▁borders	-9082
osp	-9083
kers	-9084
▁competitive	-9085
▁congrès	-9086
redi	-9087
▁nd	-9088
▁ventes	-9089
▁réglementaires	-9090
▁sg	-9091
▁chron	-9092
▁disad	-9093
▁suffisantes	-9094
▁aéroport	-9095
▁réexamen	-9096
essions	-9097
▁rédig	-9098
▁reviews	-9099
istic	-9100
▁paral	-9101
▁synergies	-9102
▁syrienne	-9103
▁acid	-9104
▁librement	-9105
▁citizenship	-9106
▁soulev	-9107
▁conce	-9108
▁distributed	-9109
▁nigéria	-9110
▁@@–	-9111
hing	-9112
▁recognizes	-9113
▁illicites	-9114
▁worked	-9115
▁darfour	-9116
▁comprennent	-9117
▁organisés	-9118
▁climatique	-9119
▁naturel	-9120
▁clus	-9121
greg	-9122
▁attribution	-9123
▁checks	-9124
▁œuv	-9125
▁mettent	-9126
▁dism	-9127
▁réalité	-9128
▁released	-9129
br	-9130
▁package	-9131
orters	-9132
▁collected	-9133
▁bringing	-9134
▁libér	-9135
▁diss	-9136
▁précédentes	-9137
▁fréqu	-9138
▁repeated	-9139
▁ict	-9140
wan	-9141
▁fraud	-9142
wi	-9143
▁officieuses	-9144
▁exhaus	-9145
▁farmers	-9146
▁signalé	-9147
▁resolve	-9148
▁cambodi	-9149
▁infring	-9150
▁amis	-9151
▁unanim	-9152
umed	-9153
▁appendice	-9154
▁enjoyment	-9155
▁explicit	-9156
lers	-9157
▁épo	-9158
▁collectivités	-9159
▁concent	-9160
▁choice	-9161
émie	-9162
▁stupé	-9163
▁pc	-9164
chn	-9165
np	-9166
▁suitable	-9167
▁compréhension	-9168
▁manual	-9169
▁ouvrir	-9170
▁mozambique	-9171
geting	-9172
▁`@@	-9173
▁cease	-9174
▁conduit	-9175
▁enrich	-9176
▁dealt	-9177
▁annuels	-9178
▁representing	-9179
▁discharge	-9180
▁diffuser	-9181
▁adjudic	-9182
▁titres	-9183
▁penalties	-9184
▁proposée	-9185
oke	-9186
▁considérer	-9187
▁advocacy	-9188
lication	-9189
▁earth	-9190
▁multiple	-9191
idé	-9192
▁cabinet	-9193
▁commend	-9194
▁commencer	-9195
▁ratifié	-9196
▁sujets	-9197
▁précédente	-9198
ware	-9199
▁gol	-9200
umb	-9201
▁français	-9202
▁subprogramme	-9203
▁oecd	-9204
▁cout	-9205
▁belonging	-9206
▁adverse	-9207
▁entraîner	-9208
▁départements	-9209
▁hrc	-9210
▁thé	-9211
▁bénéficié	-9212
▁vaste	-9213
▁socioéconom	-9214
vabilité	-9215
lu	-9216
▁G	-9217
▁teaching	-9218
house	-9219
▁grants	-9220
▁extérieure	-9221
▁plas	-9222
▁learned	-9223
ériques	-9224
▁bag	-9225
▁trouvera	-9226
▁affili	-9227
▁exécuter	-9228
▁échantillon	-9229
▁represents	-9230
▁périodes	-9231
▁wishes	-9232
alisé	-9233
▁inspir	-9234
▁analyser	-9235
▁adopte	-9236
▁exam	-9237
own	-9238
▁transmettre	-9239
ataire	-9240
▁présum	-9241
▁cm	-9242
▁ment	-9243
▁withdrawal	-9244
▁axée	-9245
▁relèvent	-9246
▁zélande	-9247
▁intervenir	-9248
▁investigate	-9249
▁prest	-9250
▁played	-9251
▁gouvernementaux	-9252
▁réadaptation	-9253
▁contribuent	-9254
▁lecture	-9255
▁suggest	-9256
▁stupéfiants	-9257
itals	-9258
▁nov	-9259
▁dégradation	-9260
▁interpre	-9261
▁épre	-9262
▁renouvelables	-9263
▁unième	-9264
▁tack	-9265
▁libéria	-9266
▁légères	-9267
▁consistant	-9268
▁exclusivement	-9269
▁assi	-9270
▁waters	-9271
▁panama	-9272
▁ancien	-9273
▁médical	-9274
▁ajustement	-9275
▁search	-9276
▁computer	-9277
▁rédaction	-9278
▁finding	-9279
▁soumise	-9280
ulement	-9281
▁sponsors	-9282
▁telev	-9283
▁rouge	-9284
▁inhuman	-9285
▁mél	-9286
▁endeav	-9287
▁conjoint	-9288
▁offres	-9289
▁archit	-9290
▁bio	-9291
▁cities	-9292
▁espèce	-9293
▁names	-9294
▁pétrole	-9295
▁eritre	-9296
▁essentielle	-9297
▁variety	-9298
▁rd	-9299
▁permitted	-9300
▁remise	-9301
▁travaillent	-9302
▁adul	-9303
▁lettres	-9304
▁stre	-9305
sibilité	-9306
▁facts	-9307
ao	-9308
▁credi	-9309
▁ambassador	-9310
▁navire	-9311
▁contribue	-9312
▁achievements	-9313
▁uganda	-9314
▁town	-9315
▁sample	-9316
▁facteur	-9317
▁monthly	-9318
uvernementales	-9319
lacements	-9320
▁entièrement	-9321
▁ecuador	-9322
orde	-9323
▁assor	-9324
▁little	-9325
▁instauration	-9326
chent	-9327
ani	-9328
nis	-9329
▁joué	-9330
▁lacunes	-9331
atisation	-9332
▁accompanied	-9333
Comm	-9334
▁liberal	-9335
▁samp	-9336
mines	-9337
▁qualified	-9338
▁organic	-9339
▁allowance	-9340
▁amp	-9341
▁providers	-9342
▁blo	-9343
▁immigrants	-9344
▁cambod	-9345
▁degrading	-9346
vés	-9347
▁équilib	-9348
▁suffering	-9349
tants	-9350
▁trained	-9351
▁destinée	-9352
▁chiffre	-9353
▁ouverte	-9354
tors	-9355
▁understand	-9356
▁dedic	-9357
▁taille	-9358
▁slovenia	-9359
▁vide	-9360
▁mandatory	-9361
dification	-9362
▁récentes	-9363
▁perfec	-9364
▁algérie	-9365
▁weeks	-9366
▁exceeding	-9367
atrices	-9368
je	-9369
▁branch	-9370
▁violent	-9371
▁heavy	-9372
▁indemnité	-9373
▁accru	-9374
tm	-9375
▁arts	-9376
▁siè	-9377
▁warning	-9378
▁discipline	-9379
▁spécialisés	-9380
▁ajouté	-9381
▁loin	-9382
gro	-9383
▁prisonn	-9384
dr	-9385
étaires	-9386
▁composé	-9387
▁prompt	-9388
oul	-9389
▁outlined	-9390
▁futurs	-9391
▁kir	-9392
accep	-9393
▁covers	-9394
▁allowing	-9395
▁témoign	-9396
▁started	-9397
▁coming	-9398
▁expanded	-9399
▁corporate	-9400
▁similaires	-9401
▁fea	-9402
▁hearing	-9403
▁différence	-9404
▁npt	-9405
▁comparable	-9406
▁appareil	-9407
▁intellectual	-9408
▁argument	-9409
▁répercussions	-9410
▁rappro	-9411
termination	-9412
▁opérationnels	-9413
▁tiennent	-9414
▁capitale	-9415
▁hazardous	-9416
▁conventional	-9417
▁preuves	-9418
▁atlan	-9419
econom	-9420
▁sahara	-9421
due	-9422
▁relevance	-9423
▁reimb	-9424
▁transpor	-9425
▁médiateur	-9426
▁contractantes	-9427
▁acced	-9428
▁incen	-9429
▁affirme	-9430
▁fle	-9431
▁côté	-9432
▁module	-9433
▁inuti	-9434
▁malaysia	-9435
▁willing	-9436
▁hôte	-9437
asing	-9438
▁ocde	-9439
▁presidential	-9440
▁arbitrary	-9441
▁élargir	-9442
▁thaïlande	-9443
bé	-9444
edonia	-9445
fc	-9446
▁maternal	-9447
▁tender	-9448
▁reiterated	-9449
▁frag	-9450
▁client	-9451
▁mér	-9452
▁éry	-9453
▁orph	-9454
▁barriers	-9455
▁éryth	-9456
▁occupé	-9457
▁disag	-9458
▁composante	-9459
load	-9460
▁lod	-9461
▁définit	-9462
▁pled	-9463
▁faute	-9464
▁+	-9465
hi	-9466
▁socie	-9467
▁véritable	-9468
▁russia	-9469
▁letters	-9470
lets	-9471
▁aged	-9472
arity	-9473
▁pacifiques	-9474
▁procré	-9475
▁nep	-9476
▁moral	-9477
▁considerations	-9478
▁gal	-9479
▁aller	-9480
▁mens	-9481
▁déterminé	-9482
▁péd	-9483
▁résidents	-9484
▁innoc	-9485
▁recensement	-9486
▁wg	-9487
▁compro	-9488
▁finale	-9489
▁estimation	-9490
avant	-9491
▁societies	-9492
▁officiellement	-9493
▁objets	-9494
▁motif	-9495
uvernemental	-9496
▁unlaw	-9497
▁late	-9498
▁managed	-9499
▁television	-9500
▁abu	-9501
▁charged	-9502
▁lancement	-9503
▁meat	-9504
▁frapp	-9505
▁fro	-9506
eto	-9507
▁malta	-9508
▁catal	-9509
▁ouganda	-9510
▁gdp	-9511
▁abroad	-9512
▁cens	-9513
ded	-9514
roc	-9515
▁existent	-9516
▁autorisée	-9517
dent	-9518
▁matériaux	-9519
▁phenomen	-9520
▁pol	-9521
▁accomplish	-9522
▁notant	-9523
▁listes	-9524
ink	-9525
▁notably	-9526
▁élargissement	-9527
▁comptabilité	-9528
▁soft	-9529
▁slovénie	-9530
tifications	-9531
▁israéliennes	-9532
▁caisse	-9533
zbe	-9534
▁certificates	-9535
▁jugé	-9536
▁opérateurs	-9537
▁beg	-9538
▁argent	-9539
▁steering	-9540
▁armements	-9541
po	-9542
▁severe	-9543
▁parallèlement	-9544
▁solde	-9545
burg	-9546
aps	-9547
▁professionnel	-9548
▁biodiversity	-9549
rime	-9550
ilt	-9551
▁chris	-9552
▁stimul	-9553
▁carbone	-9554
▁modules	-9555
▁écosyst	-9556
▁purchase	-9557
▁institutionnel	-9558
▁inland	-9559
▁vin	-9560
▁coe	-9561
▁increases	-9562
▁continuous	-9563
▁divid	-9564
▁injus	-9565
▁écar	-9566
▁excéd	-9567
▁procedural	-9568
▁ministérielle	-9569
▁histoire	-9570
▁reaching	-9571
▁@@‘@@	-9572
ette	-9573
▁manage	-9574
▁alone	-9575
▁presidency	-9576
inery	-9577
itive	-9578
▁garçons	-9579
▁mos	-9580
▁messages	-9581
till	-9582
▁muti	-9583
▁transportation	-9584
▁convened	-9585
▁pénitentiaire	-9586
▁remedies	-9587
▁lea	-9588
▁hun	-9589
▁représentante	-9590
▁proposés	-9591
▁examens	-9592
urity	-9593
▁honduras	-9594
▁assisting	-9595
▁ratifier	-9596
▁biologiques	-9597
▁extérieures	-9598
▁irrég	-9599
▁managers	-9600
▁households	-9601
▁beneficiaries	-9602
economic	-9603
▁introducing	-9604
▁prioritaire	-9605
▁phases	-9606
▁stabilisation	-9607
▁receip	-9608
▁sac	-9609
▁fid	-9610
tile	-9611
▁pib	-9612
▁autodé	-9613
ahiri	-9614
▁rob	-9615
▁ever	-9616
▁bâtiments	-9617
▁deterior	-9618
▁délinqu	-9619
▁measured	-9620
▁homes	-9621
▁fruits	-9622
tér	-9623
▁reprodu	-9624
▁iraqi	-9625
▁exportateurs	-9626
esty	-9627
▁considérables	-9628
▁inad	-9629
▁apprentiss	-9630
▁législative	-9631
▁députés	-9632
▁surveys	-9633
▁avancement	-9634
▁rendus	-9635
▁adr	-9636
▁péro	-9637
▁niger	-9638
▁measurement	-9639
▁multilatéraux	-9640
▁telec	-9641
▁device	-9642
▁flu	-9643
▁adolescent	-9644
▁thous	-9645
▁pv	-9646
▁considérable	-9647
▁copy	-9648
alisées	-9649
▁interview	-9650
vient	-9651
▁greek	-9652
riting	-9653
▁arménie	-9654
▁suffered	-9655
ident	-9656
▁température	-9657
▁ips	-9658
▁précon	-9659
▁restitution	-9660
▁meilleurs	-9661
▁britann	-9662
▁supplementary	-9663
▁marque	-9664
▁comprise	-9665
▁tor	-9666
▁salaire	-9667
▁changing	-9668
▁impunity	-9669
▁vitesse	-9670
▁difference	-9671
▁réduit	-9672
▁buildings	-9673
▁intéressant	-9674
ahiriya	-9675
▁créée	-9676
▁longtemps	-9677
▁shel	-9678
▁mg	-9679
▁erre	-9680
▁entrer	-9681
▁totalité	-9682
▁décentr	-9683
▁neither	-9684
▁intérimaire	-9685
▁want	-9686
▁pérou	-9687
▁chinois	-9688
érieurs	-9689
▁exécut	-9690
▁distor	-9691
▁transfers	-9692
▁fees	-9693
▁approches	-9694
▁reiterates	-9695
▁précé	-9696
▁temperature	-9697
▁reconnus	-9698
▁census	-9699
▁méthod	-9700
▁dangereux	-9701
▁précédemment	-9702
▁jamahiriya	-9703
▁soldi	-9704
▁éclair	-9705
▁déterminée	-9706
umin	-9707
▁true	-9708
▁delegated	-9709
▁seas	-9710
▁river	-9711
▁déri	-9712
rane	-9713
▁starting	-9714
▁mentionné	-9715
▁classified	-9716
vé	-9717
▁conducting	-9718
▁tolérance	-9719
▁estimate	-9720
▁movements	-9721
▁doing	-9722
▁lié	-9723
▁subi	-9724
agog	-9725
▁wr	-9726
▁justification	-9727
▁congé	-9728
▁surveiller	-9729
▁recouvrement	-9730
▁éthiopie	-9731
▁patro	-9732
▁conseill	-9733
▁colonial	-9734
▁acp	-9735
▁envoyé	-9736
▁attitude	-9737
▁remplir	-9738
itations	-9739
▁assisted	-9740
▁cherche	-9741
igu	-9742
▁bench	-9743
▁ence	-9744
▁woman	-9745
▁controlled	-9746
ney	-9747
med	-9748
▁préliminaire	-9749
▁appareils	-9750
ancer	-9751
chés	-9752
▁apprentissage	-9753
ano	-9754
▁lif	-9755
Es	-9756
▁fournissant	-9757
▁restricted	-9758
▁xen	-9759
▁advanced	-9760
▁émanant	-9761
▁espagnol	-9762
▁malaisie	-9763
▁quick	-9764
▁subsistance	-9765
▁préval	-9766
▁dixième	-9767
mé	-9768
▁assessing	-9769
sile	-9770
▁claimed	-9771
▁confisc	-9772
▁perç	-9773
▁intoler	-9774
▁relatively	-9775
▁pér	-9776
▁actuels	-9777
▁fondation	-9778
umn	-9779
iling	-9780
▁appréci	-9781
▁monétaire	-9782
▁harmonization	-9783
▁patrimo	-9784
arisation	-9785
▁extreme	-9786
▁proportionn	-9787
▁espoir	-9788
▁lituanie	-9789
▁réaffirmé	-9790
rg	-9791
▁reserve	-9792
▁approfondie	-9793
▁joue	-9794
▁killed	-9795
▁conclus	-9796
▁moham	-9797
▁calculation	-9798
▁gaps	-9799
▁focusing	-9800
▁wider	-9801
▁coefficient	-9802
▁ty	-9803
▁réussi	-9804
▁topics	-9805
▁parlementaire	-9806
▁certaine	-9807
▁abat	-9808
▁invites	-9809
▁managing	-9810
▁psychological	-9811
▁imposer	-9812
▁désertification	-9813
▁similarly	-9814
▁cél	-9815
irs	-9816
▁tolerance	-9817
▁bande	-9818
▁remplis	-9819
▁avocat	-9820
▁montene	-9821
▁proche	-9822
▁servi	-9823
▁xén	-9824
▁troops	-9825
ibli	-9826
▁ster	-9827
▁examinée	-9828
▁fat	-9829
▁renforcé	-9830
▁préparatifs	-9831
▁enforced	-9832
▁inadequate	-9833
▁began	-9834
▁titulaire	-9835
ga	-9836
▁define	-9837
▁détru	-9838
▁modalities	-9839
▁recourir	-9840
▁largest	-9841
itary	-9842
▁carc	-9843
▁retraite	-9844
▁directed	-9845
▁ros	-9846
▁inquiétu	-9847
▁religieux	-9848
▁century	-9849
▁mobility	-9850
ographic	-9851
▁influen	-9852
ley	-9853
▁column	-9854
▁intensifier	-9855
▁utilisations	-9856
▁intimid	-9857
▁impunité	-9858
▁commissaires	-9859
▁raisonnable	-9860
▁âgés	-9861
▁idées	-9862
▁capabilities	-9863
▁atténuation	-9864
▁writing	-9865
▁irre	-9866
▁milk	-9867
utrition	-9868
▁veut	-9869
agas	-9870
▁annoncé	-9871
▁infanti	-9872
égé	-9873
▁sense	-9874
▁jér	-9875
▁drawing	-9876
▁unions	-9877
▁A	-9878
enh	-9879
ètement	-9880
▁reimburs	-9881
▁xenophob	-9882
▁redoub	-9883
▁appels	-9884
▁atténuer	-9885
▁dynamique	-9886
▁pesti	-9887
▁tuberc	-9888
▁carte	-9889
▁moun	-9890
▁patrimoine	-9891
▁interior	-9892
▁étendre	-9893
dering	-9894
▁tab	-9895
▁abolition	-9896
▁demonstrate	-9897
▁indicates	-9898
▁escomp	-9899
▁complic	-9900
▁suffisante	-9901
▁traditionnelles	-9902
▁demands	-9903
▁spatiales	-9904
▁surven	-9905
▁attaquer	-9906
▁citizen	-9907
▁financés	-9908
▁reliable	-9909
▁crédi	-9910
▁expériences	-9911
▁properly	-9912
▁comprenant	-9913
▁reques	-9914
resh	-9915
itablement	-9916
▁bear	-9917
▁nepad	-9918
▁qualit	-9919
▁pup	-9920
▁divor	-9921
▁supervisory	-9922
▁définie	-9923
▁remun	-9924
▁machinery	-9925
▁entreten	-9926
ccc	-9927
▁délivrance	-9928
▁neighbouring	-9929
▁ran	-9930
▁chlor	-9931
▁lists	-9932
fiée	-9933
uting	-9934
lim	-9935
▁russe	-9936
▁decentr	-9937
▁relèvement	-9938
▁kong	-9939
▁unifem	-9940
▁slovakia	-9941
cte	-9942
uts	-9943
▁coherence	-9944
▁libell	-9945
osé	-9946
▁garantit	-9947
▁ipsas	-9948
▁extremely	-9949
▁broader	-9950
▁aérienne	-9951
▁palestinienne	-9952
▁mobilization	-9953
ténég	-9954
▁compléter	-9955
inking	-9956
▁électorale	-9957
▁maurit	-9958
▁arrestation	-9959
▁connu	-9960
▁requesting	-9961
▁tirés	-9962
▁respectifs	-9963
▁born	-9964
▁rape	-9965
▁viabilité	-9966
▁figurer	-9967
dis	-9968
▁faudra	-9969
▁orders	-9970
▁tu	-9971
▁rappeler	-9972
▁largely	-9973
▁joined	-9974
▁échang	-9975
▁alternatives	-9976
▁siècle	-9977
▁integral	-9978
▁hear	-9979
ètre	-9980
▁télévision	-9981
▁persistent	-9982
▁E	-9983
▁audits	-9984
▁prononc	-9985
▁inhumains	-9986
▁recalls	-9987
▁overview	-9988
▁requiring	-9989
▁recognised	-9990
▁resi	-9991
▁ultim	-9992
▁précisions	-9993
▁maln	-9994
▁reve	-9995
▁nc	-9996
▁aérone	-9997
▁favorables	-9998
▁pma	-9999
▁removal	-10000
▁spoke	-10001
▁reconnaissant	-10002
▁éle	-10003
▁derived	-10004
▁stream	-10005
tioned	-10006
▁veille	-10007
▁impéra	-10008
onal	-10009
▁exploration	-10010
▁slow	-10011
▁compétitivité	-10012
▁titulaires	-10013
▁veter	-10014
▁destro	-10015
▁incurred	-10016
▁bh	-10017
▁intégrés	-10018
▁trouv	-10019
▁équité	-10020
▁wall	-10021
▁domicile	-10022
▁professionals	-10023
▁cant	-10024
▁appears	-10025
▁replies	-10026
▁fortement	-10027
▁vendre	-10028
mak	-10029
▁witnesses	-10030
▁staffing	-10031
▁mobilité	-10032
▁engagés	-10033
▁prisonniers	-10034
▁disclosure	-10035
▁actually	-10036
sk	-10037
▁ibid	-10038
▁complexe	-10039
agner	-10040
▁inher	-10041
▁mandated	-10042
▁anniversary	-10043
▁complainant	-10044
bound	-10045
▁écart	-10046
▁anniversaire	-10047
▁trim	-10048
▁octroy	-10049
▁agricul	-10050
▁thor	-10051
▁attitudes	-10052
▁scru	-10053
▁leste	-10054
gner	-10055
▁veuille	-10056
▁balanced	-10057
▁intéressé	-10058
▁pme	-10059
▁prevail	-10060
▁regardless	-10061
▁arguments	-10062
▁scrutin	-10063
▁letton	-10064
▁recital	-10065
▁inégalités	-10066
▁vulnérabilité	-10067
▁spécialement	-10068
▁durban	-10069
▁croissant	-10070
▁slovaquie	-10071
▁rejected	-10072
▁architec	-10073
▁intellectuelle	-10074
▁mesur	-10075
▁exceptional	-10076
▁subcommit	-10077
▁justified	-10078
▁emballage	-10079
▁débou	-10080
▁recruté	-10081
▁coalition	-10082
▁conclude	-10083
▁passagers	-10084
entiel	-10085
▁conjunction	-10086
▁encouragé	-10087
tec	-10088
▁rétab	-10089
▁livrais	-10090
▁remote	-10091
ressions	-10092
▁relevé	-10093
▁unity	-10094
érir	-10095
▁fresh	-10096
▁dispro	-10097
▁stop	-10098
▁nepal	-10099
▁tok	-10100
▁gave	-10101
▁occupés	-10102
▁sla	-10103
▁administrateurs	-10104
▁menés	-10105
▁occur	-10106
ésor	-10107
▁reçoivent	-10108
cast	-10109
▁ambassadeur	-10110
▁friend	-10111
▁éventuelles	-10112
times	-10113
▁served	-10114
▁multilatéral	-10115
▁ready	-10116
▁améliorations	-10117
▁quin	-10118
▁marked	-10119
▁unilateral	-10120
▁cambodia	-10121
▁tele	-10122
▁cou	-10123
▁refers	-10124
emen	-10125
▁assuré	-10126
▁exceptions	-10127
▁présents	-10128
phabé	-10129
▁examinés	-10130
▁consacrées	-10131
▁concentrations	-10132
▁desertification	-10133
▁habilité	-10134
▁détection	-10135
▁considérations	-10136
▁togo	-10137
▁progresser	-10138
▁image	-10139
▁veuillez	-10140
▁hé	-10141
▁placés	-10142
▁précises	-10143
▁genocide	-10144
▁heur	-10145
▁roles	-10146
▁intérieures	-10147
▁quelcon	-10148
▁excluded	-10149
▁texts	-10150
▁monténég	-10151
▁éventuelle	-10152
▁fournitures	-10153
▁mot	-10154
alisée	-10155
▁privilég	-10156
▁humanity	-10157
iterran	-10158
▁male	-10159
▁anciens	-10160
▁étrangère	-10161
▁regarded	-10162
▁currency	-10163
▁cerd	-10164
▁flexible	-10165
▁inventory	-10166
▁blanch	-10167
▁dispropor	-10168
▁montenegro	-10169
iterrane	-10170
▁senti	-10171
▁depth	-10172
▁prescribed	-10173
▁incompatible	-10174
▁expliquer	-10175
▁intr	-10176
▁ecb	-10177
▁competitiveness	-10178
▁attain	-10179
yed	-10180
▁occasions	-10181
▁invalid	-10182
▁schedule	-10183
onnage	-10184
▁rapatriement	-10185
▁derogation	-10186
▁dégradants	-10187
espread	-10188
▁italian	-10189
▁logistics	-10190
▁widespread	-10191
▁subsidiaires	-10192
▁opérationnelle	-10193
▁votes	-10194
▁@@–@@	-10195
▁végé	-10196
▁rapporteuse	-10197
▁publiée	-10198
▁désigné	-10199
▁démocratiques	-10200
▁ajoutée	-10201
▁predic	-10202
ibo	-10203
▁ocean	-10204
▁flexibility	-10205
▁recipient	-10206
▁intolérance	-10207
▁religions	-10208
▁montrent	-10209
▁evaluate	-10210
holm	-10211
▁conviendrait	-10212
▁donnent	-10213
▁mediterrane	-10214
▁sensiblement	-10215
▁*@@	-10216
▁vaccination	-10217
▁divisions	-10218
▁establishments	-10219
▁dépôt	-10220
▁vulnerability	-10221
▁reflects	-10222
iant	-10223
▁agences	-10224
▁adjustments	-10225
▁liquidation	-10226
▁deaths	-10227
▁éventuellement	-10228
mat	-10229
▁manufacture	-10230
▁unam	-10231
▁render	-10232
▁discre	-10233
▁jérusalem	-10234
▁monuc	-10235
▁surmon	-10236
▁fréquent	-10237
▁détaillée	-10238
▁comparison	-10239
▁hi	-10240
▁colle	-10241
▁narco	-10242
▁shares	-10243
▁accorde	-10244
▁latvia	-10245
▁présentes	-10246
▁continuation	-10247
▁definitions	-10248
▁changed	-10249
pc	-10250
▁firms	-10251
▁reaffirmed	-10252
▁angle	-10253
▁locations	-10254
▁voulu	-10255
▁trésor	-10256
bul	-10257
▁came	-10258
▁tom	-10259
▁chaîne	-10260
▁contempor	-10261
▁bénéficiaire	-10262
tures	-10263
▁centrales	-10264
▁mining	-10265
▁réalisée	-10266
▁estonia	-10267
ende	-10268
▁autonomie	-10269
▁regulated	-10270
▁intolerance	-10271
▁contractual	-10272
▁oriented	-10273
▁carburant	-10274
▁showed	-10275
▁immobil	-10276
▁proxim	-10277
▁·	-10278
▁signifie	-10279
▁eb	-10280
▁thres	-10281
ura	-10282
▁sexuels	-10283
▁xi	-10284
▁suffisant	-10285
▁dup	-10286
▁vivement	-10287
assi	-10288
▁?	-10289
▁introduire	-10290
▁atteintes	-10291
▁intermedi	-10292
▁ceci	-10293
▁passenger	-10294
▁subsidies	-10295
▁informe	-10296
▁appliquant	-10297
▁mots	-10298
eas	-10299
▁adequately	-10300
▁tunisia	-10301
uad	-10302
▁approuver	-10303
▁progressivement	-10304
▁entail	-10305
▁threshold	-10306
▁deprived	-10307
▁invités	-10308
▁dangers	-10309
▁horizont	-10310
▁mediterranean	-10311
▁harass	-10312
▁genu	-10313
▁macedonia	-10314
▁monn	-10315
▁modified	-10316
▁courant	-10317
▁ordinaires	-10318
▁revital	-10319
▁boys	-10320
rable	-10321
▁référ	-10322
▁thématiques	-10323
▁promoted	-10324
▁directs	-10325
▁pense	-10326
▁diversification	-10327
▁assurant	-10328
▁prévoyant	-10329
▁voyages	-10330
▁mentionnés	-10331
▁introduit	-10332
▁foods	-10333
▁malnutrition	-10334
▁hauts	-10335
▁equally	-10336
onds	-10337
DCs	-10338
▁réinté	-10339
▁vieill	-10340
▁tang	-10341
▁lasting	-10342
▁disadvant	-10343
▁profonde	-10344
▁couvre	-10345
estri	-10346
▁britain	-10347
▁maritimes	-10348
▁online	-10349
▁map	-10350
ulée	-10351
▁détéri	-10352
▁employers	-10353
▁évol	-10354
cides	-10355
▁relate	-10356
▁troop	-10357
▁revê	-10358
▁népal	-10359
▁broadcas	-10360
▁directorate	-10361
▁insec	-10362
▁tad	-10363
▁critère	-10364
gm	-10365
▁soumission	-10366
▁serving	-10367
▁policiers	-10368
▁gren	-10369
▁overcome	-10370
▁rul	-10371
▁prévoient	-10372
sh	-10373
▁uzbe	-10374
▁mineur	-10375
▁seriously	-10376
▁diminué	-10377
▁satisfait	-10378
▁accred	-10379
▁traditions	-10380
▁affectés	-10381
▁establishes	-10382
tar	-10383
▁complexes	-10384
▁nour	-10385
▁stockholm	-10386
▁gam	-10387
▁ml	-10388
▁wed	-10389
▁collect	-10390
gence	-10391
▁étapes	-10392
▁track	-10393
▁corpore	-10394
onie	-10395
▁avoirs	-10396
▁remedy	-10397
tian	-10398
▁journalistes	-10399
▁mentionnées	-10400
▁comparative	-10401
▁abstentions	-10402
▁affich	-10403
▁unlawful	-10404
▁alle	-10405
▁ct	-10406
▁indicator	-10407
otypes	-10408
▁deliberations	-10409
▁became	-10410
▁donnant	-10411
▁mitigation	-10412
▁soumet	-10413
èdent	-10414
▁underlying	-10415
▁sénég	-10416
▁copenh	-10417
▁ut	-10418
▁acknowledged	-10419
▁envers	-10420
▁reservation	-10421
▁attempt	-10422
▁soutient	-10423
▁conformer	-10424
▁quelconque	-10425
▁élu	-10426
▁consultatifs	-10427
istait	-10428
▁heritage	-10429
▁contractu	-10430
▁bibli	-10431
▁suivie	-10432
lesse	-10433
▁acceptation	-10434
ophobie	-10435
▁violated	-10436
ía	-10437
▁ko	-10438
▁remin	-10439
▁liabilities	-10440
▁approuvés	-10441
trice	-10442
▁logici	-10443
▁autonomisation	-10444
▁clarification	-10445
▁aligned	-10446
▁prononcer	-10447
▁vend	-10448
▁falling	-10449
▁handling	-10450
▁buts	-10451
▁transm	-10452
▁cumul	-10453
▁surviv	-10454
▁terrestres	-10455
tront	-10456
▁tubercul	-10457
▁harmful	-10458
toral	-10459
▁decline	-10460
turb	-10461
▁redev	-10462
▁extrême	-10463
sen	-10464
▁usually	-10465
itables	-10466
édoine	-10467
▁sene	-10468
grade	-10469
▁receipt	-10470
▁révisée	-10471
▁adéquate	-10472
iann	-10473
▁macédoine	-10474
▁pp	-10475
▁accessibles	-10476
▁master	-10477
▁familiales	-10478
ocation	-10479
▁majeure	-10480
wana	-10481
▁wind	-10482
▁functional	-10483
▁manufactur	-10484
▁oli	-10485
▁observe	-10486
▁inhab	-10487
mad	-10488
dered	-10489
▁convenus	-10490
▁formed	-10491
▁illégale	-10492
▁models	-10493
▁industriel	-10494
▁estonie	-10495
▁oios	-10496
▁allows	-10497
▁bce	-10498
▁diox	-10499
▁productivité	-10500
▁demobil	-10501
▁frequ	-10502
▁parven	-10503
aled	-10504
▁primaires	-10505
▁croissante	-10506
▁papers	-10507
osph	-10508
▁djibo	-10509
illon	-10510
ropri	-10511
▁parental	-10512
ulent	-10513
▁raw	-10514
▁soldiers	-10515
▁gravement	-10516
▁senegal	-10517
▁lettonie	-10518
tish	-10519
▁lay	-10520
▁gard	-10521
▁fixée	-10522
▁coastal	-10523
▁djibouti	-10524
versi	-10525
▁exprimées	-10526
▁clarify	-10527
▁biom	-10528
▁commet	-10529
▁recover	-10530
▁territoriale	-10531
▁declarations	-10532
▁asse	-10533
▁colo	-10534
▁entendre	-10535
▁sometimes	-10536
▁volumes	-10537
▁contraintes	-10538
▁inflig	-10539
▁deadline	-10540
▁tension	-10541
érants	-10542
▁réit	-10543
▁floor	-10544
▁perfectionn	-10545
▁accommodation	-10546
▁achevé	-10547
▁digital	-10548
▁validité	-10549
▁seed	-10550
▁avocats	-10551
▁explosifs	-10552
▁définitions	-10553
▁jordanie	-10554
▁publiés	-10555
▁securities	-10556
▁enquêter	-10557
▁lancer	-10558
▁méditerran	-10559
ean	-10560
▁deployed	-10561
▁dedicated	-10562
▁reading	-10563
▁technologique	-10564
▁offrent	-10565
▁recueillir	-10566
▁integrate	-10567
cend	-10568
ock	-10569
mer	-10570
▁deleted	-10571
▁symbol	-10572
▁occidentale	-10573
▁gives	-10574
▁equi	-10575
▁réelle	-10576
anches	-10577
▁lawyers	-10578
▁concession	-10579
▁conserver	-10580
▁sph	-10581
ciplin	-10582
▁religieuse	-10583
▁assumer	-10584
ultural	-10585
▁confron	-10586
▁repatriation	-10587
▁cote	-10588
▁gros	-10589
▁seuil	-10590
▁loan	-10591
▁choisir	-10592
▁helping	-10593
▁dete	-10594
▁limitées	-10595
▁intérieure	-10596
▁unre	-10597
▁assume	-10598
▁newly	-10599
▁cluster	-10600
where	-10601
terre	-10602
minent	-10603
run	-10604
down	-10605
▁presque	-10606
boundary	-10607
▁smo	-10608
▁meur	-10609
▁albania	-10610
▁sauvegar	-10611
▁becoming	-10612
▁transboundary	-10613
▁désignation	-10614
▁déplacements	-10615
▁défavoris	-10616
▁sièges	-10617
▁bretagne	-10618
▁trac	-10619
▁bulle	-10620
▁voire	-10621
yz	-10622
▁mesurer	-10623
▁accueilli	-10624
▁nlb	-10625
▁passant	-10626
▁arbitration	-10627
▁B	-10628
▁écosystèmes	-10629
▁away	-10630
▁veterin	-10631
▁auton	-10632
▁comptables	-10633
▁lond	-10634
▁ef	-10635
▁built	-10636
▁rid	-10637
▁pilote	-10638
▁referring	-10639
▁répondant	-10640
▁apparaître	-10641
urants	-10642
▁autonome	-10643
▁réalisations	-10644
▁offers	-10645
▁belief	-10646
▁interop	-10647
▁tunisie	-10648
▁monna	-10649
▁ts	-10650
▁manufacturing	-10651
▁traitées	-10652
▁compound	-10653
▁fermement	-10654
lling	-10655
▁réaction	-10656
▁academic	-10657
▁dependent	-10658
▁correspondants	-10659
▁financé	-10660
▁exped	-10661
apit	-10662
issait	-10663
zes	-10664
▁compli	-10665
▁totalement	-10666
▁sugar	-10667
▁indiquent	-10668
▁critiques	-10669
▁assass	-10670
▁respected	-10671
▁récup	-10672
▁monténégro	-10673
▁animale	-10674
▁voting	-10675
▁clô	-10676
▁historique	-10677
Gs	-10678
▁clôture	-10679
▁combination	-10680
▁sentences	-10681
▁marking	-10682
▁incenti	-10683
▁occupent	-10684
▁software	-10685
▁coerci	-10686
▁degradation	-10687
▁surmonter	-10688
▁omd	-10689
▁subcommittee	-10690
▁souscrit	-10691
▁talib	-10692
▁camer	-10693
▁wage	-10694
▁lao	-10695
uctu	-10696
▁phyt	-10697
▁placing	-10698
▁payer	-10699
▁memorandum	-10700
▁bulletin	-10701
▁rétablis	-10702
▁géographiques	-10703
acceptable	-10704
▁lebanese	-10705
▁infection	-10706
▁entam	-10707
▁lastly	-10708
▁tac	-10709
▁colonne	-10710
▁hauteur	-10711
▁intelligence	-10712
▁minimales	-10713
▁sufficiently	-10714
▁fabri	-10715
▁convin	-10716
▁virus	-10717
mobilisation	-10718
▁organize	-10719
▁lever	-10720
▁notify	-10721
▁depending	-10722
▁soulignant	-10723
▁intégrante	-10724
▁journalists	-10725
tiens	-10726
▁critique	-10727
▁eritrea	-10728
▁remuneration	-10729
▁qualification	-10730
▁cultiv	-10731
▁guy	-10732
▁salaires	-10733
ectori	-10734
▁returned	-10735
▁parame	-10736
erted	-10737
As	-10738
fait	-10739
▁absolute	-10740
▁génocide	-10741
▁forese	-10742
▁communiqués	-10743
▁hydrog	-10744
▁achèvement	-10745
▁héb	-10746
▁speakers	-10747
▁spécifiquement	-10748
▁parlementaires	-10749
▁inquiry	-10750
▁facto	-10751
ori	-10752
▁naiss	-10753
▁@@«@@	-10754
▁souhaitent	-10755
uant	-10756
▁équivalent	-10757
▁entraîné	-10758
▁classiques	-10759
▁interdire	-10760
▁saurait	-10761
icide	-10762
▁investisseurs	-10763
▁élevée	-10764
▁sénégal	-10765
▁bénéfice	-10766
vasion	-10767
▁arbitrage	-10768
▁recl	-10769
▁condamné	-10770
▁passed	-10771
▁traduit	-10772
▁posed	-10773
▁alerte	-10774
wealth	-10775
▁lost	-10776
▁urbaines	-10777
▁constituted	-10778
▁pav	-10779
▁commentaires	-10780
▁stipulates	-10781
▁commonwealth	-10782
▁musul	-10783
annes	-10784
▁environmentally	-10785
▁flight	-10786
▁helped	-10787
aba	-10788
▁enough	-10789
▁hence	-10790
▁polluants	-10791
▁&	-10792
▁standardi	-10793
▁semi	-10794
▁rwand	-10795
▁ukrain	-10796
▁appuyé	-10797
▁believed	-10798
▁productivity	-10799
▁personnels	-10800
▁decentral	-10801
▁libr	-10802
▁yougosla	-10803
▁interro	-10804
landais	-10805
▁replacement	-10806
▁favourable	-10807
ancies	-10808
▁réflex	-10809
▁cohes	-10810
▁grec	-10811
▁multin	-10812
▁élig	-10813
ulé	-10814
▁acquise	-10815
▁resumed	-10816
èrement	-10817
▁accusé	-10818
acité	-10819
▁resta	-10820
▁multilatérales	-10821
▁cruels	-10822
▁ray	-10823
▁israélien	-10824
▁blanchiment	-10825
urses	-10826
▁jouent	-10827
▁touchées	-10828
ïn	-10829
▁agression	-10830
▁palestinians	-10831
▁engagée	-10832
▁précisément	-10833
▁businesses	-10834
▁petite	-10835
▁bots	-10836
▁encad	-10837
▁vétér	-10838
▁ae	-10839
▁guardi	-10840
▁seconde	-10841
▁ouverts	-10842
▁intensive	-10843
▁@@−	-10844
▁news	-10845
▁approuve	-10846
▁get	-10847
▁ambiti	-10848
▁collaborer	-10849
▁wo	-10850
▁autour	-10851
ush	-10852
▁faith	-10853
▁équateur	-10854
▁xenophobia	-10855
▁consisting	-10856
▁demeurent	-10857
▁légitime	-10858
▁intégrées	-10859
▁um	-10860
▁imported	-10861
▁lot	-10862
▁sum	-10863
aired	-10864
▁tox	-10865
▁align	-10866
▁valuable	-10867
▁défenseurs	-10868
▁conçu	-10869
dumping	-10870
▁aborder	-10871
▁antidumping	-10872
vable	-10873
▁railway	-10874
tch	-10875
▁versement	-10876
▁specifications	-10877
▁inscrites	-10878
▁incorporation	-10879
▁producing	-10880
▁fera	-10881
▁imper	-10882
▁batter	-10883
▁ordinary	-10884
▁drew	-10885
▁cohésion	-10886
▁gi	-10887
▁employeurs	-10888
oise	-10889
▁negotiating	-10890
▁inclus	-10891
▁ultérieurement	-10892
▁complémentaire	-10893
▁generated	-10894
▁...	-10895
▁albanie	-10896
▁@@−@@	-10897
▁comprising	-10898
engen	-10899
▁foi	-10900
▁défendre	-10901
▁experienced	-10902
▁chemin	-10903
▁hygi	-10904
▁adviser	-10905
▁compilation	-10906
▁paralle	-10907
log	-10908
quait	-10909
▁negotiation	-10910
▁candidate	-10911
▁@@=	-10912
▁outreach	-10913
▁conciliation	-10914
▁fixant	-10915
▁simplement	-10916
▁potentiels	-10917
▁noms	-10918
▁ferroviaire	-10919
▁réel	-10920
▁friendly	-10921
▁projections	-10922
▁schengen	-10923
bert	-10924
▁academ	-10925
▁participe	-10926
▁insuffisance	-10927
▁ga	-10928
parti	-10929
▁pne	-10930
▁missiles	-10931
▁mercure	-10932
▁subjects	-10933
▁cooperative	-10934
▁notifications	-10935
▁bâtiment	-10936
▁préjudici	-10937
▁publier	-10938
▁vétérin	-10939
▁reproduction	-10940
▁proclam	-10941
inaf	-10942
▁producteur	-10943
▁whe	-10944
▁tiss	-10945
▁aménagement	-10946
book	-10947
▁démin	-10948
▁offenders	-10949
▁dues	-10950
▁faibles	-10951
▁incentives	-10952
▁chain	-10953
▁tnp	-10954
▁morale	-10955
▁R	-10956
▁devoted	-10957
▁expliqué	-10958
band	-10959
▁recrutés	-10960
▁botswana	-10961
▁gc	-10962
▁infantile	-10963
▁réexamin	-10964
df	-10965
▁indice	-10966
▁acquired	-10967
▁justifier	-10968
▁quoi	-10969
▁hostil	-10970
▁acquérir	-10971
▁incitation	-10972
▁disponibilité	-10973
▁tenth	-10974
▁aspirations	-10975
▁prud	-10976
▁utilization	-10977
▁commod	-10978
▁prél	-10979
▁club	-10980
utiques	-10981
▁minimal	-10982
▁composed	-10983
▁reductions	-10984
▁yugoslav	-10985
▁céléb	-10986
▁sols	-10987
▁thank	-10988
▁uncertain	-10989
▁processed	-10990
▁ideas	-10991
▁mutuelle	-10992
▁selec	-10993
▁calendar	-10994
▁efforcer	-10995
▁pertinent	-10996
▁foyers	-10997
▁voulues	-10998
▁occuper	-10999
fiés	-11000
▁africain	-11001
▁autorisées	-11002
▁contenues	-11003
▁separation	-11004
▁ème	-11005
lige	-11006
▁formations	-11007
▁laundering	-11008
aisons	-11009
▁convicted	-11010
▁specify	-11011
▁felt	-11012
▁milliers	-11013
▁madrid	-11014
▁bs	-11015
▁renewed	-11016
▁juridictions	-11017
▁affirmé	-11018
▁unilatér	-11019
▁moyennes	-11020
inafter	-11021
▁volati	-11022
▁appell	-11023
▁verbale	-11024
▁poursuivi	-11025
▁bovine	-11026
▁agrément	-11027
oking	-11028
▁viande	-11029
ureusement	-11030
▁conventionnels	-11031
▁clair	-11032
▁hereinafter	-11033
▁superfic	-11034
▁xénophobie	-11035
▁défi	-11036
▁provisoires	-11037
▁madagas	-11038
▁residents	-11039
▁mercury	-11040
▁coherent	-11041
ffs	-11042
▁signing	-11043
▁marins	-11044
▁concertation	-11045
▁famili	-11046
▁clefs	-11047
▁municipalities	-11048
▁madagascar	-11049
oked	-11050
▁accum	-11051
▁registry	-11052
▁verser	-11053
ae	-11054
▁harassment	-11055
▁escl	-11056
▁gib	-11057
▁fondamentale	-11058
▁tanzania	-11059
▁successfully	-11060
▁copies	-11061
▁émet	-11062
▁delays	-11063
▁harc	-11064
▁atmosphérique	-11065
▁cali	-11066
▁stipule	-11067
▁échapp	-11068
▁conduire	-11069
▁amor	-11070
▁douane	-11071
▁gratuit	-11072
▁phil	-11073
▁signaler	-11074
enneté	-11075
atories	-11076
▁attente	-11077
▁analytical	-11078
▁nommé	-11079
▁apporte	-11080
▁cycles	-11081
arienne	-11082
▁transnationale	-11083
▁franch	-11084
▁annually	-11085
▁manifestation	-11086
▁sad	-11087
ining	-11088
urrent	-11089
▁chauff	-11090
▁indiquées	-11091
▁comparaison	-11092
▁scen	-11093
▁lait	-11094
▁consists	-11095
▁prescrit	-11096
▁symp	-11097
▁agriculteurs	-11098
▁mothers	-11099
actory	-11100
▁send	-11101
▁rempliss	-11102
▁confirmation	-11103
▁conçus	-11104
▁LDCs	-11105
▁pupils	-11106
▁understood	-11107
▁extraction	-11108
▁aper	-11109
▁historical	-11110
tour	-11111
▁malte	-11112
▁counselling	-11113
tante	-11114
▁gabon	-11115
▁irreg	-11116
▁encourageant	-11117
▁foss	-11118
▁repose	-11119
▁constater	-11120
▁indicateur	-11121
▁steel	-11122
▁échantillons	-11123
▁sinc	-11124
▁registres	-11125
▁ones	-11126
▁autonomes	-11127
▁connected	-11128
▁incorporate	-11129
▁appropriations	-11130
▁larger	-11131
▁serre	-11132
▁attendant	-11133
▁réé	-11134
▁yemen	-11135
▁universitaires	-11136
the	-11137
▁travaillant	-11138
MEs	-11139
▁cambodge	-11140
▁occupant	-11141
▁ago	-11142
▁parallel	-11143
▁subsid	-11144
▁islande	-11145
▁consequence	-11146
▁nearly	-11147
▁thereto	-11148
▁récapit	-11149
tag	-11150
▁associée	-11151
mentioned	-11152
▁syndicats	-11153
▁normally	-11154
nant	-11155
▁revoir	-11156
▁arrêter	-11157
▁liby	-11158
▁transmitting	-11159
▁weigh	-11160
▁rétablissement	-11161
▁accompli	-11162
▁vient	-11163
▁phenomenon	-11164
▁modernisation	-11165
▁yougoslave	-11166
▁ensured	-11167
aments	-11168
usses	-11169
▁plaf	-11170
▁pursued	-11171
▁stay	-11172
▁taliban	-11173
▁hereby	-11174
▁equipped	-11175
▁disciplinary	-11176
▁assurée	-11177
▁ouz	-11178
▁sentenced	-11179
▁architecture	-11180
▁ferme	-11181
▁englob	-11182
▁diagnostic	-11183
▁malawi	-11184
▁repris	-11185
▁étendue	-11186
▁going	-11187
▁appropriation	-11188
▁libéralisation	-11189
▁pip	-11190
▁urge	-11191
▁législations	-11192
▁happ	-11193
otechn	-11194
▁gamb	-11195
▁problématique	-11196
▁multinational	-11197
▁inputs	-11198
▁reality	-11199
▁reflecting	-11200
▁arbitraire	-11201
▁institué	-11202
▁requise	-11203
isible	-11204
▁leaving	-11205
do	-11206
▁informatiques	-11207
▁kyrg	-11208
aco	-11209
timent	-11210
utation	-11211
▁yém	-11212
▁municipalités	-11213
▁énumérés	-11214
▁suppos	-11215
▁machines	-11216
▁aer	-11217
▁subord	-11218
▁institutionnels	-11219
▁fixation	-11220
tabilité	-11221
▁idea	-11222
▁tentative	-11223
▁gouvernementale	-11224
▁dollar	-11225
td	-11226
▁paramètres	-11227
ovis	-11228
▁visas	-11229
▁alcohol	-11230
▁difficiles	-11231
▁vont	-11232
▁ratify	-11233
▁proof	-11234
▁résistance	-11235
▁solide	-11236
▁mich	-11237
▁kyrgyz	-11238
▁references	-11239
▁MD	-11240
▁émis	-11241
▁chypri	-11242
▁excluding	-11243
▁traditionnels	-11244
▁decreased	-11245
▁literacy	-11246
fric	-11247
▁issuing	-11248
▁tanzanie	-11249
▁pollut	-11250
▁"	-11251
▁cible	-11252
▁dév	-11253
▁reviewing	-11254
▁constitutionnel	-11255
▁hygiène	-11256
▁audiovis	-11257
tionnelle	-11258
▁saudi	-11259
▁pédagog	-11260
▁projected	-11261
▁displacement	-11262
▁seiz	-11263
▁littoral	-11264
▁explanation	-11265
▁cargo	-11266
▁adressées	-11267
▁permits	-11268
▁bou	-11269
▁ng	-11270
itis	-11271
▁adults	-11272
▁salary	-11273
▁avance	-11274
▁simply	-11275
▁consenti	-11276
▁concrets	-11277
▁seekers	-11278
gad	-11279
réd	-11280
▁utilité	-11281
▁renforcée	-11282
▁taxation	-11283
▁frequency	-11284
▁forestry	-11285
uish	-11286
▁sides	-11287
▁refund	-11288
▁fu	-11289
▁alarm	-11290
ifying	-11291
▁british	-11292
▁futur	-11293
hy	-11294
eding	-11295
▁uzbekistan	-11296
érité	-11297
▁holder	-11298
▁explosive	-11299
▁everyone	-11300
▁fighting	-11301
▁revanche	-11302
▁kirgh	-11303
▁alcool	-11304
▁seules	-11305
▁consolider	-11306
▁malhe	-11307
fas	-11308
▁fich	-11309
▁ja	-11310
▁trag	-11311
▁removed	-11312
▁commodity	-11313
▁beings	-11314
▁harcèlement	-11315
care	-11316
▁accordées	-11317
▁tableaux	-11318
▁sbs	-11319
▁sucre	-11320
▁pluriann	-11321
▁retirer	-11322
yle	-11323
▁soil	-11324
▁exclusively	-11325
▁normalement	-11326
▁branches	-11327
▁retenue	-11328
opol	-11329
pective	-11330
▁rendement	-11331
▁translation	-11332
onnées	-11333
▁amounted	-11334
▁détenu	-11335
▁royal	-11336
arb	-11337
▁remercie	-11338
▁puisqu	-11339
▁versées	-11340
▁excellence	-11341
▁combustion	-11342
▁cameroun	-11343
▁diplomatique	-11344
▁sûr	-11345
▁incul	-11346
▁enforce	-11347
▁obliged	-11348
tats	-11349
▁evaluations	-11350
▁reportedly	-11351
▁réunir	-11352
▁succes	-11353
▁réglementaire	-11354
▁duly	-11355
rontal	-11356
▁spécifications	-11357
itaux	-11358
▁inviter	-11359
▁exerce	-11360
▁enshr	-11361
withstanding	-11362
éci	-11363
▁tute	-11364
çu	-11365
▁xvi	-11366
▁transfrontal	-11367
▁précisé	-11368
▁ral	-11369
▁reaff	-11370
▁injur	-11371
▁banking	-11372
▁white	-11373
▁notwithstanding	-11374
▁normale	-11375
▁closure	-11376
▁encoun	-11377
▁infant	-11378
ulées	-11379
▁mond	-11380
▁exprime	-11381
▁genuine	-11382
▁approuvée	-11383
▁verify	-11384
▁maîtrise	-11385
▁composantes	-11386
▁authorization	-11387
▁cohesion	-11388
▁variations	-11389
▁fréquence	-11390
▁rat	-11391
▁whereby	-11392
▁briefing	-11393
▁trésorerie	-11394
▁intégralement	-11395
▁decades	-11396
▁technologiques	-11397
▁teleph	-11398
ôles	-11399
▁hund	-11400
▁dénom	-11401
▁corro	-11402
▁placé	-11403
▁elaboration	-11404
▁SMEs	-11405
iable	-11406
▁citoyen	-11407
▁consulter	-11408
auté	-11409
▁exempl	-11410
▁fulfilled	-11411
▁normalisation	-11412
▁indépendamment	-11413
▁intends	-11414
▁aquac	-11415
▁liveli	-11416
▁welcoming	-11417
▁convinced	-11418
▁intimidation	-11419
isive	-11420
▁cohérente	-11421
▁réintégration	-11422
▁contrepar	-11423
▁annuelles	-11424
▁authors	-11425
▁jean	-11426
▁penser	-11427
▁hundred	-11428
encl	-11429
▁définitif	-11430
▁formulée	-11431
▁camero	-11432
▁thorough	-11433
▁reaffirms	-11434
▁ships	-11435
▁none	-11436
stall	-11437
▁therm	-11438
▁tôt	-11439
▁déplacement	-11440
gregated	-11441
▁érythrée	-11442
▁allegedly	-11443
▁ale	-11444
▁posent	-11445
▁traduction	-11446
▁optique	-11447
▁gel	-11448
▁biblioth	-11449
▁positifs	-11450
▁bass	-11451
▁habil	-11452
▁appuyant	-11453
icon	-11454
▁exists	-11455
▁universités	-11456
▁époque	-11457
▁inhabit	-11458
▁frontal	-11459
▁indian	-11460
▁libyan	-11461
▁cameroon	-11462
▁rech	-11463
▁quantitative	-11464
▁sbi	-11465
▁sortie	-11466
augh	-11467
ulum	-11468
ami	-11469
▁enac	-11470
tiles	-11471
▁sell	-11472
▁poursuit	-11473
▁immatric	-11474
▁emploie	-11475
▁perce	-11476
▁lig	-11477
▁customary	-11478
▁MDGs	-11479
▁ageing	-11480
▁mentale	-11481
ault	-11482
▁délits	-11483
▁harmoniser	-11484
▁profondément	-11485
érons	-11486
▁indicating	-11487
▁defenders	-11488
▁lands	-11489
quis	-11490
▁plural	-11491
vals	-11492
▁saisir	-11493
▁passengers	-11494
onnés	-11495
▁élève	-11496
▁restrictive	-11497
▁possibilities	-11498
▁missing	-11499
▁procède	-11500
▁perpétr	-11501
▁nomencl	-11502
▁imposent	-11503
▁auxili	-11504
▁mémorandum	-11505
▁dilig	-11506
▁prochaines	-11507
▁éra	-11508
▁moteurs	-11509
▁divorce	-11510
▁jac	-11511
▁appréciation	-11512
▁revue	-11513
▁solides	-11514
▁operated	-11515
▁rationnelle	-11516
▁demandées	-11517
▁pénitentiaires	-11518
cp	-11519
▁contest	-11520
▁rigoure	-11521
▁bid	-11522
▁spor	-11523
▁endro	-11524
▁bolivia	-11525
▁emprun	-11526
▁suppliers	-11527
▁dry	-11528
▁aggreg	-11529
▁liable	-11530
▁indemnités	-11531
▁résident	-11532
▁condemn	-11533
▁comprises	-11534
▁prospects	-11535
▁adhérer	-11536
▁suspects	-11537
▁clauses	-11538
▁injec	-11539
▁centrafric	-11540
▁cance	-11541
▁positif	-11542
▁object	-11543
▁labelling	-11544
▁carriage	-11545
▁mères	-11546
▁sécher	-11547
▁démobilisation	-11548
▁dépasse	-11549
▁tajikistan	-11550
▁traduire	-11551
▁assez	-11552
▁gravité	-11553
weg	-11554
ospéci	-11555
▁détenues	-11556
▁patterns	-11557
▁fear	-11558
▁pesticides	-11559
▁seat	-11560
▁correspondantes	-11561
▁légal	-11562
▁thousands	-11563
▁douanières	-11564
▁sbsta	-11565
▁législatifs	-11566
▁wa	-11567
▁automob	-11568
▁réinstall	-11569
▁demobilization	-11570
abore	-11571
▁indispensables	-11572
▁denied	-11573
euse	-11574
▁intervenant	-11575
▁exiger	-11576
▁psycho	-11577
▁classement	-11578
aka	-11579
▁sexospéci	-11580
▁frequently	-11581
▁lamp	-11582
ker	-11583
▁judgement	-11584
▁exposées	-11585
▁difficulté	-11586
▁transfrontières	-11587
terdam	-11588
▁adressé	-11589
▁pertaining	-11590
▁washing	-11591
▁rh	-11592
▁fiables	-11593
carb	-11594
dictions	-11595
▁succession	-11596
▁beneficiary	-11597
ensive	-11598
▁gratitude	-11599
▁idé	-11600
▁else	-11601
▁preval	-11602
▁urbain	-11603
▁elect	-11604
▁étique	-11605
▁maternité	-11606
▁obtaining	-11607
▁explore	-11608
itude	-11609
▁ias	-11610
▁suggéré	-11611
▁déminage	-11612
▁samo	-11613
▁pneum	-11614
▁attache	-11615
▁malheureusement	-11616
▁summar	-11617
▁éducatif	-11618
▁brid	-11619
▁visited	-11620
▁blac	-11621
▁incon	-11622
▁disadvantaged	-11623
dives	-11624
pro	-11625
▁behind	-11626
orn	-11627
▁allowances	-11628
uleur	-11629
▁synthèse	-11630
▁combattants	-11631
▁adresser	-11632
▁epide	-11633
dc	-11634
▁forthcoming	-11635
▁biodiversité	-11636
▁johannes	-11637
▁comportant	-11638
▁occupational	-11639
▁parameters	-11640
tili	-11641
▁fondement	-11642
▁features	-11643
▁monitored	-11644
▁wood	-11645
▁mp	-11646
▁pier	-11647
▁électrique	-11648
▁temporaires	-11649
▁impression	-11650
▁risquent	-11651
▁sait	-11652
▁couverts	-11653
▁py	-11654
▁josé	-11655
ik	-11656
▁envisagé	-11657
▁entrep	-11658
▁éventail	-11659
▁réglementations	-11660
▁cyp	-11661
▁réuni	-11662
▁privi	-11663
▁remplacée	-11664
▁wastes	-11665
▁organizing	-11666
▁faisait	-11667
ived	-11668
▁psychologique	-11669
▁sampling	-11670
▁garantissant	-11671
▁néer	-11672
▁précédents	-11673
▁wfp	-11674
▁supplied	-11675
▁guyana	-11676
▁nette	-11677
▁séparation	-11678
istent	-11679
▁residu	-11680
▁street	-11681
▁facilitated	-11682
▁suivent	-11683
▁percent	-11684
▁réag	-11685
▁accueille	-11686
▁veillent	-11687
▁formulé	-11688
▁potable	-11689
▁fulfilment	-11690
▁permette	-11691
▁cutting	-11692
▁médiation	-11693
▁devenu	-11694
▁tues	-11695
▁lundi	-11696
▁reserves	-11697
▁aggression	-11698
▁visible	-11699
▁singapore	-11700
▁greenhouse	-11701
▁talks	-11702
▁discriminatoire	-11703
▁fabricant	-11704
▁délibérations	-11705
▁rapidly	-11706
▁gamme	-11707
▁néfas	-11708
▁cancer	-11709
▁mercen	-11710
▁prosecutors	-11711
▁situés	-11712
▁facilement	-11713
▁chur	-11714
▁hat	-11715
▁arrêtées	-11716
▁sang	-11717
▁tribunals	-11718
▁monday	-11719
▁hôpitaux	-11720
▁industriels	-11721
▁impliquant	-11722
▁appartient	-11723
▁broch	-11724
▁driving	-11725
lations	-11726
▁accréd	-11727
▁pornography	-11728
▁trin	-11729
▁investors	-11730
▁alli	-11731
▁individuels	-11732
▁autrement	-11733
cel	-11734
▁substitution	-11735
▁substantially	-11736
▁prosp	-11737
▁iraquien	-11738
▁unfortun	-11739
▁tuesday	-11740
▁dismiss	-11741
▁réflexion	-11742
▁suspended	-11743
▁ov	-11744
▁initiate	-11745
▁sul	-11746
▁enrol	-11747
▁mardi	-11748
lent	-11749
▁détec	-11750
▁libellé	-11751
▁convergence	-11752
▁diverg	-11753
▁interval	-11754
▁tomb	-11755
▁déficit	-11756
▁relates	-11757
▁motion	-11758
▁île	-11759
▁biennial	-11760
▁étiquetage	-11761
▁éventuels	-11762
▁abuses	-11763
▁écologique	-11764
ortait	-11765
▁scre	-11766
▁situé	-11767
▁pleased	-11768
sa	-11769
▁solely	-11770
▁cere	-11771
▁arrivée	-11772
▁validation	-11773
▁élus	-11774
▁holders	-11775
▁préci	-11776
rammes	-11777
▁fournisseur	-11778
itres	-11779
▁appliqués	-11780
assent	-11781
ado	-11782
▁parité	-11783
▁@@°@@	-11784
▁pure	-11785
ration	-11786
▁troubles	-11787
▁occidental	-11788
▁contiennent	-11789
▁féminines	-11790
holder	-11791
▁preceding	-11792
▁vivre	-11793
▁psychi	-11794
▁label	-11795
▁attributable	-11796
▁clearance	-11797
▁laboratory	-11798
▁formulated	-11799
▁désignés	-11800
▁implique	-11801
▁contamination	-11802
▁archives	-11803
▁cartes	-11804
▁responding	-11805
▁statutory	-11806
▁refuse	-11807
▁singapour	-11808
▁gef	-11809
▁obtention	-11810
▁posée	-11811
▁dic	-11812
▁enregistrées	-11813
▁félicité	-11814
▁entrusted	-11815
▁packaging	-11816
▁détaillé	-11817
▁begun	-11818
▁cfs	-11819
▁redep	-11820
▁book	-11821
▁autorise	-11822
▁seeks	-11823
▁indices	-11824
cribe	-11825
▁sexuel	-11826
▁pharmace	-11827
▁aperçu	-11828
▁bin	-11829
▁recommander	-11830
▁oralement	-11831
▁proximité	-11832
entielle	-11833
▁entering	-11834
▁morales	-11835
▁rechercher	-11836
▁won	-11837
▁garder	-11838
▁mène	-11839
▁freely	-11840
▁wednes	-11841
▁remove	-11842
▁linkages	-11843
iland	-11844
▁oxy	-11845
▁maison	-11846
▁norvég	-11847
▁instituant	-11848
▁una	-11849
▁condamnés	-11850
▁suspected	-11851
▁box	-11852
onu	-11853
▁foyer	-11854
▁héberg	-11855
▁mineral	-11856
cence	-11857
▁macroeconomic	-11858
ailles	-11859
oh	-11860
▁apportée	-11861
▁relationships	-11862
▁délit	-11863
▁mercredi	-11864
▁sensibles	-11865
▁aupar	-11866
▁retards	-11867
▁auparavant	-11868
ett	-11869
▁exact	-11870
▁stipulated	-11871
▁bons	-11872
sg	-11873
▁outputs	-11874
résid	-11875
ented	-11876
▁nomenclature	-11877
tuffs	-11878
▁quasi	-11879
▁circulated	-11880
aill	-11881
▁wednesday	-11882
▁luc	-11883
▁desquels	-11884
▁engineering	-11885
▁tête	-11886
▁confiscation	-11887
▁diplô	-11888
▁X	-11889
▁épreuve	-11890
▁élo	-11891
▁arise	-11892
▁prestataires	-11893
▁squ	-11894
▁volunteers	-11895
▁coordonnées	-11896
▁approuvées	-11897
▁profess	-11898
▁aidé	-11899
▁unli	-11900
▁pouss	-11901
▁adjusted	-11902
▁sév	-11903
▁pond	-11904
▁fondés	-11905
▁puiss	-11906
versities	-11907
▁énergétiques	-11908
▁cibles	-11909
ery	-11910
▁fine	-11911
▁hospitals	-11912
▁préservation	-11913
▁naissances	-11914
▁délivré	-11915
▁validity	-11916
▁bolivie	-11917
▁vols	-11918
▁config	-11919
▁rating	-11920
▁coordonnateurs	-11921
▁associer	-11922
▁juridiquement	-11923
▁perd	-11924
▁bénéfices	-11925
▁litig	-11926
▁ronde	-11927
▁commended	-11928
▁evol	-11929
▁worth	-11930
▁milieux	-11931
▁things	-11932
▁partial	-11933
▁dens	-11934
▁nett	-11935
▁entraîne	-11936
▁amn	-11937
▁curriculum	-11938
▁universities	-11939
▁mrs	-11940
▁jama	-11941
▁dress	-11942
▁mauriti	-11943
▁facilité	-11944
▁gn	-11945
▁résulte	-11946
▁judgment	-11947
ection	-11948
▁fiscale	-11949
▁routière	-11950
▁veterinary	-11951
▁tested	-11952
▁exacer	-11953
▁orale	-11954
▁objections	-11955
▁fluctu	-11956
place	-11957
▁suis	-11958
▁fdi	-11959
▁defend	-11960
▁awarded	-11961
▁attendre	-11962
▁driver	-11963
▁bateaux	-11964
▁haine	-11965
▁magn	-11966
▁block	-11967
▁accomplir	-11968
▁majeur	-11969
▁ventilées	-11970
▁capture	-11971
▁marqu	-11972
▁asean	-11973
▁requête	-11974
▁secondaires	-11975
▁inex	-11976
riger	-11977
▁externes	-11978
▁additionnel	-11979
▁affectées	-11980
▁hr	-11981
▁performances	-11982
▁eco	-11983
▁prohibit	-11984
▁foreigners	-11985
▁definitive	-11986
▁condamnation	-11987
▁detection	-11988
▁citoyenneté	-11989
▁revêt	-11990
▁monterre	-11991
▁médicale	-11992
▁monterrey	-11993
▁deeply	-11994
hics	-11995
▁pool	-11996
▁combien	-11997
▁inventaire	-11998
▁permettront	-11999
▁papier	-12000
▁tadjikistan	-12001
▁soutenu	-12002
▁closer	-12003
▁ajustements	-12004
▁audience	-12005
▁congrat	-12006
▁rendue	-12007
▁financées	-12008
▁Haut	-12009
▁variables	-12010
▁interdépend	-12011
▁feuille	-12012
▁légitimes	-12013
▁répondent	-12014
▁pir	-12015
pol	-12016
▁chance	-12017
▁décrites	-12018
▁regrette	-12019
▁explicitly	-12020
▁antiter	-12021
▁mediation	-12022
▁doubt	-12023
▁cooperating	-12024
rages	-12025
▁ask	-12026
▁pesc	-12027
▁incons	-12028
▁apparaît	-12029
▁issuance	-12030
▁consistency	-12031
▁décharge	-12032
ulate	-12033
▁nécessairement	-12034
▁exploitant	-12035
▁délégué	-12036
▁attempts	-12037
▁électriques	-12038
▁consultant	-12039
▁certes	-12040
▁jeudi	-12041
▁protégées	-12042
▁defer	-12043
▁exploiter	-12044
▁amnesty	-12045
▁intégrale	-12046
lay	-12047
▁impartial	-12048
▁probable	-12049
▁constante	-12050
▁eme	-12051
▁adver	-12052
nam	-12053
ovation	-12054
▁décideurs	-12055
▁exigent	-12056
▁ji	-12057
▁proved	-12058
▁minimale	-12059
▁directrice	-12060
▁ouzbé	-12061
▁électoral	-12062
▁coutum	-12063
▁exchanges	-12064
▁malaria	-12065
▁attirer	-12066
▁chercher	-12067
▁similaire	-12068
▁livre	-12069
▁complementary	-12070
lows	-12071
▁ouzbékistan	-12072
▁dépasser	-12073
▁filed	-12074
▁précède	-12075
alised	-12076
▁coopéra	-12077
water	-12078
▁vidé	-12079
▁resolved	-12080
▁associées	-12081
▁medicinal	-12082
ulés	-12083
▁axé	-12084
▁organiques	-12085
▁ME	-12086
▁doter	-12087
▁therein	-12088
▁nettoy	-12089
fact	-12090
▁approve	-12091
osen	-12092
▁cfsp	-12093
▁fraude	-12094
▁generate	-12095
▁livraison	-12096
▁indiqués	-12097
▁coex	-12098
▁thurs	-12099
▁utilisent	-12100
▁dus	-12101
▁corrections	-12102
▁reprendre	-12103
▁accountable	-12104
Commiss	-12105
▁autonomous	-12106
▁black	-12107
▁acide	-12108
▁rétablir	-12109
▁arrêtés	-12110
▁épar	-12111
▁aériens	-12112
▁délinquants	-12113
▁HautCommiss	-12114
▁sir	-12115
▁enshrined	-12116
▁strip	-12117
▁négatives	-12118
▁affirmative	-12119
▁adher	-12120
▁shar	-12121
▁exter	-12122
▁dynamic	-12123
▁anticipated	-12124
▁cessez	-12125
▁paul	-12126
▁card	-12127
▁efforce	-12128
▁publicly	-12129
▁barème	-12130
▁réuss	-12131
▁thursday	-12132
▁reconnues	-12133
leges	-12134
▁governed	-12135
▁composants	-12136
▁inside	-12137
ifié	-12138
▁compromis	-12139
▁scén	-12140
▁calling	-12141
▁dénommé	-12142
▁aquaculture	-12143
▁légale	-12144
viennent	-12145
▁moving	-12146
▁expanding	-12147
▁inquiétude	-12148
▁ammun	-12149
▁disseminate	-12150
arios	-12151
aneous	-12152
▁maldives	-12153
▁refuser	-12154
onné	-12155
▁monaco	-12156
▁separately	-12157
▁attor	-12158
ico	-12159
▁integra	-12160
▁profits	-12161
▁carn	-12162
onnel	-12163
▁measuring	-12164
▁substitu	-12165
▁nap	-12166
▁détour	-12167
▁autorisations	-12168
▁consulted	-12169
▁harmonized	-12170
▁gens	-12171
▁associé	-12172
▁organise	-12173
▁exercices	-12174
▁irres	-12175
▁continental	-12176
▁commodi	-12177
▁chad	-12178
▁fondant	-12179
space	-12180
▁concevoir	-12181
▁bâ	-12182
▁inciter	-12183
▁apart	-12184
▁respectent	-12185
▁simultan	-12186
▁disaggregated	-12187
▁réductions	-12188
▁écologiques	-12189
col	-12190
▁slight	-12191
▁assumed	-12192
▁seems	-12193
▁troup	-12194
vency	-12195
▁comportements	-12196
▁qa	-12197
▁immédiate	-12198
▁supplé	-12199
▁thanks	-12200
▁upgrad	-12201
▁necessity	-12202
▁conseillers	-12203
▁passation	-12204
▁initialement	-12205
▁extrabudgé	-12206
▁tiens	-12207
▁antipers	-12208
▁inserted	-12209
▁ki	-12210
▁antiterror	-12211
▁/@@	-12212
▁pertinente	-12213
▁monnaie	-12214
▁pam	-12215
▁ruling	-12216
▁demographic	-12217
▁simplification	-12218
▁salue	-12219
▁accueill	-12220
▁commodities	-12221
▁favorisant	-12222
▁communicate	-12223
▁forcées	-12224
▁forcé	-12225
▁massac	-12226
▁exon	-12227
▁td	-12228
lage	-12229
▁récents	-12230
▁ifrs	-12231
▁mail	-12232
▁détails	-12233
▁neutr	-12234
▁antipersonnel	-12235
▁idb	-12236
▁congol	-12237
▁espérons	-12238
ws	-12239
▁gibral	-12240
▁restra	-12241
▁illégales	-12242
▁créan	-12243
▁authen	-12244
▁submissions	-12245
▁correspondent	-12246
▁laboratoire	-12247
tus	-12248
▁healthy	-12249
▁bourses	-12250
▁vendredi	-12251
▁compagnies	-12252
▁fasse	-12253
▁airspace	-12254
▁mauritius	-12255
▁désigner	-12256
fiées	-12257
▁occurrence	-12258
▁disparitions	-12259
▁faim	-12260
▁authentic	-12261
▁objects	-12262
▁salariés	-12263
▁faib	-12264
▁andor	-12265
▁soi	-12266
▁énumérées	-12267
▁ped	-12268
▁française	-12269
▁clandes	-12270
▁seg	-12271
▁doctr	-12272
tah	-12273
▁traum	-12274
▁ethics	-12275
▁seats	-12276
▁responded	-12277
▁deprivation	-12278
▁licens	-12279
▁escap	-12280
▁sauvegarde	-12281
▁coordonnée	-12282
▁accurate	-12283
États	-12284
▁aborig	-12285
▁friday	-12286
▁ecosystems	-12287
▁lodged	-12288
dium	-12289
▁combustible	-12290
▁arsen	-12291
▁fermet	-12292
▁maurice	-12293
▁cypri	-12294
▁irrespective	-12295
▁servants	-12296
mas	-12297
▁guiding	-12298
tages	-12299
▁analogues	-12300
▁reflé	-12301
▁pourtant	-12302
▁confidential	-12303
▁dram	-12304
édé	-12305
▁themes	-12306
▁situées	-12307
▁cu	-12308
▁atomic	-12309
▁defining	-12310
▁doté	-12311
▁spent	-12312
▁conjug	-12313
khaz	-12314
▁sheet	-12315
anium	-12316
Unis	-12317
▁stead	-12318
▁vary	-12319
ders	-12320
▁pregnant	-12321
issements	-12322
▁accueillir	-12323
▁golan	-12324
▁league	-12325
▁industrielle	-12326
▁heat	-12327
▁abkhaz	-12328
▁probablement	-12329
▁feux	-12330
argement	-12331
▁invasion	-12332
▁chosen	-12333
▁regrets	-12334
▁élaborés	-12335
▁john	-12336
▁hydrocarb	-12337
▁commande	-12338
▁applicants	-12339
tiquement	-12340
ouses	-12341
yth	-12342
▁aboutir	-12343
cdh	-12344
▁insécurité	-12345
jord	-12346
▁douanes	-12347
▁poissons	-12348
▁renforçant	-12349
▁significative	-12350
▁analogue	-12351
▁envisagées	-12352
▁methodologies	-12353
▁involves	-12354
▁wil	-12355
▁États	-12356
▁istan	-12357
▁centrafricaine	-12358
▁postp	-12359
▁ÉtatsUnis	-12360
▁comes	-12361
▁prosper	-12362
▁satisfactory	-12363
▁addresses	-12364
▁unie	-12365
▁concré	-12366
▁yémen	-12367
▁chapitres	-12368
▁fonctionner	-12369
▁elder	-12370
▁taxe	-12371
▁greatest	-12372
▁fiscales	-12373
▁pregnancy	-12374
▁convictions	-12375
▁istanbul	-12376
▁intervenants	-12377
▁win	-12378
▁actives	-12379
dh	-12380
▁escal	-12381
▁resc	-12382
▁fassent	-12383
▁avancées	-12384
lie	-12385
▁exportateur	-12386
ètent	-12387
▁survie	-12388
▁jamaï	-12389
▁sponsored	-12390
▁endeavour	-12391
▁macroéconom	-12392
▁implant	-12393
▁swiss	-12394
▁antérieures	-12395
▁hus	-12396
▁drafted	-12397
▁grade	-12398
▁choose	-12399
ino	-12400
▁refused	-12401
▁avancer	-12402
▁samoa	-12403
▁exemptions	-12404
▁driven	-12405
▁retain	-12406
▁attaque	-12407
▁consacrer	-12408
▁mel	-12409
éen	-12410
▁satellites	-12411
▁imprim	-12412
▁tobago	-12413
▁écrites	-12414
▁advertis	-12415
▁trouvant	-12416
▁kur	-12417
▁ending	-12418
▁maternity	-12419
trical	-12420
partite	-12421
▁existait	-12422
▁undersc	-12423
▁interference	-12424
hips	-12425
▁réprim	-12426
▁uniforme	-12427
late	-12428
▁contents	-12429
▁avions	-12430
▁additif	-12431
▁cart	-12432
▁sovi	-12433
▁presents	-12434
▁hunger	-12435
▁accusation	-12436
locked	-12437
▁guère	-12438
▁enceintes	-12439
▁interorgan	-12440
▁referendum	-12441
▁chimique	-12442
▁demandés	-12443
irable	-12444
▁ammunition	-12445
▁agro	-12446
▁qualifiés	-12447
▁termination	-12448
▁saoud	-12449
bid	-12450
▁réclamations	-12451
▁vieillissement	-12452
▁exercent	-12453
▁protégés	-12454
▁samples	-12455
▁déclarée	-12456
cessions	-12457
▁procureurs	-12458
▁exécutive	-12459
▁transmettant	-12460
▁manip	-12461
▁adapt	-12462
▁assassin	-12463
▁interactive	-12464
▁warrant	-12465
▁bret	-12466
▁variable	-12467
eront	-12468
▁aliens	-12469
▁alinéas	-12470
▁numérique	-12471
gien	-12472
▁counterpar	-12473
ffer	-12474
▁thématique	-12475
▁adaptés	-12476
▁expect	-12477
▁déplacés	-12478
▁bc	-12479
▁arabie	-12480
▁sis	-12481
tionnel	-12482
▁impôt	-12483
▁reimbursement	-12484
▁engins	-12485
▁designation	-12486
alisme	-12487
▁distinguish	-12488
▁gases	-12489
▁respecte	-12490
▁israéliens	-12491
▁ligue	-12492
▁disparités	-12493
▁wrong	-12494
▁aériennes	-12495
▁proposes	-12496
▁restoration	-12497
▁voter	-12498
▁washington	-12499
▁saoudite	-12500
▁gibraltar	-12501
▁socioéconomique	-12502
▁thought	-12503
▁telephone	-12504
▁père	-12505
▁offset	-12506
▁parcours	-12507
▁johannesburg	-12508
▁rén	-12509
▁dérivés	-12510
▁correctement	-12511
▁interdisant	-12512
▁inhabitants	-12513
▁arabia	-12514
▁greatly	-12515
▁orally	-12516
▁strugg	-12517
▁prevented	-12518
▁adéquat	-12519
▁maximal	-12520
▁appartenance	-12521
▁preserve	-12522
▁ot	-12523
▁extending	-12524
▁capability	-12525
cive	-12526
ére	-12527
▁ramen	-12528
▁closing	-12529
▁wording	-12530
▁injured	-12531
▁programs	-12532
▁incombent	-12533
▁pressions	-12534
▁radiation	-12535
▁affecter	-12536
▁save	-12537
omé	-12538
▁strictly	-12539
▁disparition	-12540
▁israélienne	-12541
▁operative	-12542
▁aptitude	-12543
▁obtenues	-12544
▁usa	-12545
▁quartier	-12546
▁négatifs	-12547
▁fragment	-12548
▁allait	-12549
▁norweg	-12550
▁reinforce	-12551
▁preserv	-12552
▁certified	-12553
▁stig	-12554
▁tank	-12555
▁blanc	-12556
▁inequality	-12557
▁cataly	-12558
▁alphabé	-12559
▁expériment	-12560
▁bad	-12561
▁arrière	-12562
acuation	-12563
▁suspect	-12564
▁hcdh	-12565
▁initiation	-12566
▁souhaitable	-12567
▁trials	-12568
▁emep	-12569
▁completely	-12570
▁caric	-12571
▁drop	-12572
▁britannique	-12573
▁comptable	-12574
▁sécheresse	-12575
▁utilise	-12576
▁reconnue	-12577
▁chev	-12578
▁remis	-12579
▁complexité	-12580
rf	-12581
▁convaincu	-12582
▁adaptées	-12583
▁advances	-12584
▁qualitative	-12585
▁publicité	-12586
▁profi	-12587
▁supérieurs	-12588
▁fccc	-12589
dro	-12590
▁calibre	-12591
▁propagation	-12592
▁sérieux	-12593
▁spatial	-12594
▁disappearance	-12595
▁bénéficiant	-12596
osis	-12597
▁secured	-12598
▁libres	-12599
▁norwegian	-12600
▁précision	-12601
▁furn	-12602
▁woods	-12603
gue	-12604
▁sécur	-12605
▁mémo	-12606
▁ru	-12607
fol	-12608
▁icc	-12609
▁océans	-12610
èques	-12611
▁underlined	-12612
▁émerg	-12613
▁stockp	-12614
▁assister	-12615
▁pilotes	-12616
▁épuis	-12617
▁oriental	-12618
▁nettement	-12619
▁élevage	-12620
▁échanger	-12621
ologiquement	-12622
▁hyb	-12623
▁tai	-12624
▁gouver	-12625
▁targeting	-12626
▁renseignement	-12627
▁integrating	-12628
▁démographique	-12629
▁center	-12630
▁dérogations	-12631
▁drought	-12632
▁vertical	-12633
▁compromise	-12634
▁enrolment	-12635
▁bsci	-12636
▁appeared	-12637
▁difficulty	-12638
▁officiers	-12639
▁customers	-12640
▁exigence	-12641
▁comporter	-12642
▁afférentes	-12643
zen	-12644
érarch	-12645
▁baiss	-12646
▁comptabil	-12647
▁hiérarch	-12648
êtes	-12649
▁pse	-12650
▁affecté	-12651
▁châti	-12652
▁permanence	-12653
ield	-12654
▁borne	-12655
▁délégués	-12656
▁tarifaires	-12657
▁blessés	-12658
▁élevées	-12659
domin	-12660
▁gouverne	-12661
▁necessarily	-12662
▁fib	-12663
▁individuelles	-12664
▁incer	-12665
▁couleur	-12666
alling	-12667
▁composés	-12668
ilience	-12669
dites	-12670
▁trou	-12671
▁américains	-12672
▁landlocked	-12673
▁shelter	-12674
▁administrator	-12675
▁easily	-12676
▁mobiles	-12677
berg	-12678
▁tackle	-12679
▁updating	-12680
kok	-12681
uent	-12682
▁pare	-12683
▁exécutions	-12684
▁bru	-12685
▁susmentionnées	-12686
gen	-12687
▁moindre	-12688
▁mentionner	-12689
▁cic	-12690
▁indicative	-12691
▁véritablement	-12692
otho	-12693
▁strictement	-12694
▁rou	-12695
▁néfastes	-12696
▁vent	-12697
▁bott	-12698
▁oman	-12699
isibles	-12700
▁assistants	-12701
▁interpol	-12702
▁signalés	-12703
▁affron	-12704
▁publiées	-12705
▁déroulement	-12706
iteur	-12707
▁photograph	-12708
▁fiftieth	-12709
▁exploitations	-12710
▁médecins	-12711
▁hin	-12712
rances	-12713
▁suffer	-12714
▁argued	-12715
▁pourv	-12716
▁uranium	-12717
▁refusal	-12718
▁profile	-12719
▁expressing	-12720
▁eca	-12721
▁showing	-12722
chang	-12723
getary	-12724
▁ahead	-12725
▁esclav	-12726
▁eliminating	-12727
▁respectives	-12728
▁elev	-12729
▁préalables	-12730
oce	-12731
▁alignés	-12732
▁emphasizes	-12733
▁détérioration	-12734
▁extrabudgetary	-12735
▁longueur	-12736
▁porc	-12737
▁addis	-12738
▁achever	-12739
▁systematically	-12740
▁respectées	-12741
▁hour	-12742
▁ignor	-12743
▁lawyer	-12744
▁étend	-12745
isi	-12746
▁exempt	-12747
▁énergies	-12748
▁eradicate	-12749
zo	-12750
▁condem	-12751
▁drinking	-12752
▁ram	-12753
▁accusés	-12754
▁exprimée	-12755
ão	-12756
▁assimil	-12757
▁redoubler	-12758
gs	-12759
▁insp	-12760
▁blue	-12761
▁serbes	-12762
▁pavillon	-12763
▁conducive	-12764
▁adn	-12765
rables	-12766
▁constituant	-12767
▁remettre	-12768
▁jamaica	-12769
▁complété	-12770
▁urgency	-12771
▁apar	-12772
▁gained	-12773
▁brig	-12774
▁bretton	-12775
▁obvious	-12776
▁atteints	-12777
▁protest	-12778
▁indiquée	-12779
▁usd	-12780
▁compagnie	-12781
▁stere	-12782
▁colour	-12783
▁offering	-12784
▁tried	-12785
▁elderly	-12786
▁compatibilité	-12787
▁lé	-12788
▁assurent	-12789
▁sure	-12790
▁spécialisée	-12791
▁initially	-12792
▁séparément	-12793
▁reloc	-12794
▁signs	-12795
▁offrant	-12796
▁fusion	-12797
▁légalité	-12798
▁demandant	-12799
▁employeur	-12800
▁lesotho	-12801
vity	-12802
▁cisjord	-12803
itons	-12804
▁unitar	-12805
▁calculé	-12806
▁incapacité	-12807
nées	-12808
▁reporter	-12809
▁provider	-12810
▁attachement	-12811
▁zambia	-12812
▁accumul	-12813
▁servicing	-12814
▁imf	-12815
▁mostly	-12816
after	-12817
▁servant	-12818
▁informés	-12819
▁feel	-12820
▁concessions	-12821
▁exposed	-12822
▁aud	-12823
▁governor	-12824
▁souhaiterait	-12825
▁préventive	-12826
eli	-12827
▁colonies	-12828
ciproc	-12829
▁rendent	-12830
▁inapp	-12831
▁insiste	-12832
bonne	-12833
▁positives	-12834
▁intensité	-12835
▁kab	-12836
▁merely	-12837
▁privacy	-12838
▁metal	-12839
▁soupç	-12840
ras	-12841
▁tchad	-12842
▁big	-12843
▁appeler	-12844
▁kill	-12845
▁préoccupée	-12846
▁think	-12847
▁mutually	-12848
▁conve	-12849
▁baham	-12850
▁assisté	-12851
ake	-12852
▁hélic	-12853
▁cach	-12854
▁continuité	-12855
▁partiellement	-12856
▁copie	-12857
▁convening	-12858
▁negotiated	-12859
▁cisjordanie	-12860
▁dissu	-12861
▁inquiète	-12862
▁diverse	-12863
cteurs	-12864
▁combler	-12865
▁gon	-12866
ctement	-12867
▁oda	-12868
▁infections	-12869
▁freight	-12870
▁onzième	-12871
▁innovations	-12872
▁grsp	-12873
▁combustibles	-12874
▁employé	-12875
▁inculp	-12876
▁révisées	-12877
▁ledit	-12878
▁running	-12879
agen	-12880
▁preamb	-12881
▁councils	-12882
▁artific	-12883
▁transmises	-12884
ost	-12885
▁cinquantième	-12886
▁ammon	-12887
▁rési	-12888
▁radioac	-12889
▁occupe	-12890
▁bancaires	-12891
▁bénin	-12892
mans	-12893
▁ensures	-12894
▁fermeture	-12895
▁formulaire	-12896
▁balk	-12897
▁profondes	-12898
▁desquelles	-12899
▁obligatoires	-12900
▁laisser	-12901
▁conducteur	-12902
cha	-12903
▁fee	-12904
antif	-12905
▁participatory	-12906
▁déont	-12907
▁sévices	-12908
tissement	-12909
oirs	-12910
▁earn	-12911
▁enact	-12912
▁consistently	-12913
▁slavery	-12914
ompass	-12915
▁kilomètres	-12916
▁insisté	-12917
▁souffrances	-12918
▁deuxièmement	-12919
▁greff	-12920
▁réform	-12921
léch	-12922
▁expectations	-12923
▁remercier	-12924
▁inm	-12925
▁grsg	-12926
▁regimes	-12927
▁rot	-12928
▁manuels	-12929
▁withdrawn	-12930
▁benin	-12931
▁bangkok	-12932
▁esclavage	-12933
▁examinera	-12934
▁attest	-12935
▁divulg	-12936
▁survival	-12937
▁municipality	-12938
lining	-12939
▁encompass	-12940
▁vacancy	-12941
▁conscient	-12942
▁représentés	-12943
▁reins	-12944
▁caricom	-12945
▁martin	-12946
▁jun	-12947
entielles	-12948
▁friends	-12949
▁partant	-12950
opt	-12951
▁atten	-12952
▁nothing	-12953
▁éti	-12954
▁cond	-12955
▁nets	-12956
▁suggestion	-12957
▁performing	-12958
feu	-12959
ows	-12960
▁subsidiaire	-12961
▁milliard	-12962
▁générations	-12963
▁lisbon	-12964
▁officially	-12965
ros	-12966
enic	-12967
▁radioactive	-12968
▁liberalization	-12969
▁stéré	-12970
▁observance	-12971
▁externe	-12972
▁ini	-12973
▁poser	-12974
▁individuelle	-12975
▁prst	-12976
oting	-12977
▁accomplissement	-12978
▁magistrats	-12979
▁learn	-12980
▁sexiste	-12981
▁retail	-12982
▁intent	-12983
ulsion	-12984
▁vert	-12985
▁confidentiality	-12986
▁meets	-12987
▁vege	-12988
mbres	-12989
▁outline	-12990
▁delegates	-12991
▁meaningful	-12992
▁satisfied	-12993
▁minorité	-12994
▁departure	-12995
▁lisbonne	-12996
▁danish	-12997
▁références	-12998
▁adéquates	-12999
▁ka	-13000
▁whenever	-13001
▁criter	-13002
▁reçus	-13003
▁transmissibles	-13004
▁concert	-13005
▁interde	-13006
▁libanais	-13007
▁advant	-13008
▁europol	-13009
▁policymak	-13010
▁annexed	-13011
▁considerably	-13012
att	-13013
▁absorb	-13014
▁mongolia	-13015
▁fostering	-13016
▁accessibility	-13017
▁exhaustive	-13018
iencies	-13019
▁partiel	-13020
arms	-13021
▁construire	-13022
▁horizon	-13023
▁significance	-13024
▁varie	-13025
▁légales	-13026
fying	-13027
▁bénéficie	-13028
▁constructeur	-13029
▁looking	-13030
▁minustah	-13031
onner	-13032
▁négative	-13033
▁oly	-13034
▁soudanais	-13035
▁tanks	-13036
▁repair	-13037
▁trus	-13038
▁dominic	-13039
anes	-13040
▁mixed	-13041
▁hect	-13042
▁potentially	-13043
rez	-13044
▁dist	-13045
▁emphasize	-13046
▁partout	-13047
▁smugg	-13048
▁taiwan	-13049
▁lev	-13050
▁schém	-13051
▁salaries	-13052
▁protective	-13053
▁agissait	-13054
▁préparatoires	-13055
▁generating	-13056
▁pratiquement	-13057
▁linguistiques	-13058
mir	-13059
contin	-13060
ordi	-13061
▁ultérieure	-13062
▁corporation	-13063
▁duplication	-13064
▁urbaine	-13065
▁partly	-13066
▁olymp	-13067
▁consommateur	-13068
▁pornographie	-13069
▁expuls	-13070
▁semblent	-13071
▁trimestre	-13072
▁grossesse	-13073
▁organised	-13074
▁versions	-13075
oxy	-13076
▁becomes	-13077
▁notable	-13078
▁corporations	-13079
▁meant	-13080
icop	-13081
▁ouvertes	-13082
▁elsewhere	-13083
▁transférer	-13084
▁sto	-13085
▁concurr	-13086
▁attorney	-13087
▁yield	-13088
uvernementaux	-13089
▁undermine	-13090
back	-13091
▁accompagnés	-13092
cul	-13093
▁existed	-13094
bt	-13095
▁makers	-13096
▁imb	-13097
▁évoqué	-13098
▁quitter	-13099
▁médicales	-13100
▁geographic	-13101
▁criterion	-13102
▁supérieures	-13103
▁punishable	-13104
▁exploitants	-13105
▁instabilité	-13106
theid	-13107
▁ventilation	-13108
▁arrive	-13109
aiting	-13110
éenne	-13111
▁threatened	-13112
▁exécutés	-13113
▁ccpr	-13114
▁differenti	-13115
▁ay	-13116
▁fuels	-13117
▁sensible	-13118
▁souplesse	-13119
▁apartheid	-13120
▁confirmer	-13121
▁atomique	-13122
▁cessé	-13123
▁precise	-13124
▁bic	-13125
vo	-13126
▁formulate	-13127
can	-13128
▁féliciter	-13129
▁guaranteeing	-13130
▁crops	-13131
▁destroyed	-13132
vian	-13133
▁promis	-13134
▁causés	-13135
akar	-13136
▁avion	-13137
▁perception	-13138
▁acquire	-13139
▁quantif	-13140
▁causing	-13141
▁alphabétisation	-13142
▁cea	-13143
▁channels	-13144
▁enabled	-13145
▁adoptant	-13146
▁partager	-13147
▁prévision	-13148
▁»	-13149
▁demandent	-13150
▁suffisants	-13151
▁prioritiz	-13152
▁amisom	-13153
▁proches	-13154
▁electrical	-13155
▁advantages	-13156
inting	-13157
▁réviser	-13158
▁reflète	-13159
oured	-13160
▁absorp	-13161
▁mobilize	-13162
▁remplies	-13163
▁unu	-13164
▁wine	-13165
▁erreur	-13166
▁variation	-13167
▁unfortunately	-13168
▁father	-13169
▁revenues	-13170
▁terroriste	-13171
▁hélicopt	-13172
▁attendu	-13173
▁déposé	-13174
▁wal	-13175
▁chaired	-13176
▁confidentialité	-13177
▁choisi	-13178
▁choses	-13179
▁élargi	-13180
▁prevalence	-13181
▁représenter	-13182
▁dispat	-13183
▁adapted	-13184
▁pig	-13185
▁preservation	-13186
▁diplomatiques	-13187
▁prélèvement	-13188
▁balances	-13189
▁maisons	-13190
▁portfol	-13191
▁compatibles	-13192
▁déclarés	-13193
▁bac	-13194
▁truth	-13195
▁épid	-13196
▁stronger	-13197
▁fiss	-13198
▁croy	-13199
aran	-13200
▁importateurs	-13201
▁concerted	-13202
▁merg	-13203
▁graph	-13204
▁palud	-13205
▁describ	-13206
▁enhancement	-13207
lisation	-13208
▁domestiques	-13209
▁douze	-13210
▁multis	-13211
▁représenté	-13212
▁cuban	-13213
▁communicated	-13214
▁investir	-13215
▁incom	-13216
▁accelerate	-13217
▁turkmen	-13218
uba	-13219
▁édition	-13220
▁images	-13221
▁réinstallation	-13222
▁htm	-13223
▁expiry	-13224
fire	-13225
▁fmi	-13226
▁exported	-13227
▁watch	-13228
quemment	-13229
▁suppose	-13230
▁excellent	-13231
▁XX	-13232
▁repealed	-13233
▁shift	-13234
▁rare	-13235
▁wages	-13236
▁paludisme	-13237
▁investigated	-13238
▁dépôts	-13239
▁repar	-13240
▁horizontal	-13241
▁disturb	-13242
tisme	-13243
▁approfondi	-13244
▁polon	-13245
▁mélange	-13246
▁presentations	-13247
▁décennies	-13248
▁shor	-13249
▁nécessite	-13250
▁manufacturers	-13251
▁tangible	-13252
▁sélec	-13253
▁divided	-13254
liques	-13255
▁benchmar	-13256
▁curricula	-13257
▁exhorte	-13258
▁succeed	-13259
▁opérateur	-13260
▁discretion	-13261
▁achemin	-13262
▁insertion	-13263
arities	-13264
ennal	-13265
▁proceeding	-13266
▁reçoit	-13267
▁kyrgyzstan	-13268
▁choc	-13269
las	-13270
▁mol	-13271
orial	-13272
▁spending	-13273
▁hôpital	-13274
▁paying	-13275
▁examining	-13276
▁défaill	-13277
▁viandes	-13278
▁contex	-13279
▁entretiens	-13280
bal	-13281
▁leader	-13282
uill	-13283
▁procur	-13284
▁smaller	-13285
▁essay	-13286
▁video	-13287
▁criminels	-13288
▁industrielles	-13289
▁submitting	-13290
▁corporels	-13291
après	-13292
▁employee	-13293
onnée	-13294
▁turkm	-13295
▁career	-13296
▁ciaprès	-13297
▁surpl	-13298
▁ecosystem	-13299
▁réaffirmant	-13300
▁identifiés	-13301
▁livres	-13302
▁indépendantes	-13303
▁invi	-13304
▁jouissent	-13305
▁terrorists	-13306
▁enregistrée	-13307
IR	-13308
▁ancienne	-13309
▁benefited	-13310
▁logistical	-13311
▁éloign	-13312
▁énoncé	-13313
▁créances	-13314
just	-13315
▁abrog	-13316
▁payable	-13317
▁willingness	-13318
▁financements	-13319
sb	-13320
▁sauv	-13321
▁dies	-13322
▁axées	-13323
▁américain	-13324
▁breakdown	-13325
▁juger	-13326
▁tonne	-13327
▁accou	-13328
▁shipping	-13329
fie	-13330
▁transitoire	-13331
▁satisfy	-13332
▁petro	-13333
▁credibility	-13334
▁+@@	-13335
▁resistance	-13336
▁couvrant	-13337
▁college	-13338
▁intermédiaires	-13339
▁cells	-13340
▁quickly	-13341
▁@@`@@	-13342
▁biotechn	-13343
▁machine	-13344
▁dommage	-13345
▁causé	-13346
▁pollutants	-13347
▁pm	-13348
▁zambie	-13349
▁tutelle	-13350
▁océan	-13351
▁retained	-13352
▁likewise	-13353
▁vat	-13354
▁rencontre	-13355
▁permanentes	-13356
▁exécuté	-13357
▁chairm	-13358
▁bahamas	-13359
▁prête	-13360
▁apatri	-13361
acco	-13362
ifier	-13363
▁citernes	-13364
▁ryth	-13365
▁libya	-13366
▁renewal	-13367
▁habitant	-13368
▁immunity	-13369
▁root	-13370
▁axés	-13371
▁itin	-13372
▁resett	-13373
▁narcotic	-13374
▁emergencies	-13375
▁jouissance	-13376
▁posées	-13377
▁modernes	-13378
▁coton	-13379
▁«	-13380
▁scène	-13381
▁accounted	-13382
orted	-13383
▁specialists	-13384
▁amende	-13385
▁cellules	-13386
▁désigne	-13387
▁tobacco	-13388
▁recueillies	-13389
dad	-13390
▁voudrait	-13391
▁propriétaires	-13392
▁mémoire	-13393
▁alt	-13394
▁sized	-13395
▁firearms	-13396
irment	-13397
▁swaz	-13398
▁encountered	-13399
▁stabilization	-13400
▁antig	-13401
▁vérité	-13402
▁couvert	-13403
▁poul	-13404
▁carrier	-13405
▁immunité	-13406
▁evolution	-13407
▁référendum	-13408
atal	-13409
▁qualifié	-13410
▁envisagée	-13411
▁restore	-13412
▁premium	-13413
▁libyenne	-13414
▁var	-13415
▁lays	-13416
▁premièrement	-13417
▁compatibility	-13418
▁kirghiz	-13419
▁enacted	-13420
èses	-13421
▁zero	-13422
▁decolon	-13423
cu	-13424
▁primordi	-13425
▁broadcasting	-13426
▁cathol	-13427
▁preparedness	-13428
chlor	-13429
▁rotation	-13430
▁devenue	-13431
▁presidents	-13432
▁conjointes	-13433
▁remarks	-13434
onique	-13435
▁écologiquement	-13436
▁xiii	-13437
▁couche	-13438
▁croix	-13439
▁perh	-13440
▁lancée	-13441
▁catch	-13442
▁fréquemment	-13443
▁étiquet	-13444
▁cid	-13445
▁diligence	-13446
▁tranche	-13447
▁jeune	-13448
▁wealth	-13449
▁cac	-13450
arition	-13451
▁stateless	-13452
▁questionnaires	-13453
▁surround	-13454
▁alumin	-13455
▁coopéré	-13456
▁cci	-13457
▁spécialiste	-13458
▁tiré	-13459
aution	-13460
▁fibres	-13461
▁kilomet	-13462
▁administered	-13463
hoods	-13464
▁roads	-13465
▁dominican	-13466
▁légitim	-13467
▁constatations	-13468
▁rising	-13469
▁MEPs	-13470
▁nuit	-13471
▁ble	-13472
▁charbon	-13473
▁rejeté	-13474
▁perhaps	-13475
▁cb	-13476
▁advers	-13477
mann	-13478
zy	-13479
▁rentabilité	-13480
▁réfléch	-13481
▁composée	-13482
▁recruited	-13483
▁admitted	-13484
▁modifiés	-13485
▁depends	-13486
▁aéronefs	-13487
▁containers	-13488
▁justify	-13489
▁orb	-13490
▁display	-13491
▁démontré	-13492
▁prove	-13493
▁grrf	-13494
▁quite	-13495
▁usagers	-13496
olé	-13497
▁ant	-13498
▁wors	-13499
▁occupying	-13500
▁portugues	-13501
▁irrégul	-13502
▁properties	-13503
▁inadmis	-13504
▁qaida	-13505
▁propice	-13506
▁perdu	-13507
▁nominal	-13508
▁commander	-13509
▁vaccin	-13510
▁library	-13511
▁microfin	-13512
▁réellement	-13513
▁trouvé	-13514
▁workplace	-13515
▁durabilité	-13516
▁prorogation	-13517
lete	-13518
endront	-13519
▁formally	-13520
▁jamaïque	-13521
▁essence	-13522
▁mè	-13523
▁suggests	-13524
▁remor	-13525
▁commandant	-13526
▁continuity	-13527
▁volet	-13528
▁excess	-13529
nellement	-13530
▁contrepartie	-13531
▁decent	-13532
orti	-13533
▁sulph	-13534
▁survenus	-13535
▁rôles	-13536
▁distribué	-13537
région	-13538
▁multic	-13539
▁cf	-13540
▁sar	-13541
▁unmi	-13542
▁énor	-13543
Is	-13544
▁chose	-13545
▁guided	-13546
▁helicop	-13547
▁indirectly	-13548
▁consolidate	-13549
▁encouragement	-13550
▁distribuer	-13551
▁révélé	-13552
▁focuses	-13553
▁virtu	-13554
▁estiment	-13555
urring	-13556
▁implication	-13557
▁annulation	-13558
▁hague	-13559
kind	-13560
▁multilatérale	-13561
▁bancaire	-13562
▁individuel	-13563
▁envoi	-13564
▁xv	-13565
▁domestique	-13566
alistic	-13567
▁deterioration	-13568
▁cold	-13569
▁décolon	-13570
▁timetable	-13571
reb	-13572
iconque	-13573
▁inscri	-13574
▁cmp	-13575
▁exercised	-13576
▁deposit	-13577
▁possibly	-13578
rac	-13579
udes	-13580
▁exhib	-13581
luor	-13582
▁attacher	-13583
▁quiconque	-13584
▁namibia	-13585
cia	-13586
▁psychotro	-13587
▁constituait	-13588
▁tong	-13589
▁petition	-13590
▁bonn	-13591
▁mutuellement	-13592
▁complexity	-13593
onction	-13594
▁recenser	-13595
▁inspecteurs	-13596
▁syrie	-13597
▁alloués	-13598
▁descrip	-13599
▁pertinence	-13600
▁ordinance	-13601
▁marquage	-13602
▁orateurs	-13603
▁abdul	-13604
▁prêter	-13605
▁récol	-13606
▁instituts	-13607
rating	-13608
▁parliaments	-13609
▁parc	-13610
▁pénur	-13611
▁emballages	-13612
▁endet	-13613
▁susmentionnés	-13614
▁créant	-13615
▁indent	-13616
▁houses	-13617
▁parlements	-13618
▁vast	-13619
▁hosted	-13620
▁orateur	-13621
▁intensify	-13622
▁rythme	-13623
▁coprésid	-13624
▁decolonization	-13625
▁investigating	-13626
▁débit	-13627
▁métaux	-13628
▁connaît	-13629
▁constituée	-13630
▁résidus	-13631
▁muslim	-13632
▁baseline	-13633
▁déclarer	-13634
isses	-13635
▁mountain	-13636
▁partially	-13637
ona	-13638
▁contraignant	-13639
▁conjoints	-13640
▁configuration	-13641
▁restitu	-13642
▁privatisation	-13643
▁indirectement	-13644
▁chale	-13645
▁éducatifs	-13646
▁empêche	-13647
▁autochtone	-13648
▁portuguese	-13649
▁flagr	-13650
▁deficit	-13651
▁reiterate	-13652
▁Mc	-13653
▁ajo	-13654
oned	-13655
▁orphel	-13656
▁tabac	-13657
▁nominations	-13658
œur	-13659
yo	-13660
▁constructif	-13661
▁enlèvement	-13662
▁préamb	-13663
▁structurels	-13664
▁worker	-13665
▁réac	-13666
▁encadrement	-13667
▁scolarisation	-13668
▁indu	-13669
▁peter	-13670
▁détent	-13671
▁regrettable	-13672
▁adhéré	-13673
▁suspens	-13674
▁viables	-13675
▁atlantic	-13676
▁carefully	-13677
▁automatic	-13678
▁reaffirming	-13679
▁expé	-13680
▁inherent	-13681
▁fonciers	-13682
▁securing	-13683
▁conséc	-13684
▁verte	-13685
ulant	-13686
améric	-13687
▁licenci	-13688
ums	-13689
▁comparables	-13690
▁secondly	-13691
▁inspector	-13692
▁yes	-13693
▁ecological	-13694
▁décolonisation	-13695
vin	-13696
▁nés	-13697
▁portées	-13698
▁privation	-13699
▁contes	-13700
▁refrain	-13701
aughter	-13702
▁retirement	-13703
▁ajoute	-13704
▁olive	-13705
▁moved	-13706
anship	-13707
▁mutilation	-13708
Ie	-13709
▁haye	-13710
▁belize	-13711
▁segments	-13712
▁attendance	-13713
▁headed	-13714
▁préj	-13715
▁sphere	-13716
▁directors	-13717
▁belgrade	-13718
▁compromet	-13719
▁economically	-13720
▁morts	-13721
▁effectue	-13722
▁imperative	-13723
▁quotes	-13724
▁ministériel	-13725
▁inclut	-13726
▁préambule	-13727
▁cefact	-13728
▁réduite	-13729
▁freinage	-13730
▁ari	-13731
▁emir	-13732
▁mah	-13733
utors	-13734
▁grass	-13735
▁putting	-13736
▁fill	-13737
ommage	-13738
▁prescription	-13739
plo	-13740
vis	-13741
▁fissiles	-13742
▁heb	-13743
▁vouloir	-13744
▁contenus	-13745
▁brom	-13746
▁possess	-13747
▁prolongation	-13748
▁satisfaisante	-13749
▁parler	-13750
▁crédibilité	-13751
▁harmonised	-13752
▁négocier	-13753
▁superficie	-13754
▁pourpar	-13755
▁prc	-13756
▁square	-13757
▁coexistence	-13758
triment	-13759
▁refusé	-13760
▁collo	-13761
▁births	-13762
▁informée	-13763
▁promptly	-13764
▁pourparlers	-13765
▁susciter	-13766
▁mongolie	-13767
▁killing	-13768
▁desire	-13769
▁chairs	-13770
▁manifeste	-13771
▁précoce	-13772
trum	-13773
▁approfond	-13774
▁dose	-13775
chées	-13776
▁medicines	-13777
▁recyclage	-13778
▁conclut	-13779
▁subsistence	-13780
▁undermin	-13781
▁commandement	-13782
▁poultry	-13783
▁étatiques	-13784
▁translated	-13785
▁concrète	-13786
▁cele	-13787
▁œuvrer	-13788
▁compromettre	-13789
▁déclarées	-13790
▁ordered	-13791
▁abri	-13792
▁bout	-13793
▁ltd	-13794
▁acier	-13795
ini	-13796
▁accessibilité	-13797
▁disproportion	-13798
▁interface	-13799
▁feasibility	-13800
▁dual	-13801
▁annonce	-13802
▁déséqu	-13803
▁patient	-13804
▁inutilis	-13805
oms	-13806
▁combatants	-13807
▁surina	-13808
▁églis	-13809
▁attributions	-13810
▁persistance	-13811
▁ak	-13812
▁sab	-13813
▁bâle	-13814
▁surc	-13815
▁manager	-13816
▁offertes	-13817
▁ash	-13818
▁accreditation	-13819
▁mit	-13820
▁militi	-13821
▁absolue	-13822
▁consulté	-13823
▁ultimately	-13824
iel	-13825
mped	-13826
▁différend	-13827
▁cei	-13828
▁corrid	-13829
▁irré	-13830
▁cnud	-13831
tization	-13832
▁prevailing	-13833
jou	-13834
▁événement	-13835
▁formé	-13836
▁logiciels	-13837
trale	-13838
▁proceeds	-13839
▁databases	-13840
▁revealed	-13841
iert	-13842
▁interre	-13843
omon	-13844
▁evaluated	-13845
▁cns	-13846
▁afore	-13847
▁fulfilling	-13848
▁subsidy	-13849
▁respecté	-13850
▁installed	-13851
▁uphold	-13852
▁explosives	-13853
▁renouvellement	-13854
▁troupes	-13855
▁hostilités	-13856
▁speech	-13857
▁planète	-13858
▁insecurity	-13859
▁contribuera	-13860
urso	-13861
▁rab	-13862
▁cycl	-13863
▁particules	-13864
spap	-13865
▁complied	-13866
▁recording	-13867
▁contributes	-13868
▁dg	-13869
▁fm	-13870
▁extraordinary	-13871
▁veillant	-13872
▁swaziland	-13873
▁foundations	-13874
▁unita	-13875
▁pt	-13876
▁newspap	-13877
▁insolvency	-13878
▁suspendu	-13879
▁expositions	-13880
▁hamp	-13881
▁contraires	-13882
▁incorporating	-13883
▁interloc	-13884
▁déontologie	-13885
▁redevances	-13886
▁codification	-13887
▁lire	-13888
▁énonce	-13889
ora	-13890
▁devient	-13891
▁directions	-13892
▁courrier	-13893
▁syria	-13894
▁autonomy	-13895
▁aggrav	-13896
▁entirely	-13897
▁pêches	-13898
▁douanier	-13899
▁atlantique	-13900
ocarb	-13901
▁film	-13902
▁détaillés	-13903
▁déterminés	-13904
irait	-13905
▁marg	-13906
udc	-13907
▁injuries	-13908
▁cellule	-13909
▁démontrer	-13910
▁finds	-13911
▁cited	-13912
▁changer	-13913
inement	-13914
▁pursuing	-13915
nesses	-13916
▁hautement	-13917
▁parallèle	-13918
▁prononcé	-13919
▁échec	-13920
▁anc	-13921
▁thereon	-13922
▁antiterroriste	-13923
▁plaid	-13924
▁intensification	-13925
▁renvoi	-13926
▁normative	-13927
▁ceasefire	-13928
▁finalized	-13929
▁portion	-13930
▁exacerb	-13931
▁holdings	-13932
▁spatiale	-13933
▁félicitant	-13934
▁inappropri	-13935
▁alde	-13936
ato	-13937
▁flé	-13938
▁hopes	-13939
▁anyone	-13940
▁somm	-13941
▁desirable	-13942
▁fitted	-13943
▁fragile	-13944
▁separated	-13945
▁américaine	-13946
▁unn	-13947
▁oceans	-13948
▁tiret	-13949
▁kirghizistan	-13950
rains	-13951
▁consciente	-13952
▁suicide	-13953
▁phosph	-13954
[...]
